fc0ef3c72bda1dc97ce3060c03f0cc53
fc065e814a442add0386d02aeb9bb420
fc08b48ae5845597f79a76d91d7c1dbc
fc072f29e8dac72dde74f23b13ffae35
fc090a38fd4b5e363cacb94dff8eb44c
fc002dbe6e386fd272f140ab6dc3b63a
fc008ee05f546b0440052dd56e8d7ea7
fc0c9347336d2b5033a37e7a6d9712bc
fc028b4a3a0521a7b44d198dc42830ce
fc063b5ef0f8a5cd7511464888b1aa77
fc07d91503069b063b4222024d2683a8
fc0052603ee7ea41bd9d6dfd1d6ffcdd
fc0769654b5bf4cfcf82929352314826
fc0454b1a693bb5f1f3d4cf3bcc81238
fc0950d137c6d5ba53bf338677934b1d
fc050cf642c107707fcaa5f7e48dcb8d
fc068bd4691969a547bab690eb126fd6
fc0df8a5e0b0d5178cb7503480ae9972
fc00e4d59001df3eca51081cbd3b472a
fc06f685adb2dab2971a0bf8df550bc1
fc01adefb9a8743b7962e8c0221731c6
fc007ce1bda0c70947521d6c8574ea55
fc0bf3b15fef2e5d109a267c36a9f848
fc0687cdd61dcd7e7f13bbf890348a02
fc06ff69feff508dd1ae336a782bcdea
fc0f8ec133ed9b6cce793ca8d0bacfe9
fc04a40a68dd85d8a471dec907f04726
fc0762f6ea262420079af5087591e4e2
fc0e2b8f3905216ae5637f05bfe9fdf7
fc0d16726117c25a2805440ef9a519cb
fc0466e5cc88109301005af3aea42ab4
fc08a6e374d84db30510711e033a4f32
fc0fb42ef0b3e306b51d9e6af9286d7b
fc0144da89a8f0ec79ca9d80c37f8005
fc0486edb9fa13ff1608370c6d6bc427
fc0de53bbdd28de7211568ef976324ae
fc0c13d2c46c23f73acfd45593d077dd
fc09fa80e3bd19081981f52c861ea617
fc08aa145a4754aff307f02b738fdd3a
fc0142ec647dcfe359c6fe041007b066
fc048adce9b0ddd80d486d9eb7340d58
fc0ffa994811ef38545407ebef762c88
fc09a7ebd291c5f86cb94d3619f86657
fc008138861366159d7d043babbe32f7
fc0ac5ac8e02cf36638b3de0563d64d8
fc0581e8f9a65deecd3a8f536bcdadbf
fc04270b596ba10cd0612e7cf0f9a418
fc0d912fce5f636808f3648814e76f32
fc06080498e38d8ce98bb5d6ee589a38
fc00d3e8826091d92c8167ffcae7ed88
fc0d8f87c77734ec2b4af2e1b4802a2e
fc0beadc819adf4c94b55eaa65f525af
fc057e36b3ed55a4877d7f3fd3911c98
fc07cc921ccc3adb5a6443612e06f057
fc0d3026d2a4b48658691c061dcd6fea
fc0e60425c271648f2f7550904fbc749
fc089f27a6eb041b1aee2ea272474204
fc0c3c225f43a6e2bbbea56367fbad79
fc09e5f231ad0edb2696df99df65cecd
fc05e49d8f7810f4a1d48b1ffe17fd53
fc06f6500acecf5bc20a74d90536bf92
fc0f148208d8905581757ae4dbf7fa04
fc0aaf5dea173fe198786ff92f91a575
fc0c47020ab169a9f7190ef984b36ce1
fc0765e68852c3a546de6c5962dc136f
fc0eaf46164f0436e1d9a25d37ab514e
fc0042691ace16e671fc89923469bc97
fc0024a3c685b321a8ab57ebda267e3d
fc03461044befd66b20337b8071d7883
fc0caf8a6d2e8217d7413b5b334bd157
fc0cd4f52d228a5eadd5804a5c85ada8
fc0aaf473c075dc98775579313ab6bda
fc0ed12a57282b47c5346fac332d6d30
fc00039447c57f20aa23e8258c514492
fc077b11e53310c9d79f91e70087f65c
fc0886ae64af9d880a2dfae9e8b809b8
fc04c1f129d862136a70eec24982a924
fc03dc966cb2668b4e98b1824aaeba75
fc07f68d33a1cde7c91a65fbb294adde
fc0b77763ef9900e347b22929c3cdb8a
fc0c9ba92d8e183e289fba51ee41c8e5
fc09ca80d5156b19b1525e13fbd0a2c3
fc0172523b2c7fa0005fd1b918319942
fc041da9027aa47d97a4014721203f17
fc0df0364df4bd32021ad5f4aba7f5d3
fc06b832c7fc74b18c84bc7b42786737
fc0f78417a601d583b241ef3b9d07243
fc078233f3aaa4088a6ff1df155e07ad
fc0304a619915201b03951b731f1fffc
fc04263820030962f66a81514883d4e1
fc0abd6b3d71ece9f04177e0d70f6e1a
fc0141b1a9f592494f7e1be3ddd98a8d
fc0eddefcdcd6f4fc3b46a509f29e78b
fc0d832c7cc770b29ae2b7feda717166
fc0881213977d3287d8bde70a57bc53b
fc0f5a632390d326d3dcf88cef14ab28
fc02e36eb3c58a39ebd6c8ce12c8968e
fc051b3d20f7aa3e6550249993b31d26
fc04b3f0a8312a0fc7e04571c39a99dc
fc0a341402a393214f4a86b2fb94950b
fc0eacb6e65e0ae6a0fd4c4c80c0b40f
fc0c7f168a580048e518d6d7fe6d1506
fc0a5deb48992f14ee09a3b80317fc8c
fc0a503593a8b83895c40adae8c26238
fc0967de2c5d0aad0092955f3ecccf24
fc06acb0a2e3552d4d8d25e103bc4077
fc0334597b17243466f0df57c25dfea1
fc0fdbefb976f490bc2a444c27d0404d
fc007c50df817f682ef3768781808b7a
fc0f9975707813ccd33a34508ad45aeb
fc0826ac5934d94d6b2933cef409399b
fc0e3ea3641cfbb21fd21c28205928b7
fc0b53188324566e11cc945c5dfa5e38
fc0320a83082947486b88167468f49ce
fc07bc28d36147805174a2978973880a
fc0d7d1dcd90d5acd50110a973221b1a
fc0b87d8640df7ed9d83335525dcf38c
fc0563e8cf35553eb7a56c72112b0bd0
fc0b873414125e8530e1c3506cca56eb
fc0b622f6da856c223a6b44730d38f24
fc0bccb452a3e2619c414a2c91b486a8
fc09f3bc5ece95f75aa3021b5fae8e1c
fc0f6c6f6906b23fe16f251e6b8c9c82
fc014c96e4d9a1bf12f8bf88bcb376c3
fc0d2754d3e1bf35961c25953327eb9e
fc0956e9d25b50de93b85a9d6d97b941
fc01b495ca212a82b760ca98b012a0e7
fc035549f5ae04b7cdd747c3a03c8bd6
fc02f2ffa05ea8d09c1eebb0efe1fce2
fc0d48f7d4afecd45cf2568ec6d1cf07
fc02cdec72c26106b721340f8e21d4c7
fc09914fac6549a89591998a05c4385b
fc0c224718e80329f1f51342f9ce1d80
fc090160bd466f9792d85b94fc21a5e8
fc077746676d0ea1a40a56fc3bb942e8
fc08f094feba76bf714ebc88a0c1f6b4
fc006ad8f53e660c22c658b66616bf07
fc0bd34ccdf36289231158848952a012
fc059c48982afd4b689681b79daace2d
fc0faf378a5670dccdd6409156d861a0
fc0ad878a1d57855f233d0b5a3c575b6
fc06e78e2daee37bd0674158d875abe0
fc035405476d3e5d88e415f9867319d9
fc03922dd1593d699f89733ba80b73c8
fc0c0463d7952a600a88d0fdaae4c08f
fc0ad0b18c8f5713dcca66739a00c3c6
fc0e9bfe1e453b27d502261bf5df9321
fc04c890918bfe27334f978a8167e16c
fc04c8f4ae0435fb26f999295e509847
fc0e946215d59c3b4435203af124e801
fc02624e386e8b074db822778303e782
fc036af5bf1d11288934dc24bd405fa9
fc076fa66178fbb3bf0e66b350243471
fc0197ff09850988e3947a8aa8c0a1df
fc08baacd9f0751725ab127263b67f98
fc0d40587366a53afc668e3b4e43f2cf
fc0ada6c077336771699f6e67e159815
fc0e5079a9ff548def92a5ecadb2bbfc
fc0cb83344d3421763e8e881034d24d5
fc038c77ba3e26153416522e69aa71b4
fc00fc98825635f1fa7eca4b4d923f83
fc0e6f8aa26eaf2f046eefbac5ca8a2c
fc05d4e9855474076fae71ba67f63485
fc063dcbed2d5d8b86ac9be58e995092
fc0efb8b8a1acfeb34cb87925ddf5638
fc044f71118a91b8bc8baac2ea9b6958
fc0d70bd20d28b02442e006f1aacec98
fc0304643c8ad9ec379d52ce2867058a
fc06913298f229d6b6bca076c56a013c
fc002c9c9d0a1cbb524d7c01dfcfd425
fc03f505160d30118480ff122a8d26e6
fc017d99867d7dda90a5940b640b26a2
fc0fe75fbb81e29ac945091e4ab6e4cb
fc02ef63ed58705ceb0d8a5347435226
fc0faa440ecec10686891a75adb544c5
fc056f4b5f84796e211db56da6f7152b
fc0ec9b01386dcccea78bdf02a881383
fc0d7f68b4691c65d9e31ad92bec739f
fc0b09a290cbfe77f6ec6c8dc4e4afb0
fc0d433341f0179e81eac18432447bb5
fc0b458606afb52016a577ef4dd45c45
fc077e84ce32e69ba75cf526add56850
fc0f0013a9955a4f0d0fee1834d8e27b
fc04301e5fcc4f8dca1077e1ab8e1aa0
fc02f0959cfcc2d6ce9cb8c3562cc0f7
fc003c61610cb5790a92f6781a9172eb
fc0b53f8ae08147e51e782bfca34b64c
fc0a1ee954d772055a39f66471cc9db4
fc008e459a8c298587abf661549b6159
fc0ecb71ac7b340cb11df26fd62340a5
fc015e825355dcb83b0a52392d3becae
fc0e7249bc75e69f07c9b09714c9c4a2
fc0fa0d72c5587b2535a8f858f659d19
fc0a7eb813d4deb2436390948988d062
fc0c54e05c1600b0eda8b86216a213ad
fc092740cc0a0589172c7c57af5d2fbe
fc0685087812da96a33659c2dc5395e2
fc01cec892f258cb0281f6870520a0ae
fc0da0b50acef0b960c3f78ca4eb56fd
fc0d230018b30df217ed30794ece8658
fc0b71c105108d6bc5a9203a26d3ed1e
fc0e7e4ac1dc128b0baffbc7aace3c81
fc04123c12b6669cd93a31b05abd4d53
fc0f429492d10a736293ecda4667c07b
fc06b6242d714ae804564e37ff4a3439
fc0a777a66f62e7599188a3e8da7beea
fc04f9ff0cd2242377816e9279fa1719
fc01140cf9c4acdc0cdb45c317c2aa5c
fc0bbd66b880ae7a09b8045b0bb424ef
fc02d505330363da5d26c53971dbadc2
fc080974e69da8d60556be5c6922468b
fc0597c3e25ba7a04651514bd51e6c3a
fc018e135812f2455b159a95a8547634
fc0340fcb119df45799446cec7944eac
fc098d8896f1b7d0bf934888e5521693
fc04e6cf92ef6cce36445d3a87831637
fc054d34d5ddf9a917197d5b4ac85f61
fc040501926761c816359a598340fc46
fc077fbdee75ba670a0d7704935c0b38
fc00f62887ed3e0b6f6e543ddd14effd
fc0b465fa647f6eb46e4fff0bd074809
fc0d8b3ac89b931fae89635e5eb51276
fc0498f99ec3fd9bb538f22f7783460e
fc0802d10028bcf8146f18483222e3f9
fc06f68676c63aca1c45ca15d27ee0bc
fc0aec5a0f39caff94e78446b882ac21
fc0173e4e29aced1a3f7d95ceda85f90
fc08081b28abbea955fc7c9c70ad61f0
fc0b572e56ed1cd68fc7043369de4557
fc0ea3dfae1393691f93f34dddd83cee
fc0e56d4afb9f518b2c034e01c593b23
fc08cfc21ac51fa429f0b3ceb7c3ca75
fc037d75504da7bae1dda479b765db41
fc0715e9d07b05ecafa9fd8293b58750
fc0e30e60d9015b0265639c2a3a79235
fc0d4f1142ab117cb1c438e09078afcf
fc046d73a4f6a5b627006f543c85f9f3
fc0735d1d5defb99d9d17ffe39908200
fc0cf89673d77baf6c5b7c059a18f52d
fc01a192ba903ec703118a3f04ddbc80
fc0a9a4bd1e7c74ca0b82334719bb4a2
fc015cdfd600b6a86e85e6672021e18c
fc0d378e2be159cc5239aa1199786e33
fc0896f1d8c46728f8a29520f8f408a8
fc032dc4cecbb153ef48e0cb9e6fe31c
fc01933bdbbc551bd37583efefbfbdbf
fc06312b33e31071c9e449fa5ba204fe
fc0a86fdc914fa51747f9fd0c86be3da
fc0ac2f57f8cb99821d35f7c5b590db8
fc07db7cb7fdc92f064d6a99a62bec53
fc0e6cdf8ecee3eb17fd2c017b88ff58
fc05fba42f22322a8e37aa1386486862
fc073dd95ba9d3a81920c451ebd874d3
fc0ddb503809bae933439650a0dfdf11
fc00c63ab66fdbe4d8a04b094dcf5cf4
fc09654e4a6839de4eec2e85cfe388d3
fc029a4d1a40bdf334e81398e7e41878
fc0125fc648dd5e805e658b5ecb1dfbb
fc074cbe8f036c41b19dc6104b681962
fc0365ab9f4c77f365ec52ee7fab5436
fc0cd1785e43de102b223be2a9173a1a
fc07653eb7c331d4b517c323d1e6169f
fc0dbd5445977965fba3c71aa9068e0f
fc05bbeb472418823142531821a4542f
fc06124f830888ee84f22d58a0483cb6
fc0f53e8093644bdb94fece7fa2b22a2
fc0b4f041322da1bcdfe1bc111dd522f
fc00deca5b26d4bb87195c89b030aa3d
fc098bac23863f225aeaaf59b85d905d
fc02648b94f656a421062e3139b893f3
fc0e0b5d47eda703cf5ce2a9c36024ce
fc06da1f910f7f0baa6ded13f5ddda04
fc01e2a29faa57162a7710e6d7be2e50
fc0b1b154b6701d6d8c3528dc76afdda
fc06449b33bbfab3b77f13220bb028e9
fc06ed7705e057b8f7c8e28d9714c9c2
fc06776b5e4c9acee71dfe2a50c39316
fc02e13a7761d821b1c15c3eea65f03a
fc0dfc402923c09dd7acbbaf8f4463ec
fc03c372f11e9a301d6db3c9fc68f7c7
fc0f217148d658bf52f9cefdf41f2eeb
fc0bf166e1a05ab5b5f0fc6e5db91d7e
fc01c0ab16cec883c24be6221f2a14a1
fc045ebc074e6274d4619e9ed63ca52a
fc044cace350ab9660aa057be1c83350
fc08188002fdf5ae689a6dc2f883c6b7
fc0961ce7d7af15ed4d9fe9d3743e1e5
fc0787351a170684d7db747dffdcd30a
fc0cfef5e860a2bc78d07858dd8e177f
fc09c697969ea64a2ac9c6d103741743
fc008f3148586e55dd6bb18f0f4c3d90
fc005e3352569527c44e8c454c114823
fc0ea5c7f95e575b0a7592ab17d4d535
fc0213f7fe8f012eb55b84ca18974065
fc0e09843abe8adabb39ab5515f2a957
fc0ac5571de7f5682c94373f91e2da54
fc07ef7f55cbbd6a11f7fc50bdf7e2c2
fc0964bc05510363fe3db3dff15b8827
fc0129775a3b7e9f0e88c4d404bfaa76
fc0934fa4e7d8b320f856a0450a30df0
fc09dd7ef91b9e780fc9a4b75b4fd1ff
fc0ba419f886a59f730f663fd07120d6
fc0d5ec37500937545b8337eed77ed11
fc0ae6b8b6bc9a093e585b8de8215baa
fc003f68dd394b57cfac882011ed14d5
fc00e16a1b8831f9b5aa8ff137235d57
fc0cade43ae2c91616d1ea7b9155a4b1
fc076bc64bd6080758cec2998b687964
fc0739fc9074b48afbc642a9baf13c20
fc0aefed7ede2226fa35f0699c1c3eeb
fc0965b88d28e1cbf4b64b5e5270c6bb
fc0b16852dd1006a290dd0afeff4b5e5
fc0f231f2ab442e11f041e881ed22421
fc02f98c0e582624d5e6954d22374dbd
fc0bc588145e797fe6f8387c63072977
fc05d1a0074ce7bc816c54324ac0f9a4
fc01765c67e48b58ca61f81ef2a42dce
fc035c0762f9307fce9ce6e2464b6724
fc06d67c6596e76c08ca5cd256e3e5a8
fc0423b3383f669f7fdace73e267b5ae
fc0fbdaa00bba30a52796460a975cdd5
fc0faf366d7b4ea76a3a434296018d6c
fc0083b1b37de0cd55030cc9da09951d
fc0a3d806a3a169f9061c1995ed934c5
fc0a2f4dd115bc24e482582586d49720
fc0fccfbda5508f11135ed2b5997946b
fc07cb6d9300f42d58b11473bd824fa3
fc04c253bf1b5b6a28a581675bf6fa30
fc09d9ee2635d36f11cc4f0a562e0954
fc0b6e4cd5612d6fe538a388e9626f49
fc02dbc5a1dc0cc47cf87400352211e5
fc06c7e90172305558b4888f91279e1f
fc08bb52a9fc6bc54354adecdcd32072
fc05136b6798436e187c6e488e659459
fc08a6cdb4b2d89fc8a851ea65e04789
fc0266ce44d6ebb4b471d8f36735fb31
fc08ed0d29481fe5c262845ff8f06616
fc017773a5f90a25cc5b816c52bff3c5
fc081ba6178169fcdfd0911f248a0d7e
fc0518d909bfbfd57651ab968505e782
fc0b84455b331613fb9ac0a9f04c470a
fc0efbc929bf44a1f658bbddc2db8561
fc0daafa2e7398490151fda00bbba6e0
fc06b8d5d25f880b357947490a8301c6
fc0f1f9d9be08699a28cb10dc7de30a2
fc0efaaeeab349885445cf02439cedb3
fc00d7d3bb8cc1881739ddeedae92727
fc07f3e57ea4eda67a3c5f343d18d455
fc0974857a14fd75a753796c7765a469
fc0c6d9d4070ab56cd17458393b9d99a
fc0c0bc1cd9a42229294f83cab0f9ba1
fc07f2bb96f37aae5c4220fb627db556
fc060546735d2389111daff99bfd9e71
fc029ae74956d80c817088513e9c96cc
fc07fab633a32c88ee47455f12cafc60
fc0c2321dd06363bb887bfe5cbce8691
fc05fb8fff41350bb7950efab833a881
fc06f2cb1c5167fd0afc2e3b9ea8a4eb
fc0bfaf057229216d304daa72f648caa
fc09c304d23ab220c01e00c1bd795d3a
fc074390008143bb024ac4250e54a582
fc04164d992c1bfe3a02fb4e691907f0
fc06eb2453b5a5135346449c0a6dbae5
fc024ecf9002812aee20395750399dd2
fc0bebd4ea49b3f7ed9206d9e16e5ee8
fc0745a7c01b3d5ea243e7af103cab32
fc0e1102bb0d23d296d4bf50d90ed9c1
fc08c0ed80e254754502313db289ac63
fc0289797921c63d630e59b73f587b2d
fc08e3095cb2345825eec5effa743711
fc0c0efc3817fc9c40a3c6026970a53a
fc0f5bf9f55247903ecfb813a8e98f8a
fc09ef6782865738014afd338fc86055
fc0b65dc9d997c87342d338ff884d05f
fc0b53d78e5a213bc2e107770cc13c44
fc0b344a555e0a18cbe4a411cc26bced
fc07ce91a3e82caff935fb4384d20dde
fc0bd4e1a7e9db3a1aa0807cec6812cf
fc0cc2f7d4579c634f20673e14f92d6e
fc0e6c50881bdc454ed3dcf82267aaf9
fc0212adf4488e9c785236e22fff2f38
fc0dd55b6b68e58740bfaa66fe38d258
fc0de27342364058aa3111c325fae51d
fc00c96f6212e0723c57d407b0cee011
fc02136c2679d036eaa578222a2a35e2
fc0f15705a9218b2c314dd18ece24817
fc08424f7e94187cbbe8304f6f32a55c
fc01970ba03aa9255285ce2796133a36
fc04d3d1ba313a38b2ba0c9b8533b494
fc0fdec1c88eddf37c4b6fc9c571229c
fc03dafa20a2f18a888f333ce27594a0
fc0a4ec535e991691df507c180a28c5f
fc0aaf42e001d349391ca831a9822f45
fc0928646ca1a1bad639a0f020787ebc
fc047a01a30cc90bd9ec0760896863de
fc0f7d77440f6786a47b049745f9d32f
fc08d89f23362588df1b249ad2a3d1e5
fc092bf0bf39d000df38bcd31a857b2d
fc0f281b7a29ee1422e5ce1454ee5f43
fc0443843389a12266efd2adca7132c2
fc0450fbdd3366ba7241804708067161
fc0f7142fcaa8b164ffb68be66e3288c
fc058dbe89b8179505ab77af5a2940ae
fc080f57dfa06f87cc315716ec4be945
fc0ff21b76c2fe16cc0ba58cafba8cd1
fc020fd601a1ed86531ec077625636b0
fc0853344d7fcd055b14c6b1e4329ea0
fc0c725d1eef72056fa87ccfbad2a875
fc0da817b3265522f9068987193948e2
fc0bfd1adc40960d75f5adcccc98f021
fc0a400d089e64758995e95d27d5a78a
fc062db4d769974c30dd1e7bd9c79d47
fc036d4825e076612916f012f5cca601
fc091b0a00779ca3fb85d5204bd386c6
fc0129345cae0994ea27dd04b80731be
fc0d8040d1299186b3e45a85454daca0
fc02774651c83f04c5f529518ac3a678
fc0beae0bf367d52590ad4924048f3de
fc0cdc973a35486f9fec9fa45037a4dd
fc0acb53c22e35d3150be1a23438de51
fc0771c5fbe533f1f9b5b6c98f247435
fc028626610df2e14cb6e6c44f0d45d6
fc0f018223e6f652a53af2afee0ff00a
fc0b0bbfd57e44306f849ed741314b6c
fc03a1f0aca69f2eb5a1f64d3b794ca2
fc0ac9e5815738befc6e8117c3d64578
fc028dc7ba42877180e74b0e7afa818d
fc0a5632c0d51b1b6abd48f921f48634
fc0008ad1acafb9bc9f1f23bedb138b2
fc04d67a6608ba0000451a297edcf93f
fc0e9168980c6fccdc14fb94e0b140bf
fc03a5bce8f205257fc8cbc875d15c4a
fc014a9c6fd4420eda29fa1fd39850d4
fc0e0da079228572aefd6859fbb9ceb7
fc062afd064b951b022792f9481992ac
fc0d316993b4d667a129838790f86f57
fc0771936700c8bc884c06398963315e
fc0fe1a8f0f2021ad76d06d556e95054
fc022dad99c0032b79317d69749cd29c
fc0c66571b472df4b7ce3c10927035ec
fc00974ea01bfb5c778649ffd0e05620
fc058bffcc689abfdd817f2c425816cc
fc0e44ab9ed3bb7b26e25aae7949df0a
fc00e8cbe5cc41ccc053529aeb7cf3f6
fc0c2dc3f23a4b77089745a7087d125b
fc0836d8b0ae15f3cf1d362da0e1d4f3
fc0740431dd55cfbfd086e2f794636d8
fc08651d93046efae034604d96233d14
fc0d947e2d1b4245ab6f612752eb9017
fc016ab04d15478e0aefc3105c558073
fc0957dc482205ffad548669e32db1ff
fc0a696182c6ff8317e81d6f767f1cb8
fc02e3f535fc8a5b7e43b14abacf97a8
fc0a9dccd52f54de164e36fe9b37c4c4
fc046a9014f4b00cf0061e6ec709224f
fc04edf202b5540fa1fcabac2b6c2965
fc0a492157dbc887dc2016e1722c38ab
fc01b49ca9011dfe6121c8794045efed
fc0d906ef424321ff02841aa07dbdfd5
fc08224e7aa534a40d4ceea639375159
fc0f59cb3ef97011126b136c52b7247a
fc0936af51e28edb637dc21f83bb3dd0
fc08e26814d4bb561062b2ecf0857c07
fc019503d5da9ad93caf02d1b4579c19
fc0e7c6cac2b9c245312dede8c2b5d45
fc0986ac2f9a4e92f2acfdc4d51a4e7e
fc04ec3db5df24ac0eeaa6c5ade24bb1
fc02a1a8ec8852b9d6638563079aa5ef
fc072f651a15b021496a92ee11564646
fc019ef677c7bfa2614c095a75ddf11b
fc05e240bd247f138f4e50c4cf726920
fc0a8c910247c558b47bcfa5dec6b0b0
fc0022d194d704ad434888d3f42a2829
fc02ad8374802eee380432e1e4ec9db2
fc0e97cf327d852a3eb3a4ccb3d3c987
fc0036e73c50ecaab7319abb27ae97c0
fc07dd09dc1d7cb47d9b9ab70035c693
fc094be727989db64c7d4fd7faea4c8f
fc06628426c8da75294397a0c9d43499
fc0297edccae9a21160d780618dd9fe3
fc049d5acfe1906c814c871fa5f92c78
fc08859dd3cf8a27b7efd8f5dd768f43
fc058066b37a5d1378e2fb1c9137ef21
fc08d24eb4667f02b561ea754810678f
fc09472f8871a9339cf7b3c068a2521c
fc0db00759211d16433e1dbc4643a7af
fc085aabc36384ed320aaab1cce7152e
fc0561ec1a63ac8d5d90a974d0a2673c
fc082b80dfd2ed5a16c8f5ddfa327cbf
fc0d8493fba50c72d096d24c4c99d1be
fc0bdc21c83d059dd888e93e33269dd7
fc0ef19474ced480090d204aa79c95a9
fc09bd81f5cd3a69e413259b1cd3ac12
fc03d19d323cf8222e8599a3c5efa369
fc0e2e1be30d546f4bf0ca6a018a2dec
fc01f2124e1eff8033da09b15e26967b
fc03487dff49f800d2bc2d90f6b45356
fc00ed74a62768890c6880db1d02d4d5
fc02cffd46dbb34cd2e7f0f63a40cb61
fc0faa1d2a37bb2c1b1e8af7a9692901
fc02e11e992189f05697767e1b691439
fc0e9fc549923eae53c54ca7386edfaa
fc03dbb48b5643baf2296febc58a8efb
fc0971cd12ac81e39c2963d5001b7f26
fc05dfc55cc40121886e7b32c8106389
fc0a39ab1c32dd5f0d6452cbab86cdd2
fc08d648d965c5b46767fca1128a9c41
fc06014697503f3c1ec75949b169ab66
fc0fa040d516b2c088da195b24eb6522
fc03e93a7e79ffa79a7c8b0ac32c65bf
fc064abfb68a17eb71c3576a84397515
fc0f867809d1fbae6e1eb4fa77aa3b0d
fc0217a14d29e937c92c6cf8ebdff059
fc0c570eb828b24fecf9f087b3994f6c
fc0a7479ae225e0474a7e64205974c64
fc00e0d884e833da8f38d1da83721a59
fc033ce625e5a1559cde514c5e411b61
fc06fecdbfe4e9e11d9f8bf00f2ae3f8
fc0196d723364ee25dec9e182e17621d
fc02989f9840a6ed9dfe34e931064339
fc07987e204e31c62581b44e36e3447a
fc0f4cf36e55512cd6d5a82e65e295ab
fc00694ffd39a317c6519459f9db3477
fc0b324708bed0c908b47e67c3ce6427
fc06212103213d4ea49bf67e75189e74
fc0976c91a2cd686893dde5f3f33081e
fc05bb50412bdfd1c4d0b86c0b5bbfbf
fc0f24832b726027e2334757b2b47869
fc07ddd652fe23047150d0bc9adf8153
fc0e59403dd9c145b1a895a1b0580e0f
fc0378b76b7261ba0177dab5068cbafc
fc0465a115f885f5c7710511267bf246
fc09ce33fd43ae1d768ca01fdc82d492
fc01e90c86589ed40cef956953d5df36
fc0bc866005090bac59ec331dcc7486c
fc05742fd29f19981f08b4869f19e478
fc0fbbf2596226e4b170aeffd905fd9f
fc01c06a469b0f7b2e12ed074c32a36c
fc020023f913e3d7be8bb74522b2948f
fc00ae93f30d4eddb8fdeeebc0fab2e3
fc0aef3d18b6406bf96d9b748d118962
fc068887d8fc0003138881237ad85529
fc0bf1af4fdb28a29bd3981ee082a0e8
fc0b5bc9a9f5d666d217d6eb43bcebba
fc04af8bd935d9e5a6cc495f6f6018e1
fc00bf73b8760b1fd34b8aa477cb3c3c
fc0f7c3b5a1a1026b7c0f31f8a448195
fc03668b600f6d0aece156d4b23bce67
fc0df28971bec14e915c34fb9d0be091
fc03491c00daff7b1845ea035f3d5aea
fc0f8814a17a0135e1f17dd53550da9f
fc00fb3bbd3645a66e5e41611fca5c36
fc0846584b8475d54651a1830117facf
fc01f24753f7d601dd13fd9aee223bca
fc0581d34ee066891741afd64a1a230c
fc0de8096cb13f2d01a7f57bca933503
fc02f5a0fbfff8ca06583d29060745f1
fc0149154b5809919bed1980eeaedb55
fc0d28c5cd2a4ac8dfe4522146eac199
fc01a9b659a0b2785204ae810c350e1c
fc04dacc3dc01324db16eb2792718239
fc03da17808131e8ed768b340e93395f
fc0d24aef1ba0953593d748daf784e05
fc0f325000e5cd8d8f00e4b56155a9de
fc067a2de9febf80d5c5b3c5dffb1ff7
fc0e384e3bba8cfbd1bffcadb2f8e40d
fc0460cd44ac56ad24c0d383edd2555a
fc030c56f4b8655c39e0a92595d8cc68
fc0ba86cb241d21d2cceb1289b9b22ff
fc0784c16f68e72813f788e02e5aafbc
fc080450401aefe70cc0066b19158338
fc072b8eb87fbcaf18b4444d00a795b5
fc00b518f9c2c5e0dd84e2d59fd70c9e
fc09fcfb0ac1538c2930e9edfbf8d16b
fc021294b01678b8a65ffe5c6d1c669b
fc033d1a79a4a042fdd4264c4ed7ffc0
fc0ee4c698ee22cc19e726c85bbef355
fc011c193611ea913ffdceef57d2f438
fc0698259a9df62a3efa9555ed79d09a
fc05980ff7345969046ab55cfb83f075
fc0bb1dfb93f8dbedcb66155cbcfe828
fc059fd05f325faff4ec7d2832b226a4
fc09064feec58e32be3c2c011d5f2b35
fc0fbb6034a1096ce10c546de62b97da
fc0cf6ef14e6a864da55525bf57dff33
fc0374a71df09fa5882a41b9cc158c7f
fc087774ce1b250484f08fa858fa30f5
fc0134b652a9707625c1894385b5c933
fc0276a927779d8af78801cf803ce93e
fc03f2314570a57ce1ef8c0643b0a9f9
fc0c214f5eaac41aabb32a046487396a
fc0ef83c52922de75e489c6fc4bc05f1
fc0185d0ea76cbff95531e4c6b33f3a2
fc04aa6a21de234eef17347a516558d3
fc0b208516d429a761e541dfabfc3bb9
fc052a441b682586174f4f370d9b8e17
fc0aa89344260faf11f4f598cc753ade
fc067bfcfc4c3296d9c2fdbead7e4e25
fc0da3f4eb9739e36a8e17296a2edcea
fc0f01f77793ada0e96fa4ef46919af7
fc0d2084c6fec48d68c1abc72e384559
fc0b739f84b52f6338278057728856ed
fc050cd2059ce16098bcf7399d12c53e
fc0a6a90869cee789058f9baedfedb6b
fc0865c2707258db2e0359d4bf5de13d
fc0c88ef61fdd0f371ce61cab69dc367
fc0cd58a801d0621e42d8f1d114c7e69
fc0de625a09b5019ae315cfbb68daae6
fc0e30b24dbcc1de55da7f3aabd2b3b4
fc0b221097bb8a65e84ba84a0aa8b172
fc0253d0a9487595cd31c9510eaaf973
fc01e9e2d34f76ff52df8c20ef156845
fc03ba8055a574c93393048187578906
fc04d18c4cb74b6cd0d97adbbc9bdbf9
fc077521da59a4021190b1fc9e3db02b
fc0919c237d920a75730da141cef9c2f
fc0c5a3406be3705f7a04bb9a1232d72
fc07e606822b627b11443781bf6fe96c
fc0dee782aad70bfef040dbe8589ecd5
fc0c07d4e7cd1a6005cc1fb8ad5aa714
fc0d8023caf758e05ded74a5e85798d3
fc0f7fcb7e845cfc04a0ec7f9ef9c43a
fc099dcf8095f0e266505b96b0a0eef5
fc0060088500a4be5e6786d37212cf67
fc03e0c8e705fb2b06ee55e13cfa6596
fc03985a8e344a02d2ca58aa1626c686
fc07eef60228b068a3f7dd1497af5cc5
fc09cd2be9a5d03361760ff02390c5f0
fc0624b7f0671f73fa72f1575a2b7d83
fc03a7f74c29193e325ea492693ebc7f
fc012fb6c3a825c648d62dd365ac7635
fc0c9e5bf79411ad2b1b6ba7ee2d16a6
fc0d858bba559e746c6a8b0e42736add
fc02bdca0fa4c0f49a684536ab2ceee6
fc0e2ed70bf04dbe47dd3e5ed9b79df7
fc081658e56da8b7fb600f45f5aab353
fc00d6be32f2ae24e35e83ea784baaa7
fc001261efaf35c371cff1e3f455f6ea
fc032a061ab95527858da6dc132b2567
fc0a7f0d5eba22cc615e4504d4e441ab
fc068670703f07533952b1003b8b1a71
fc036d88d27054b360423802dd16e797
fc087e2217f7115f71f278ef9b495d6a
fc07fba5f0456a761a3431c2b1a11169
fc0c9bb694f7d0c04ce90405699b23b6
fc0790b20ed7ebe4254b8c3686af30a2
fc0720d2cf1c14e966663ff09d11860a
fc07727536b082237afa33c6ba977c3e
fc06082b4db3b7570b577470599cba69
fc0acf893179045c1563bd007d3b7994
fc0a95c214abf0dfaca0fd21bbd139e5
fc05780bd50f30850c00e18715f4e67e
fc0bc226d0e186d0b465cd95f3ebde4d
fc079549c4acc8b3da0cade0bae21d69
fc01f7ad8fecf46ecb8446355ea8fe99
fc0db343964669a8b4219190ad700148
fc098f1ee0147c43e0412deb57e7dc9d
fc05168b9f684bb5754d4a8bd7c9c483
fc0a08b2cd623103e9e2eda1c937be0a
fc07f22533a852f144fcef3efefcb373
fc058b4b16baea1954d3965efbb272c2
fc07bb1a0b3232697bc929edd98d21d2
fc0ba4597e949fdb078b9272733adb80
fc01b5615c9a338fe7517ab9f102ab70
fc0dd0f1ced6d6448742da285976e755
fc016f8bcf46b200812b912857e7c8d2
fc04005aa8e2a33e24bf1b6534998448
fc05f4014950d4c318d42782b484f7e0
fc0d86a11ef8c90d56ae354f201d9816
fc0c217c76e7d508f6be7b82b8382bf9
fc0a492949089b61f5956e2d69254015
fc0ec3a9342d3daec8308b78a63e1811
fc04426aa79b3b57290456d0b727caa2
fc0ab873a6468668a9241f5bf34ee0f7
fc04720c173f38a19c642852ad9bb1a6
fc0a0cc59b73c5f8b0945752e4238651
fc0df7874825224240e8ce219d591520
fc0664683fcbd4c73aa42955472b687f
fc075336bf9508de2652e5dc1385ba8f
fc0f8fb2b127b12397fd4534f2326277
fc0f0250695828530cc1c95321f4839e
fc0b61408a93c15ec97f62a7e02d4916
fc040b491594b0e8867903159e372c92
fc068035205338ef61194b91e0881699
fc0306053db1a4e87b6ff4db4d02a8df
fc048dc54747c437b33f7cd04fe45cc9
fc094cf083b439e5eafc84d278f9ae67
fc01cdffa67a8bf12ed60cc08def673b
fc0f38d2da28e50222bccad22311b465
fc0e3f2cc93b68301600f90be3c84da2
fc05db5813047de041c789203df3b722
fc03233b951947d3a7a0dbf61c3d72ef
fc039b928f3d984ddcf6ea439473d9d2
fc0f0803529c77adec390322eb787f3c
fc022700b09177fbeb9463dd0eccfc99
fc0e08e70dd17b411b8a6e053f827464
fc0f5256115a5b50be489e9fb8a5e3fd
fc0af9fed44475c4b51eb628761f6dd4
fc0acb9d8e0be7c131d26c72a1966bd8
fc0eebd30e0814a048e3c7007bcda528
fc082d0ec4e78d7020c7aba6c53e00da
fc0eebd271c73d61167f29c6fd5d110b
fc00b5e8422f2d13849cbf1814380bed
fc04e9b92c705fd2a86b5bef23d24005
fc06018c45fab5247175b65c3b66a508
fc0af0cccdbb3fa68362aecbe2274f03
fc0fa57750ff71bffd1e2c96910a0028
fc051f58ed59640b9a194d2adb490922
fc03ab0bba08331b20ee1f3aeedbd3b5
fc054e83eae618707002284f8ac72f49
fc0ccf9a3bc24486fcc0b2ddf2c90b6b
fc08ebcf5dc31268a0495cb9d734376f
fc04711a3a782a7243ba5725ef8f9ce2
fc0cf1db8793b0d645ec5b2a06e89ebf
fc0a65c4468c1b6aed413a22831cf47d
fc0ffe6476c17a76b8751bb994ece154
fc0f20f27f469f2ee5d2d2a7430105a5
fc003416676d74834a1ac9fca7bf7737
fc0aa906307e3ab7d57f495c6e71f78c
fc09f24b5e1625f27a9684c6e8eca290
fc051dbe3c1d99c90abfce897c2ed2a2
fc01622563912ac37760e4101188fe08
fc0c602db286b3f16148da40511da729
fc0b583bd8c78dde467d9e003eb009d6
fc0103599332e1a1d65d612ebfedc5cf
fc0f9487d74f56fedcae8b356a64d05c
fc0f55576c020d7293162200b61e9968
fc072aa0ea0cc4f352122e7f5a2feb00
fc02242ae9bf9126526d83877797f0de
fc0c69fe2ed4bcbf922c28465f0a4bdd
fc08bd08c69cf78648d16a1bbdc29db0
fc0e6168db2313e944e3a2ab256cfe3e
fc0beabc31c1f461da4a2ef85ff4649a
fc0370ffd8250f05b4c72ad84a77bdb1
fc05b0affada6db42cf952b36fddc4a8
fc0f93d3ef01ee24b45530804ab7a6b3
fc07860d13a953581fb7524fab486d85
fc0313a71ad3da78b0aa5ae3e5a8daf4
fc0b8800f7611527cfc88cf32e7290da
fc063b729044deff4129fb537870ee78
fc07d38fba865a370fb7184f0a78eb34
fc04b7c2a426fe70e6689bf418bad502
fc0e771b9b178cedd38cb0f911f637f4
fc0ccbb74876ba604e72b494313345dc
fc0be3f1d0632beea99a7ee75aa25201
fc0a50ae3846a8fd41cbfe9677e64fb7
fc02f1f7e3ab5fa0932568899387b0f9
fc0213857835d421f6343d296d34e798
fc00de46ad4cf552b7a43e9cb8c57aa9
fc02cc48218cbbcfb41929f212e55fd9
fc082c41514cc878d24358e16a9f1aca
fc0514d4b5ba0b994bbc2bcbd9ac0b33
fc0bac03ad33cda312a24d31a324f24e
fc026862e5925957d8b5407d8884dcee
fc04f291d3e3e369fd2c3a555cbf65ba
fc0cbfdf67698290e1ec1c42074e9203
fc0becc23a6ad0190bd81c0964ef753d
fc034c3a64c13c278fd296eea01cfe26
fc0c6c15fbf71f32d5a3924674cf9db1
fc089da9597acb9c68f4bd66bb31d717
fc06f22070068689147f402ce129b2f0
fc04f9e48eea748cb453d9f1d94acd73
fc0f77bb2de468d51c14fbd04ce53596
fc0175505115c584a81b6ff58ff1e421
fc073cf84c75b7a6a1f028e59d30f886
fc0e5d3723c987b97eb9f6202131f814
fc0bce173d6ff00179be4b5f205f546c
fc0906708a67d38ee684589a80799d38
fc0a44264ee5852fb94230fbf658fbc5
fc072829a12b4f85c0995add9a0573b3
fc096bd2aeba848afb7d6a0cb2b28126
fc08133faa4fcd19844e7db13fbcad21
fc02f3e6b0073af57b67d1820f12a3b7
fc02852ff339c2f0fdddd6509639419f
fc025db63c7a404baa859294c8293512
fc087665b6c33f5d3e276385b2492508
fc0cac8dbfa5ed4901f2ba5132a5c5c6
fc0950e3e1aaeee09c0526f8e3a6ff75
fc056fa4c0eb18c2a355e35acbccaa53
fc00cb0e350001b9bfd69bb9581b76ee
fc003669ad7419b3ca52091149862bfc
fc0c7f2e1ebb96147fb455f94315b263
fc051bb834f05ef7bcf2dec4470dcc65
fc0a9e8de71d39b9b96eeeac01d178e8
fc02903e49d75dee2517d4c119d7a9bb
fc07f9ea8ed0d15556a027ad41ef97c8
fc08fcc46be76cee78c57d53a5a0fc2f
fc09def16923e9002f0334ddca54ce85
fc067c83aba20e9aa10a7a4b8b2f61cd
fc0e40962eee121dfe75ee7330c2d8b2
fc092af6ea4b9bedbadb2e8a8ba8db91
fc085513cdbc18c97bc42d9f775d9d18
fc0c78856b574dd78f923c0a7014956b
fc02a4df4ac1f3983c307aefaa31e6f1
fc07d3d7e916f99ed0c452532abc4f9e
fc0e772e1e199f7d009027d15b44d5bb
fc0ff1d30ee311d98644aaa7da40a500
fc0c072779d10047d7fcc06ddb94fe31
fc03d4ff16150ac5e8d89ab6c8ddaf7e
fc0b49334551ebc2c9254ec7cca5d2c7
fc025f7efe819857cfdb04f20a1d60a2
fc0657eb699f9bc4a2c6ae4903553a1c
fc019c8a520df721313a0161b5456cd7
fc00cbdf3634cce01dd6e38319d659fc
fc0f3bbe160b15e7e353a2e0d1075c42
fc05928890e5d77a106983814ad34bf2
fc05f0d02a23c6b95e1c2678d63a2fa6
fc06bdb731b8dd276935e97f24b36bb3
fc06073ab8156cef32efbf441e8343f2
fc0058a8d84e570bad060d40939877fb
fc0ae3a2d665ad73d0b91d743a788a81
fc0ab7cb128f08a253d6bf5f419215e9
fc065ba51a3107b468f6f69402c8ec6f
fc07af792b5570404c3a97c35f4e08df
fc07ada4438c4ae5706941e32d48d6cc
fc094790ed66b47f821bc7739c8fb145
fc07f3c74cd6965e2dc589c237a61519
fc0d0db60df4ed8a06fc1a158a8b120f
fc06562188e1e5b847e24be4e4fa0f5a
fc01410d6813ae0fe173496e89eee003
fc0fd98e8cb2fe2fe913e874daa6487a
fc01670a1c9013840018c6b87da3f659
fc0d0d717b9efa2abdef8c39fa45e666
fc08f5ea7e1cdb146b4555570aabeb8b
fc01aa6fd7e6ad911d8d26abc8aac9ef
fc06dfeda8e858ceccb768f4fdcc05f8
fc08833959db27d98da0c62d4b2f6369
fc03133a9f3467baa9d06b6b204a555e
fc0327850ad8b9458df5a9e84fe23923
fc0a3ad0702d6457a3acaee34bacca99
fc00b18929ef2043349bdbf01e199cab
fc021d9051c528886195504e92f275fe
fc0730a9f2cd6cc7f4c48d92260df4f1
fc0faf85430a501d703ef067aa58f239
fc0a475a5f6cf1dedc9cba405ee996c0
fc0b98d18750ab97c0b4ac1f2717f85c
fc0bc3bb7f1d5c8c3e2a6854a6037844
fc07cc1118f07611fdbcfcebf2cbd9c6
fc0d4b9f9b4c0283fa31676a3c2df146
fc0be98e63f7b468e8d8b6a384f1499b
fc0ebd4275e977568b87970492471cb3
fc0801dc52c7d81241971f9921189a7f
fc0fdf4cddf2e61ad4714e06fd7b7ba8
fc08a84989572e198272092477b00942
fc0c7cfc2e28574d1652f6d6e5b4b037
fc0a2c784d177741580633a77b722228
fc0b533b327a7ff41b63d535ce038f04
fc0d13af11d4956c779f1226031af0be
fc09b5ed9f457b2a8ac24387f6179aeb
fc0963e62bf9aea5588dfd7ffaeb04a4
fc00347636bd7fc35a651745ef1da5aa
fc0456ab95a76d85a56918dd90367971
fc0162b1ac65b156867c24968b99a5c1
fc036c29c37521e059446b3667029064
fc0ef512dde82cba47766e22f2be9c6b
fc05055a4c040477d25ede2b53eb0366
fc0db33cf0db14920a6f0c248855ef46
fc06c37e6ef9968ccec131f8021eaa41
fc067b90ec998175dfcdc4c02d0c5728
fc0e3a879c111ab750cfef58a39284ed
fc0279d7ac255cc5b459eae924b2118c
fc0a63dba19e43bae8fd46546c26bf71
fc0810ff525602fbedf652493b543764
fc06e000b735729ccd34adc229298e2c
fc0d7330605e30ae1f415d34a480ca46
fc09dfbbf7f340ba97a98dae992bdb49
fc0cc5a92a4953de8963f9b5cf1ba0df
fc041d1cfd4e3158ad59bf0aa76cf464
fc0f2b519db1bd259c5540f0cd099306
fc052a897930412f2f5f2795935b3578
fc0830a48c81d8b9b2b65e1d0563481b
fc0b0fd22edecb455c20440b972c69f4
fc0e1ffdf5a6c9223bf80e7ff332d716
fc0f887d797cf3171e7cf9c06e4b216c
fc0c2b61b4324fa6c9a328742070b316
fc08a6ce4c35bcfd641b9a519c2e945d
fc08555ef9e6855a19475770f5c0b32e
fc023742b8fc662875f8372ff06549ea
fc09b8fff9213cb350f8684fad5ba3b9
fc0e3bdd65652ea851ca7c96a89b63db
fc0f02234648fca63558c88b0280e339
fc0c838ff2e0a1c6f2c0efc7b14ba0db
fc0a372e77b0ae115973e07cc76f7a96
fc06b4b65fad10a34c8ace8f648bc1ac
fc0bad952ce2bd5a48c3d13584c23ce0
fc069dfed54462545dac573cda8943c1
fc03363a105485180d99ec9a07c06e12
fc0c67f7f4989e706cbe7e4cfea403cc
fc0a150ce3a8c85a8785307be57a5656
fc0b4f8f9b791a34255f870c8407cdbd
fc05697f1f0dc511c3a2797692f74376
fc0e8bc30f71db30e0247ebe849eafbe
fc003201b31dc77abc2afd79e8508fa4
fc02fa121d9b449283de7b15098a852d
fc0e799ace1eff9f8315fa2014578479
fc07ea9c17801ed7ee7cf558c8eea074
fc041856d8cb3a0090e0e418ad60302c
fc08dd5c6f3e0f8e5d83b2ef6922f5a7
fc06e17bce076df32b1a99e9247d5a25
fc0f23fff8b128348a3a3f5ee380e4ab
fc09844ca85d65292a0427149e249036
fc019002a1e8a15d564061c9881c4ff9
fc06634f609cc5a33430436100f548fc
fc04649335c574ceebc34bb7173f0dd2
fc0ce2d91dab15aafd0f9c773d52b3a2
fc0e4a791e6bc323cc1044633bc44f2b
fc06eeeab9120b73c032cefda75acf6b
fc08e23dfc2c4d7b6b17f69bb83d6500
fc0a17afb6914cc4abfbb833f5f25dec
fc0801ca7b54a3b61045a6a67c02a481
fc0c50bbb9d88615cc62f9de24a28e0b
fc06e59bc165a7df72ddf8cb53bb9a09
fc0077259b49939d52cf0fc71102aee5
fc0b0fc98eb6f88114ea21c2e0b981ba
fc04d6a8c771f4378cd43c560720a694
fc0d7ba2c3b37f6a55393f205da199eb
fc03f2fc9ea09cc62fd6fc4be5d99c72
fc08241230ba3d4aae17cd18bc64f01b
fc0b0622e9f6127b23b9a53420ce9f1b
fc022cebb25158bfcbb8fba2ae9a1e93
fc08c6c66b1a8461e7e2820ab1141adf
fc03c330f3185b5c6b7822bd15eaba2a
fc088d2c247b00c791c785a734281998
fc0898076a6bfdef53d6c37233825d94
fc075d9d87d231bb826e97f93f70c655
fc0557792759e6022e14e70575a3038d
fc063c222e408881646eef141b87a51c
fc0d3047092f461d14f94e4fe71a314a
fc05002a77b2105451a92100a93bac8b
fc0452ba5ad61e58519d854bde46b6a5
fc0fdb3e83b6d1ddb982617d71ac0719
fc0bd3637f67629ca59993bcfd7e9add
fc0a79df9e78b1ad2b42a462bfb24816
fc09a172562990c1575e6996bbeabf57
fc045d283ddf0ab3babe7a0768ed4293
fc0deefab6dd7628a79dbda26cb9ab0d
fc0071c2762aadd4f3e3af057f857912
fc08d1095abf9adcfb09fc64675400c3
fc09c7c846d523b52fe8b972dd304394
fc0061db4506fb4a62f18f61e390ac3f
fc0839cde3955e22765b9e519e816192
fc0a6719c252af43e6e5018d6570884f
fc096f40d79c7656106d9f14ff208074
fc0b6506639293508af8eca0714e061c
fc01e3266904d1154ccaed5da38863d8
fc03e774a3d29ca1e4e4c8824a497582
fc03d0cb86da6e0f625e412474c910c9
fc04bf235c4108a69331e9724cd7dedc
fc06c4f6e93867fcf448badb04d4e47e
fc0433afeb633c9192542f28ebe03104
fc04d7ececf8ac234e0ba6aa01038cfc
fc07f4b6240d9b86793d883334b15be5
fc020741af484d9f742c2736f8d1025f
fc0fd776daf17440acf6b8ee50df3cf0
fc07d79fdb639ca7c74ed81b9ef5f0b2
fc0d1ea09490ba7a997f27363375f994
fc00d7f994b123dcf6b3ee4f85128a4b
fc0ce4361ba15176c99aa55ac18e55fa
fc078bdbc29d6396c6af8eca7f93bb42
fc02628e7bc476e6c5c06112183b194e
fc0eaba5d011ac645c0f4827a0db962d
fc0a1fd8d2ac50437690662bfc09f80d
fc0bf5d67c12c9ccf193008372898057
fc0dece1b4763814ed12b486cbcc2116
fc03834eeeb1cf3ab067652d3a3c72e7
fc048b0f5ca96545f6ad5a036f1f6aa0
fc09f449935e26bbfbbcea2b0f69518e
fc0c88372c8c24fb5fe264467fefa94b
fc048e616c95d9008484a45cf686b92f
fc0265fcda1d31e2c462961ef0b9691d
fc0ded472fe24d7832c0602ea0770933
fc0668786055a2ca25f99d49b7a31d04
fc0110d666072480395937648eadd458
fc01388a9b9223a56f295898c9665493
fc0c8db1aa85971528c6d62c7630ff4c
fc0a7e3a04f6646ad80ae8b3a6549ee1
fc083ceba466672589e8ab0a0d3a95ff
fc07eb03c78d61dcfab83cabd0d9a197
fc02d5bc0fb8e2ca07928ab4463dc3a4
fc04a3b2daea4e0750f863727ac8a484
fc015e46dbf6dda28e6d5f503f24ded2
fc0d8f7b41064668386f7c5f086d295a
fc0a4383eefef940425a62e65b4c2b4b
fc087b9a158b7099343de6e622b64a7d
fc081f8f6671a55f36f22c5b65124c1c
fc0548c324668649b4c0e9ffb8353af4
fc03a5b123932481e44e5fd451a7beba
fc03c35df0d80591197f82cfe6d378b3
fc0f8f14c5e1fb063297a2e4e798c083
fc0666fb04379f8a300b81ee527e09a0
fc0974e5f0de39d41f0640ab0e470cdf
fc01d57883f9b66dbd7c4fbe88551170
fc091ea5502316f763ea42037775b48e
fc0819e4332562e1edd738a67a5fa9a5
fc089832e78bed8cdd7ca3f5824b4b2e
fc0480dc42d415c0d029a7ed42f4c03b
fc033ae19ae6c02460811cdd1d586084
fc0f3480313f27791482f068ead60e0a
fc02173e432ff66a5c81bff7f8941167
fc00fe9353e39907a169840308833b85
fc010678a7bce818a089e1233f67e581
fc01c8456fd85bd368c33cc523c7f4bd
fc010f377f07b3d008fce0de706dab4e
fc04a9c5d089010fb8df03e9e69225c8
fc0d75879931cb712eb4e3a06c6d2610
fc070e7d26a26527971399f891c1de6d
fc06ee8a41a5a5b2ddb81965d9c329e7
fc009dad596d58528731cbdf546fa39d
fc04b65932ba88155fdd8921b8b01490
fc046604c3c5e9dadbf1d7e8cc871304
fc01a6aad83d3d7d090e2bd936832d57
fc0eafcbac5eedc021ec74b4a66403a7
fc08b1af29ce4d44dc3e5ff1ce5a787e
fc02b46e2e46e1bc9c33519511a2c63a
fc05348aca31b40de72e48e932f5cfb3
fc0908b1417a8a11867a20cdc4292669
fc0f009e33c335ec047263b15417091b
fc0fa890cad0ebe0a156d4448c298b14
fc0ceba36b4a4b00c474125804b798e8
fc076336260cc8bdb455bd8b38b12155
fc00b3fa710df0563d63c717510f3927
fc051e7145bebedda2e146677b931b28
fc05f1c3bf2ba844ff0c8bb477122f1a
fc0903d3d624ef33fc538a694e4c5339
fc052648043ca2415532acf3e29b68a2
fc0c7b000471f66882eddb13fc3bda2c
fc0a335077baf03a77863c6d7add7760
fc0e671ae98cda13d720fe047adac640
fc0badbbf395101a8fb23273ae443843
fc08a31e3cd7bccdccce6c18540bccc3
fc01ae8b20022f031cad9ad8a0da942e
fc0c07ac77fb645622b912916ecad01d
fc03c0a11211e23c1ff4449328da861e
fc0fd66fde4a664e51c50277b8199c26
fc0954341a0c760f09e124d7035343a3
fc0e6c0eadb8435ff0091674365fe7a4
fc0ddae5f5e6dc7a0dc367ffa398b16f
fc0fef2e041c237882dc20813be294e8
fc09c515566cd3949d4c1e0e1a048817
fc01b68a64d222700675cec6722fc5a7
fc08302bbec4275bd07b7811fbdc1992
fc0aef64c2c8b7a74635804e4668a843
fc0ef81d975f6dbab2ee137ec5c6791f
fc02ba1e48d72749262245e1eca41738
fc09b234bbbe1a4e43961e96526be576
fc0cadfd4dd87838e1e005a70cd078a6
fc0da3c92129fa2f71da69d472cb74e9
fc0d2e9e5f76670aaf01011ff7e586bf
fc014c3a27f5552f9f28cb84da05a290
fc02ec45ae03c83d1f2bc4657a050e26
fc0df207853756c5172125ba3b9eefa1
fc004d6a5a5a3b39bcace28e8ee4f59d
fc0a2e26c89c98ceb068954b08ef17ae
fc0bfaa3fa720b63d0b0d2d54331bdad
fc0a58f5d04565eb1573c62cd2d3cbaa
fc008d06ff98925317c65d124dc3f0d0
fc0003e53f3e0781534d2a903fd7d8ac
fc0525fa78312c4d100a687dc4a647c6
fc0306847f7b691bf2f775d0502fa147
fc0f2433cf301124ce630e026c79ba1d
fc065a1951a04151c16516b25a0ad939
fc09c33f106ced9c748c1577bffdff29
fc0d5de8103802f7104527a8ef4d6215
fc093e0a1cd2d0bf6f7d7bbb209dea15
fc073a4189d803e6eec945f5e1f5edbc
fc0c39a8deaaf7acf84df24fa4e506e4
fc021102ee8582965b66434631323c77
fc0260015188d42d86ed1c73264185ce
fc075ea552753b89ba70ce78b4cabcc7
fc098be8059b93119d0a2608573f457c
fc01dc59a29394222bf4253083dd6245
fc06359db3d6054d42c19be28797542a
fc083be822f26f98ff1dc3232a46a31e
fc0d2f1f2a6d6ef4b4e44740b35f1efb
fc0edc0c2c54a1b029ff2395bf84fc21
fc07adce11dc20e4a8e4977282467008
fc05e91fd6acd0f481046a388231f090
fc0364d2fef2422e973259ee326c24d7
fc0cdc88e35b4ac33450a9e2db69464d
fc0aa7de432f745844f9a22823ecccac
fc0d9b700989cd12f6ec8f40bab049d3
fc0ac5fc4792d509c8f6c9575b08d3e8
fc0c2c10b8a624ea634a79b7edaacd0a
fc0b3f65d608993442328cd49f45df73
fc05276fe34fd0514eeb97fbcc57da1e
fc0392222bb60af16077d6f2b6631398
fc01f539dd5cd09b800bdc79b585a35b
fc075084dd5c9462adc67b762e71d63e
fc0fab22e49ab89d27226d6d53f09372
fc07a885de0cd17eca25f39454603bb0
fc0728ddebe34fff70241a22c368a6d0
fc0374668b80778026b124b9ea56ad44
fc039586960cdd0c9e3ed330c1569baf
fc053c5bcf51b31e763055ba44768574
fc01fc571a57c07c17013df9febe5a91
fc0c83d141ec2cd9ed6c9650be0674e2
fc084d1664274c8972a737b276bbe00f
fc063d7287979eef2bc7e25d1eb455ef
fc09479ca088bc19bd110af8611d258e
fc080818fc7021feb5c4c8cf0956e811
fc0e6cc33a7ce27b31f14c481733c824
fc08a730f93c3019fd8df728d53e7af1
fc01d6a9c9374757eecb841f285e81d0
fc026d1eddc9357c184a162063c85fde
fc0ab8e0268ad31d4f59d8794cbeb1c6
fc053b832414214a4ef3b49ab42b8482
fc0352451d48e1dce184d063b6764733
fc0b8191fe43db70bd861464ef53009e
fc0b7051ebd96aa57bbaf96eb942070f
fc01f33edc2d65b226251341e510a55a
fc0e1da18469b285a17d80b2c5401c77
fc050d0fc3aa57f0920ae913c9142bdd
fc0662eac8894a3f38ec5d6697c1ffc4
fc03bb9708ba4967887b0bf4b675ae51
fc0faa0fd6fa410d1282a13e252b4ae4
fc0837cfc8dc4a99cdb071fd2403abb8
fc0b445c7144e8094b19a50a6b14b2b3
fc0ddd978bdc9e14dd2af5bab3383110
fc01da634841d3a3632c6f593ec99978
fc08bd9f45b154a6906d6aabf0d7d3a4
fc02b2b3c3ea11d353fc8b9c63fc66af
fc03528fcf5db85c530230fd56ce3223
fc0ccbf8bcf938c6eb0c05cf2921c2fe
fc0f22dbf6caa7e3d41e6eb0e374cc64
fc03efe4707524e65ac5d0bd82624cef
fc0fcab07afad3d66ab40a22b46618ed
fc021d8d44eb15924fcc22b61f3c7dbd
fc00078626dc1a08bc1d19aadab1dc93
fc0b375eb5d820c2e39cdba4c32d7b4a
fc0f508e74720b1c9bb98f5f95d3a53f
fc0e73c51791fe2839032cff7227b277
fc0d57541587c1eb1b3deda16fa3a829
fc0c32ba97f7a755032885319ce81d56
fc03c7919f66769d63b92e0c181d9c71
fc0596360fa2292cce60d2c222d2d283
fc09d1563610ed62c1756421703e7cdc
fc0d97fbe81a4f9a871eeda0a7b937c3
fc0d4996a93e346706b2ba58975d8ee2
fc09231f768b447ead01e6be052db2e8
fc0f06a08c11118a4c7d691270944cde
fc0e70c0ce0fcef83ffdab3181a768f5
fc09066b956b1417a555b05872bbba6c
fc0eb3051f422ab1e65d9f9bdd1e49f0
fc028f88bf66601b5ee4cba197efd4be
fc0a84ea74aca36f60338180b99ab6a1
fc0a0ee714c0e9df642f56afda231a2f
fc0bfae4fd31fbe69ce7558cde9dfae9
fc04e766b3206bc620d2d40cb73971e5
fc03a728bf8078e4e166da301c7d8617
fc0657d68affd562f15b6f8233dc86cc
fc03a29641de95878e9787f9da0d3929
fc02b932721c3be5adbc38377437745f
fc068cf3feb36bc4ac724e6ef23af154
fc0cc80647a02743bcc71a5531087747
fc0a723feb2235206a40e70eca5a82dc
fc032b46bd1ab50e230ed71cf982939b
fc0d0f88c6e3101666a5363784c687cb
fc04299dc8420a99cc2fec10ed83b859
fc0633bfb8c85a87aa84927b11ffa5b2
fc06cb3e87801218bcad098aa4d8641d
fc089339ad665e63eaf4d4e7ee068ce8
fc034801ecabcb73ef319feac9d209f3
fc07f260fc1dff6f86aecd76bc8f9f01
fc0dfed404b79f38485ee4b29b943c31
fc0824bbda1bfb79f5ecde0ed0316460
fc07dbd6c8505428f268e8603ce2459d
fc04657fd8ab3451cae856c1d2940ce1
fc004006b66277a653dc3ac2c9510053
fc0e4204d38e810c6cd07d38553e5d71
fc0f52d3f91f003fc78d21295ea776d7
fc08f12b114c14f308e95094e1c06f9b
fc02a2df6a8b0deb2a38dc1963a049d9
fc054822a85c9745c148d29977597302
fc0ba3927c0f128b5adbb7ba4e5c7e7e
fc0b7009f5febd8f743d123383b6379f
fc01dced9ebe439a11a02902bea5895a
fc0bd313f30e0c9bd00b35b9093ba982
fc0df4da4db4b09dccd6e7e50b1caf4f
fc052f3e74783f1967ed544efab0b144
fc03bd475acbe53c06e05b7533b33f78
fc0770d45642f94cc3649306f088b19d
fc0bf8f4e8eed246f59a18592703a641
fc054ac187064a75b70dab9df4f68779
fc00ffba542fad1c0e26f5b507a53962
fc01442c1d3163ebf9af26d9acfb7851
fc03616d5dab2779a9aa091aec89846e
fc085f9a991b9e4192c836c77dc1c68a
fc00ec54facda4327c7755fe9a9128d3
fc0e644a3d950f64cc1d8b3774b0a990
fc0afdce9354db0f7401220d9859be7a
fc0f74388501792abf444e47056ceb72
fc06b5d87808802d5eb13bca0e4e5c1d
fc092f7064a0c03ba5650c5bd8992d68
fc05ba97635a2da265e2e6723c8161b6
fc0fe1881ee455abe7d61fa5ea7b5d2b
fc07cc60e63b07feefe2240ae668fc5e
fc0f76004bfbbae48e0d2470c7692bdb
fc03f31f38778c1b086a11fc4223d724
fc00a91e7c95dc17807c58afb2e5ef70
fc08d9a553463e0c30869cb7c5cd8bd5
fc000e77b2f32fa84012f169b4763278
fc015278ea28dcc061eded7acfa301da
fc009039c72fad52373d7cebd977e544
fc0db4cb1e85e45d69e9e25ce60fee7a
fc03714a5a490105d2dc6c45f69d6375
fc0df2a89b312b6d9553a197689dbe11
fc02acaa75069f27632b87f3dc57a4ab
fc0d2524ec87ab59e84d9745a6f178c2
fc0f3bb89ef8d113286f5b5ff8605c94
fc06d3841441d565216a14a966da9da1
fc05be5993205fdd92a5a23bb58ba6da
fc052cf0cd122e1000b7f8c4bd60e88c
fc02bb0c910bc3279b571d7e6d453f35
fc0cbb89b42e48be69cb37e8722f8422
fc09c8368dacd30120e54ada0be836c4
fc091f7ee8467e7ff72f78956affc433
fc08234935c7a9189b48a7284f4e108b
fc0c0e73a1128887b8ae5d5796513af2
fc004d293e4b52d48206a36901380b24
fc06aeaa86b6a2fbdfd3aa0c05a61a3e
fc04e981dfb64035d1fc6470bff7e761
fc039046eac0276162e7e5d80881aa17
fc012ba9aba184cb02d1f0539b520ba0
fc02953e6a3167ccf51bd05ab52ec5a6
fc05fc54a6b992979f715cee2efbf7f5
fc085f4b481b6ee0d12b44c2fe22048b
fc085aef91cbf760edea111f1a9c161d
fc04f3bc4af50075be79ab11d1f46b40
fc038dfcab20647c2190b685fd2b5647
fc02e244f780ee6a156a4cb972554249
fc08cbb515108c2a0a8b17c15136ea66
fc079447ce6f1176d7a005e0dd45fce8
fc0635492c91ada7034cb0ce124dbcf6
fc0d9de8f27cb0226c1a82aed11462bd
fc0a9ee85d548724f55b555eb18ef3e1
fc0cfad26c88c4b4104f013f147d230e
fc0643e989f627c888776a8b92df4e24
fc06234f1fddcb198e2c6a5b7d7c879e
fc0cf3939a303ffb60ea373e6483b724
fc0b878163679f1646c7990877762b6f
fc02991886f1988d29f410d48200e68c
fc02887747e07ea0ef1775188766e42a
fc0c89ea7c78f4afe28727a0ef878c65
fc05561f9b632df0f77d461ff69927e7
fc060693883fa02fbe4d0f4c596da793
fc03b2986746971d1c25b93a4467693b
fc02ba4deb343f948909e7a4eeab1ab2
fc0b2b3f7af7414e4cefeef02b8ec3e3
fc038f73ec9a43e11aba2d5e34387967
fc0798f3622132177e9c86d0012e55ba
fc00b3f4c457dd60d89d40553648180c
fc045bd8415f7eaff1553ac93b2c9c2d
fc0bbd978537762fd8603e620378e50e
fc041f19d123db8a12d41ceeab659b93
fc06b8c066d0ff78c14c2daddc37e5ea
fc0f816e764f150cbed9bf60323e17f6
fc0969e7beba1f9fb5d9f3f194357a80
fc0841c76923a3708cc18bc0a90af65d
fc00dda2c8ae379eaf056272df59622f
fc09722ee270576af71298f23d4f9ef7
fc002c1f03442ab66e1ff21f4a69177f
fc076d7ae803ebd782e3b449f74aefdb
fc08333a08e018b98ab5eec93a517c88
fc06b789ae2563af533f963227f9a475
fc0a343cef22db45bbf4a25b043bc26c
fc01ace1348ace172438c31c01cb2716
fc0f239b20f2c2a54888da1c027c6cf7
fc0a2738a5a1764c85f0fe6bbf680a50
fc0961b3542365cff21c4cc6bc5dcb05
fc0b946213c8cad5f394de5a1c811f11
fc07a2b4c40b89a84aef3add6c6715fa
fc0988b0776dc1dff9f1c8c6a894515e
fc02362e4f0239457e60038e5dc8f3e9
fc0311352bb313731411659d2c8dd877
fc07b60159a1d416982e8a8b6709b8b1
fc0af311076fa66444b67df819dcf29d
fc07700cc442349fa10758b8e36f641c
fc02482633c1693b82285f8cb0ea45ea
fc053255156df72bd3d80aca50a418a1
fc041479b63380f41bfa9c78f2494343
fc047282114b06698d622f2c80e448a7
fc0588ea82c0aa48d362178d5a422cdc
fc071835e20930f21026241f6f705f94
fc08a22240c303ebbf9d79d0e85534c8
fc061f2577c4f26ff8b1be7dad3fe2f8
fc0c477f5b6a68989af6c8184adbfed0
fc0fb388cc5377afa337ee9b3024c75e
fc02ddec36f69acc4fa81f81a393ab22
fc0f6398ec890aec1a2f206fcdba8688
fc0bcefef22a97643c549de925aae6c4
fc0d9969d74887b1e32ac54039f28a26
fc0a742fe8623ca7c4122bdf70a6d328
fc01f3e79f5ba2d348aded3c848694c8
fc0867f0b75f0d2852c6e6d93bafa2e6
fc0aa80e2271f5f305ec8b1d87e1464f
fc050fcdab627dafa012a8dd0d175815
fc036aec9712c4a1dddc41f3366d8654
fc02e65cd432d83057a9547e695fdccb
fc0dbcd08826c5b74d6f7e274bf0d7ce
fc03c80a9eade7c9e311b374bd5e1aa6
fc07797a0cbe7bcb8badda4987cf97b7
fc0da8da70afd39a627864f68bf69667
fc0e3e8a0ac79e17cc3c42e5c03d8ba3
fc0ac9a0523d1469f6744a7af7ca255f
fc0cc94817008ff4887d1da341e03e9b
fc00a6fb1fc49082814ccc1d40a35bed
fc0204011bd3fee11401f7892db79f60
fc0fcd8517a78170a1f2fb98bf47df9a
fc0910b6888fd80c9d44c7f8bf107a3c
fc0303e1a09ffd5766b4deba75913026
fc0650daf5d9e066800b0594149c5cf5
fc0b4c246a4a04c7bd26620fafbfd02c
fc064f86c1e5b02f01759d12f1e079cc
fc03b34115f418ea15a774f17e3e333d
fc0e36b6187683f990747297048055a3
fc0b221c57aafb8edbe19ada0ad429f2
fc03fb19e021a776cd80ef6092ceed6a
fc049c4ac6d49a7047ec38c3f4ce9f50
fc04e59b5a07093d4b95806ddd21cf04
fc02307c6ea1f305a1742c67493f6097
fc0b93396a56508283ff6dd216a20573
fc0df80820356d7fc560aed54b6c8598
fc0dadadec9ef2d4f45a618c49a0eaeb
fc025aa05b7e7653bbacebb7198e9627
fc0a6b977e7affd6146bd285bf2da366
fc0e65e2bb263a045e940c0d12699c69
fc08826cb63656be6f98e05edef2c9e4
fc0df19b3a1f6e4d81aabab8bf8df285
fc0b6389c1b001e393b3c65b2593b4c2
fc04683ff8beda53a21e59d23452d74b
fc069c829e9a4b0bee5eb89b43fc29e1
fc042fd203372add2c056bc9097cff19
fc0c649db41d05e94065bf350aba2e9d
fc0b670b5548b9312489ed98ff8a26ae
fc08ebdeb039b53bdf097d3cbf447c9c
fc0d781a7dc7c63d4ab4dfcbcbf91d83
fc02e0e4704c341363a15d58f8921fa2
fc0daa32de1cd97b0899e4804e88bc90
fc07c8a88de7955c73ef099877aab868
fc094ee4f4f44f874465c83cf41fa574
fc078a0f1ad8bb1ab87aba62161bf405
fc026feea3018d11a2536fb4d89111e2
fc020d861b884ef7a12d6896e83c9758
fc0ce8d8ad6ed9ff84ce89b447b6c214
fc02b680b37c07b8bed32f5d9b41a6af
fc0084ad8230a9e8eed6c1fd705397f0
fc02bc39d0f7efb672c0fb3020d45d69
fc069a2a430a7cac2c4251a45ff2ca3b
fc081676f1027b5460e2f83a1fe3391e
fc0eca220dea7016b0b664a013dcab54
fc0fc62746ca36f9f00552cd4669fa1b
fc02a79191806f69f8e8ce52724ce6b1
fc06bb0ee3010d7019c4fa72a9ec3aa0
fc0ed078fbf2644d2bdee1707a0a1fcb
fc081f05ee570b0a2f6f7ac95e59509a
fc062a5e46d5bd1a2441345c2a36bdcb
fc0f1f2463df30ccc79d3f13fdd53110
fc0f2c147a2153608224d26b396aa6ea
fc0dfe875b39fcb574d9f2f8963550e2
fc09c1ea1f82a008077f6bca17827247
fc0ec9c50b4841b368619621202a69ab
fc00d06650ee764978eed672e5cc1e1c
fc01ed5f33f38305904ac09a2bb48a4d
fc02c9b7a26e30290a174e394e1ffaff
fc0e58e40bd7b419b27ddc9b1e02da6a
fc0a383275d508fc6906e5885c93f965
fc095249cee2374c45088e0057fd0183
fc0fef485a3e2902efeb0725ba7b1209
fc057df0e60a6ddbb3996d2b6f341291
fc0bc097331f15fa345675fc2d2912e9
fc016a431d544b4d6a629957635d29dd
fc097b4672394e583ef50e6ff791a7c6
fc043d744a5f14af9a0733fbab2ce4d2
fc014da696781d2a01efb679872adc1f
fc0350423f1cb10f82cb10c032a72862
fc0f3c9e9c9f30104eb327dc1e49ebc8
fc0b30a6f5402bdb6bb6ee963c2ac775
fc053e010aaaae5502ad5df819254c84
fc0ad82b6f6c2b3cd843fef96235cd4c
fc0ff31e757713c3180ace484fb71523
fc08edda4dbd62ec4613808622eccda5
fc003f7e508dbbd9d376452f04e0c075
fc0f260144eb3610622b0127cafb3f2e
fc0aab8366a468e42a7e4a16f7f69de3
fc0e94e44e0ea3405ff9da608283d21b
fc0635aaf25d760187a25e8ecf2eccbd
fc03b1cf6ecb05e38ed5d747ce425571
fc08fef8ebb5269273e7b5e182cc61d5
fc0cf1a58aa1aece37025196fafb9573
fc03dfe7b8b876aae416f9ec8fbf83c8
fc0645dc87ad0cfbc4798db055042106
fc03ee42876c86a0fa87d9dbdf62f50d
fc0fe2d85f57c0ca8c5a37d0ab885487
fc00907251142d163a0e8ba663973f57
fc04b688d124f5f904440baeb5997dd2
fc08befa2b34d1efaee709f33cffb469
fc0135540d53e989f0bcdee32b38841d
fc0fa52a4ef877af6035822dc5b43539
fc044465ae4ffd5fb42e554546198b89
fc05170365dd4952a5259ad3480d2c50
fc0266dec2701f6036a857b8eb84be6c
fc0843ab31a076e6d40999a886f86f5e
fc03da74b7e6bdad8eedce6847fb54ab
fc037d684712f5bde8a3875bca863bf4
fc018d7eff7b5e67ec3c1c5e825a83a0
fc08625cea3a260dfef8c796263b0b7f
fc01a57994eb92e294c16c2464a537ab
fc01c8fa403fc35d411db0c1fee3b7d6
fc0677e61e805f3900b6ff3049433a38
fc072fdbf979ea228e47746812ad5e08
fc01fc698e74cb2eb5c3a158c01abadf
fc0f87221ac188192dc8fbd48d98e6f0
fc0b919b08059c4e6d1511710d86dd3c
fc005b75230fbd6ce6c0cc87b96e726f
fc015ea59107188c365ad84d45a13a4f
fc093c9732f6311b04243578ee7cf9f2
fc0c1fa2298e9bb73081bc0a2d635b6e
fc09556a8a1990b2b52502e67680fd0f
fc017987a9a297aeca8421da75502e0a
fc028b97c30d68b646bc8cac05409439
