fc13d5dc462923fdea58e69cdb7044d1
fc14f47144af6565012defc4eeb87ff1
fc1ac114a67c278a860e2da703f68307
fc1bdf1206b53e802b0aef8d294bc6d7
fc1f0cd9858532174c52cc17e9dff5cd
fc1886c0fb5dac2a9c28b31087639e87
fc1ccdbac8871755837db16fb39ffae0
fc153668fc4b15090852e4983d1e9180
fc107e254c5e2245a5c709a6f4e07363
fc102ee35adcdbb6000a46cf03f8efe6
fc1294c2cb9b9bc7c65f92d177d2082f
fc12515a2ccf12e3bb7cce4ae4ef385e
fc1d5ff5e458ab69bc6308dfbbd0fa09
fc1f9aa2e5d7b1cc2344518e3b432bdc
fc12fdb9d5a12d826a9e2c9ed952e2ec
fc163ced73fd5cdf8d4829cee7ac907c
fc11cdf6761d5a42246773f9b58924e1
fc17c476f78384cceb00d2103f4e33a7
fc14d5adbd0e4556ca5a530dc8da9c89
fc1f33ff603a7cc0faf4e4666ae8d2f5
fc167cde5a2ab1d4dbadb10450db48f6
fc115882e2f02a08bfde733d8be201d4
fc16e55f01a427589dd12fb464b192e8
fc1557fd4eb94bf8531b637b89173209
fc18c1a4eb80390128e82a228ce4c576
fc13d99b66cc47369410189824c3bdfb
fc1a78e4b666d79030c8010bb59b877b
fc1fd36f6fde2ca2ca21e885f9430015
fc133249491ac48fb0900eab01fb0167
fc190f44de2d6c661029f9db9a87b08e
fc11bc55e3fff1be53715e34a29bc121
fc1d0773323e0ba7c6cd49556410bce5
fc1e73ecdabcb103538e0217b7a3c1dd
fc129912db1235eb12d911a021447572
fc1505bfa9385efa520fd3c539180c12
fc1cde61df000237cc0d93598fc06e42
fc1357e6b4f067d232f372c611f2ca9a
fc156fb4a2755295894a89374a05eb58
fc1b7c3e979550487278156fa9a75a55
fc10dc8e3bf06ef1178c70be6f57b5f2
fc12b2659b178b652986d98f43776991
fc1837efc4edb174548ef08aaa7e78f5
fc1aa3df4e8acf90d771d677879a2330
fc1e004945d1b7179e23bf6bdad48cef
fc1c70000046456e7257cb09803c546e
fc1d4bec5bf4c7741f30219f8ff68e5b
fc1a535103404040b0da26159c0fb8cd
fc1a575425317fe40415efc15d6349fe
fc159c363732e2a7555b5bc32c04f74c
fc12a38cf4368d43664e9784049432a3
fc18f56f56a167f7b900b6af7a8dd5a1
fc12017389ce5e278fabb8ff6ce547a7
fc1014487e8381db81c72e95c4ef3761
fc14a809f560183e31f3664cc209c114
fc1f618b0ca569045a6874da52419610
fc1d4a708c1e9853207d2a0fb6de44c9
fc1923ae48e3ae698a4b244e1c43ef4b
fc1a3afc09e5d60d6670ea6d290a6ab4
fc19ce545ca2cf9b0a9848c589055ef6
fc18efb22e12d4dc888eb6852eb45400
fc102e1a8ced9f6afd63f33bd6d0ddfa
fc13ec95364b5fb93304855e5335cfb2
fc1f98d89af1fc4a054807d204da6d7b
fc155872fcc62940d52ac19d87c751af
fc13f6842cfb960962607906f41eee14
fc1f4b41cbdff199c31011d2cdd06557
fc1ad017316b2568cbc587b6d407046b
fc1f1c7393a5f713742debda5be19590
fc14d30246ff873c5e5bc291b7ccaa13
fc1261067558b7f55b515c2f7f3ac5d6
fc1998cd681bb4c0c0fd634796129a7f
fc1a20d4c2b477466cb9cd945f277c84
fc11cf1cc61461f85e7cd1ca2e198a16
fc1dbc699c8bdb971facf861d0c40bdb
fc1714dcc36420e4371d6f50b0d757a3
fc1ae9322c0341fb0658c66043c6731e
fc156bdffa0fa83a4d2723f81fa93af2
fc10ab0b766329b4c23be0c8d22f7253
fc1b7e3f6a3b7a2e540f35c0ec73fc5d
fc1c246ea66a12473751bafe452017a7
fc12fe6731da225db1d67aa32de1410e
fc15b836a99276b34b9193c4ea253c5a
fc1e65791dc26ec0f1da7abd94eddbf1
fc15773e7a722899c3be56af317dd7b2
fc11917ac0fe945739753ab226c82d36
fc1118a41883e241ec2ae745a72e0497
fc1367e78e4ba06be8a38fefb087a860
fc13d86d8b5f19fe0a30854a5dd4045e
fc16bde5f0055ccba9f52eab41388f44
fc1a69a601ee6c3c83d8eefd78b2bb4a
fc1a75e5abba5251390a9a6db9b504b6
fc164baa7cd06f0e84befb5a14bfadbc
fc1011784155437165d2c607ab533447
fc133e7bdbe5ff48b7827ccd3df64b43
fc15523130dbdf4d7bd502ff6a11458d
fc1a43bea627256f1968393588bf79fa
fc17f8213304e10f290a16418e28825d
fc14ad074f60ddc487c0e03f46557790
fc1c5863d78fc148678185ff8a42e6d7
fc1f52485611833216ba0e8cf163b922
fc101ca8569c13eac31803efab060793
fc199fadc133cff1da45672d82f76123
fc15788c7efd20755b4afc690b874bae
fc11f87ff31d82021a52d70321be5036
fc1237b7559008bc791d411153522bc7
fc1f5e0484d32c27a10a13f7c5259390
fc1b521312f0a0f0abee816e7d748187
fc1104d8bac5d045639f9f68c0181bb7
fc104a4a4833fef4a3cfcd4d80e5f635
fc108a8adb9fcd171ddd820da1300b77
fc16225d6e54a68702e0232953b45cfb
fc1cc582be3d10ded02aa05666291ade
fc1a93970a3246ea5149277cde93ecaa
fc125b9e698e16a2b1d3605bd1e2ae95
fc13314d34c0b30a67d1b2e42a81ec58
fc16bc4673dada6b2490df1e8849f58a
fc1a27881c2f7950ddef77f41ae62868
fc100291aa99977f94baeeacf96d6810
fc1999993ba70230911840fc9ca091ef
fc1c4f6cf2696d45d28cb0ad421f5804
fc16715f5475e872d888840d67f7b5da
fc14a194bcbe83a20d518849f1c8070b
fc10db1da1b1147433fb7d9c27000407
fc1f2636367d6d9ac9294dd545b57525
fc1f9de957ba1a190373381b96c62ea7
fc1eacd6eabeab94b4eb7859b87666fb
fc16fccb0a620b1f46a91871e2afff21
fc1b6ca191ad473920c85b3bf1f2394f
fc152bb039aa316e5ceb85727444d919
fc193beb90aa81e5856c4f74dc6dcc87
fc1ef2c4f4dede16c1e4787f8ccbad85
fc10cfe996a5f7c8c1b3e20f46585a0b
fc15e24aa6e8b86475b8fc61d0b1d7de
fc1a8f7f92d68bd7706f5273d34b4a02
fc14de51ed2edbe2278201e1f8bdc27f
fc18a18175af235ec84be2f879d5199c
fc17873e174f00c819b65eb1ce643b8a
fc12c0a9a8729599124657bc1043d947
fc1c504c7c569775b20c7156cc7297cd
fc118e45b8709eef5ac7b9db282cf2d8
fc1b841a44fd6d1def3907d17ad03db0
fc183a22687cd0ec6186d936ddc9fe70
fc10bb18e2dbcc351641cde1e627bdfc
fc18d46de3e7a0c226db12b7ff5c0f2b
fc155019df1771b6ba3a64ef7f20aea9
fc19d984b9ee448457988514b6fbc55d
fc194829e974310a2b2128cbeba16694
fc1a6498cfe53fa8355441c25b686311
fc145a85da8d3143f6ed87d914a73a60
fc1a4bcdabfd4e75a71cdfe609272ad0
fc1c43fdc7759f3bcba54a3fe9ffc69f
fc145ce3744afa66736f7b09807fb3d6
fc18bc94a85fddef1a6180b50efae268
fc1f89e5e5d0032c7f98661a86a51308
fc1e9c90daa8b6c88097cebde473f01a
fc120997493ff7fba1160230b78ac405
fc18305e3a663c101eaab53a0f2187d1
fc14d43c1555c5f5798b29fe79e2c9a0
fc1fc810334f97a283af90adf744f730
fc149d05cc7eceab0d1320f7ea23d656
fc134c15fd6db08d44d5ac52ff028250
fc13bf09b605a2a9dd6ffceeda0a7087
fc10be1939ab3bad7268b8d094b21f7c
fc1afa59b2bff87874bc08c334df7254
fc16ff04ded6f761e0e9143d9ba9a7b0
fc18de87206911e63177d9dd42d1b63a
fc1fcc33c73f9dc9ba96a4cbd28c5032
fc1a374f81bfae13b54620722c45c7c3
fc1ae0d6a17f1550e299dbfc92a402eb
fc119d1781ff0108db9b6aee7a4750cc
fc1e9a7974a22838e38093a7db06ca7d
fc1f7a8dcc326644122acb8febd190f3
fc13fa278ec3050b83c82b436f308d88
fc1f6b7243182b07e46407e840549907
fc17d19a65c08ff6e7c77a8d6c5e1677
fc1eb32755c71d4d710668030ef9286e
fc192cc08a1063ce8b9436092c0f41d4
fc139d1a8915c1801a6fb7fbb208ce09
fc1874f887877ce190e5f360caa50144
fc16b61ae14a195215626ef531c881e6
fc110cf9918f701efe9bcecd3cbe8dc9
fc1a04039d5af1336a971db092e142ed
fc178a45391465203dc11702393e2a50
fc15da2bbcae96080db5779dceb8e898
fc135ef5995cec84263786c9479ed006
fc1ac8e541b0cd10a34c405504fe068b
fc16a586e35f3585498755dfdc76b866
fc11093d4b2577ea25f8d3ab891535e6
fc1c34c6f1c5042f958340bbb900f93e
fc1fa4f078d33d710ae34d480695370d
fc1e20e01c644f639b9fa4842a5ebd1c
fc14b358057934131576775a12bf8b1f
fc13b90ae9236e10f49fbd2f66c79bb6
fc1d9169a374387ca547442e59f16959
fc1919d0a34bd1c4db5b86153884a274
fc17c79f68a2bf1a04635cd3c0e2da91
fc10c6453e1ed97df39049cefde5699f
fc14bf2ac3a8d1945f866070764c547b
fc11d8ba6f5219818aa6e44b4aa9c3b6
fc1a91e2f23963faf49a845355371cee
fc1f497bf8c84c34e9965985477f7f27
fc121629b69d88e302948b671ff4f894
fc1f68817bcf9a65e90d2f6ba16bc010
fc1136fefe63e19b4c71196f48640a95
fc1ef4a24ddb1cb5f0f958da3d7aabca
fc1063f45829217d3fdaa2607de96e49
fc1bd6f755fa1a8c9c807ccf432fc202
fc130ae246fd51213873d25c6291bf26
fc135dec77ee1183b6b13471a451147d
fc12d2db014f66ae176e678be6ca2699
fc17b6238028f4823f66c2f310354480
fc174c6ab793d59343c41ffb48634d0f
fc1beb96c07d76144e196ae84ed6cd1b
fc1888f1825dddff8cf7c1c53dbcc9d5
fc15977b5f0672989dbd893cd4976d23
fc14ac4b202f117c4f61b61fbf36e152
fc1a4506e9abd2888a75e64dcaf96014
fc1f0d19dc88380aefffe38fd574fa87
fc1eda88d48707e99a22e30ee5c8cd0f
fc133c070529a906225801c7fb42af02
fc19f7db7360b1a4a0aa003d81b81f07
fc14a9f8c39434654d75a5f076fdda47
fc13645c1a42c8edc713deb7efbd42cd
fc103d48b38e37b14272e29d09e108f5
fc11303355f0d0adb43a90d08f3f0603
fc17fc32eeca3e6fd03d11dfc61b08e3
fc111d21693c27a98017298940ee3b63
fc169253d0327189e5f13a937cf7f37f
fc1cc5429bed3bde449b570571a98ba9
fc1631e6e71278e9960d016ff9d4d73e
fc197a8108741e982a3c0ad2483bf94d
fc157a0d0c0d1b4b50048c32b4f30e86
fc192f56cd235dcd710768e1dfe3d08c
fc1f3469966914937105818617a1df2a
fc195ba2e7a11d527ecc28ace262d006
fc129a0999478cfeeb74bc3e4d6f3a6a
fc1e284563c9b0090870f2cecbf647d8
fc194fe20517c46fb89551bfe2ada49d
fc16d74edd059f1f69cd87bdce748908
fc1e7f2831fc8c932c70f834cc14ab3e
fc164829a50d1472199f8197b82d1489
fc1ba6f3497d68ca5c90f39f7504bcaf
fc16b06b96b02b7a471aff8823453d87
fc1f2d22ab500955a0a089667e1926b3
fc150af4235526a675fe2da71c8b6886
fc124eea2883e95b5baee38bc1004493
fc14975fd6f9c815f6418bc15548523f
fc1dcc8e9bc72986b5fe5290e6c0cba2
fc1804167abc8b20db6945c542e7a05a
fc1d0a3b2857c0fb91ae4d2ca262db61
fc147a8c981eb716dc68d16643d9030a
fc18ab4b6a24a1be638431ec2cb6897b
fc1ae27bce3bc1418cb1634c516226f4
fc11d068d893b4f7f2c2ae332475b32c
fc160e0a51c21ac21df4948a7f7ee70b
fc1eb95be02ee361341933557db89b30
fc131dd92cd56ae8edb247bcece8e5e7
fc1ed7b1b36acc23015c83d2acc402d7
fc1b40216abd42760e5dd1a37f6bcdea
fc11cbea5580afa0dbeaf79cf0ba96bd
fc1ce352c6e3047f2af78fddfe22db17
fc1f4f5eb237f947527c17d5c8d906b5
fc1c9e95d23409b22125310c5484a83b
fc19b43b08d85010a452188a626e4be2
fc1bcc61c63ee876c14e70c28f3f0efd
fc1cbae50077580e7cc297acf722e461
fc1a0b4dd145a11f8b183b69a4d36502
fc1b861bb5473981b187a19a9a0b61cc
fc1bf03e4eff401c3da30cc96053ea75
fc128514e1f1249e873632c01783f2fd
fc1b24d8ea8df575dbf802545eee6a25
fc1639a6e5e6f604f88419938dbe8679
fc1397a6bbc9f619b332e40573a324ad
fc114ea744444476566e1641456be318
fc1538b352cf23abe30dd21c2129144b
fc172ff227e407291804ee80a4174886
fc10f6324b2accee712e949bb9b85905
fc1ef334a227e46dd7db52161ee278a4
fc1bc71e08ef98f6c967cb7ebc38d979
fc18249e20cef91c14c08aa0f800e4e5
fc16cc13be4d8b3db0ec38cb8e32b2ac
fc1e26efb9ade6d0f678f401e9a7eb25
fc19dfe7a7d175b232cf3e93cabcbcf2
fc1c50b85c6e1df75c68fee725ee8dac
fc15b1d75a191b8c5da506738aa1e302
fc1e3a33f1c24cc4e1babc9b154b3e6a
fc1f24c8323557d9d403491d66b4d935
fc1d742beac6a487e2b989b64cffe9d2
fc117efdb834ec890077e17264562132
fc12da49a62eaa0b4d87c2e8b8902479
fc111f51bfa7421a2b72f0eba041405f
fc135539806a11a228cc388220a4debc
fc1df70f837142db645d522fd40aa8c6
fc1c65b1f328b07c331b28efaad9cb54
fc16c711b59640514e417ef81045ed4d
fc1c9a70423cbd5c471840f57c04c931
fc1b590250a88d46fee1039a582b2908
fc172af8a8ef4a465f6cac16b73b8684
fc18393beaf9eeccf90cf135a837bda0
fc1a1221355775324861eb6043ddc085
fc167003ae6078e5d9bece347e29774c
fc193eeccd048376b5341f2c97cd5063
fc1bbbdbcb9a9350ae720cd21790b29f
fc1c09440e2faaf736a0054a8a120910
fc10821dd686b875f596e57fb35fcb65
fc18e49ef84fdd7de37712b919990be9
fc127db22fd1402929fb343710bd1027
fc13d887f3c08e14a4eac6d41ac7b114
fc16ea8dc6ab2b47ae8a5c987dc189bd
fc1f33df67cdedf99c4857a83ad03669
fc1f1ba3564b016e8e81c03da0d4c2b7
fc13b2bbefb14c722c2e8f54e566a40f
fc140ebe8b7cef013ee4632bb4939d1d
fc18b2a8aa06315839f6b086ce01e56e
fc13fd1328101793e7924d3f101ea6b9
fc18593dbcfab4ef338333e4d76e99c6
fc1204f1c004934d2bcc4535546f9406
fc1157c008e79aa03ca2172ab56b794e
fc15679c3d7acede08159c2375f1a6b5
fc17465c75c841543c86af7585376d1a
fc1cff3ef1d891f28fe5fcd7a3dcd9a9
fc13b0a256edef9d21c92fb29fcf4ac4
fc147f29343c9f48356974b77b0c7bc0
fc1edf92f0efab6027841d33002d87d2
fc107b1aa030c5cd3b43d2278c4a10ef
fc15cbda749bac110890677a0ddd8633
fc1b3d779e155669d4f446cb63d298ed
fc1c2da97b886545448b4658f969e53d
fc1bd734c073d9610c1b9d7fbc7e60c9
fc10984b7935a60fe6236a75cc48762c
fc196ccd871365c5b519f447f0a341f9
fc1da61ca1bf6f6c496a63cc7bd1749a
fc132f2a5ae87e8a55e2cb838f8b896b
fc1b8fdf124108ed35691824c5754a69
fc1cb9ee103b68d09fffeabae671b44a
fc166c4015a8f580c78e803267595d59
fc1bec48c13b878a8ac15120965b6050
fc1312bce511ef1fbdc72d14aea110d4
fc1a683ca3fc4fe8aad9b23c718c2d45
fc100b6ab9bbb00fbdb4d73bd1363c4c
fc1d061ac31b95cd688798d8e673bcb5
fc1c83dfd7d1e0da40aee942227f1d81
fc1ec42a42e0020d0553dbbc6805abd7
fc1989fcb743a1450f5f927783becc0c
fc1ff9fc7ae01f975613cdb45acf85cc
fc16a6a9cd6168f557f91db948869fc5
fc189bb87c55bb7a88b08288d6d79974
fc127b86f4f5e996f81ec25e58116319
fc196d73b00903e95c18ac0100735411
fc1f4645821beac2e1c8e66eb352d7ad
fc172e06d60eb7abe54f18763b4d0e0f
fc15edfb524de98317050612f915e666
fc125fba231e523fbaf6caea01d17e8f
fc193f954172e68fa8d4069b88060386
fc1eedc23891e80c1a570b8578dd6474
fc15709bba11bcbfb63edf96c210bc98
fc16ac58e244c2231f1a01f301c787f1
fc16a618ae285d3c1dad067a3d27edd5
fc1a97ebd45fb2c60ab21f598f803e96
fc1890c3c9d424f4dc542712752282e6
fc1080a0d04e88763c9febedc1feb4f7
fc1db5d35f72a0961d7f2554ac82eb58
fc1616c238c73f2d024a40b992b35643
fc153a7046f29352ddb730f6bdd2d450
fc16b69158b032706274ef0e0b0d4ce2
fc15f2ef856320246657a9eadf590003
fc1af3f099087f5ec23e46151bd254ae
fc1d1103b52270fb98bdac6c8f94faaf
fc1884f13225e99ba3dea753f2ef18c9
fc1cce824ee91c74aaebf0e8c7a41346
fc14db3c33dce412f58fee8580fefdce
fc17e091856b928ff723dfb0d144cb66
fc19546fc368016b3ee063c6a88152e0
fc1328f83dd7dbd50d090a7a9a1a5f51
fc186dc8bc062743e54db9e4b887bc4d
fc12e974f1b0322b91193bc4d9f68dbd
fc103f12bfc1285aa071b902ecb3b0bd
fc15324873ee6dd91be1c31472e1c8d1
fc1aa8945f6b887285f445d0f5571cde
fc1c9a165bdda307b9fc6521c517a39d
fc11a6e1ab880f6cd1b71712c8145060
fc1a166401436fa941360df65dca6c43
fc1c46f9ac0d44967cad8f1da4169017
fc11fd72b2a75db5331b72d01dafc0f6
fc13e469b87c9d6540aec1636128baff
fc152a13e10c27baebe3878c42784747
fc15f901c770098b92e709cf77919b21
fc109096cee0da9090615dfa140fa895
fc19276becea313fc741335e1d0fc44a
fc150611ed12fcdfabb87c77a7d9885f
fc1f13d37cfe4a1147fbff391fa25f25
fc1bdac164fa81514f7a31cc9cf7d50b
fc1e01b60788e0609c9374bfd201e2fc
fc1ca2a4ef8dd7ddcc65490983232d75
fc1fca3a3dc7e92a804a554f6a079fd1
fc142be37585412b883244110d3cda9d
fc137a245ae36b66be101f1d2e17bee1
fc17fa5249fb3b992678ea3e577188ab
fc104f26f56f285187787515cbd1612c
fc14975022083bef377cf7b297f669f4
fc1310192a2f390109c6ca7167288883
fc149c7ae8a703e23d8d033264aeb31a
fc10ae7a820b0c4062ec6014b7b4d420
fc1413aa3de9ece27ef395c7ccbe026e
fc170d9e57ce9757b4c5950dbd29d2cd
fc1d7ab12106b135e4fba383931ba369
fc193b6455c29fa3da2b84927c5303be
fc174c9e03be6d43150d4d804ae852d8
fc1a93fc7bb890b92b4b5ae3991c0ec3
fc1c16ec0dd2946ec7e19bdb67d0a639
fc19e6fcdb1b15d698631d79945930cf
fc1c3b8745b5ae193ec4d2ca369fa9ae
fc160688bd4b579d575669b5598fcac4
fc1922306d9e24567e4d82d58c7bc35a
fc19b01dcaa0107fa8098274fcc584ba
fc1911d9b14230cf238f33e6a7e7c5e4
fc167f826d9df143a2afcd72893e3926
fc198991b828127b0f4c554c998eb0e4
fc16235a383b2d9974f89dfca178c1f5
fc1c085d5f59ac1ca1ee0b9b932bd653
fc14473632f0844cc03fde32943293b1
fc176cfab6157ce1157cebc7558b005a
fc1ee2fd2f10bc19967c9723f84eab08
fc1e3f7731d939c229da34b66bbf776e
fc1e98b32161802119853985a63b1117
fc186e465b5899ca94f9243637c90932
fc15ccc38ba7d13fcffb727463e98375
fc14789c12d71d083260246edfa505cd
fc1507b2bceba18bbc71d5b35a4a9daa
fc1c3acd7c7829dc34219fcb1beb87de
fc13e1676b252e3a303029e970d24d4a
fc1fa9c8172ae4b4c4229e424e45607b
fc1500a26d011c89593fa5e0ab564d65
fc1cb8597410d9c648fa6d0af6fec546
fc17169a80235dc27687ff3579db4e20
fc1b0db2affb286476aa0b9ac8196c33
fc19a136736bf40a7d89f9452fb164cc
fc1399c600624db4fc755f82ccf6510c
fc19ca5dfef342149a75ff6689ee2cd6
fc1012c0eb0874f316356e0dcd3ce6a2
fc1d87156e1c90380afc6e8d07f9bd16
fc108d8c95b29ce842a3a980676e95d8
fc1a62791a39916a7a2de38924a92644
fc1ad1950b609a7e9b25f742834ce5a7
fc130fabee380ca349d73353ef132eaa
fc11be2ee27a48173ec3bac824d4865c
fc1aaeee376b1a4cb3b66e037ea8e3e6
fc14f7a17f8fcf61ca318f5950c884aa
fc1f7c361fc71380b7746e15453e71a2
fc1d20dfef59f025dd49dec009e34807
fc1cbb8a7e26602a8626ca3543f9f2b0
fc187bef9bf155db601eb2ef026fc7a4
fc1b8b289a523fb558664275aea1fbe6
fc1ba7076a614428155ae76d0fc84df2
fc11eb5fb4505ba1c958ecd034de4482
fc1148b984a860cd41240f77fb7a1006
fc1f429e5d12dfab7cfa2559b14be9ca
fc1fd88c57e99d9251cc39a7d3559717
fc1b8cebb22cbe3b2589e3e75ea49db7
fc157f777d86260da795d26bd6944053
fc11a76712405bcadbc7b99481a0a47e
fc1fb1108364855498675078289be249
fc1dea0593cea0bae045cd52cc763d66
fc14714044fca6edfe964855f7466947
fc107cb09a1e2887fe7d918bede02f58
fc1cfcc1bb289b4b594760aca178dce5
fc143fa26739e57248e23944e2f52350
fc1dea1b8676f006b75d9144711c48e9
fc14a012f136b659c76cbdb17c5c53ca
fc1e6f2cb3b2739bcf53c90c3ddcbfed
fc1df2cb478a6198db43b6757dccc0f3
fc1e9fd652d6260f588f834d4dea9719
fc13338f0f4b8c6a5478e4761188f60d
fc1525ac241f8a5fce17b0153b99b26f
fc1f61b2c089f00e9f5c029b11332cee
fc153aa472c8e4dac0479ac1be63a69f
fc1b4976f8e79465f3965ba22247c1c1
fc163b7b5d760e6cc863bf34be73ebbd
fc151294bd5ff2026543eecc8497c762
fc137b7e37e864b604c47c087e1250cd
fc17ace420c970aa599a77d498fbaa90
fc1dff593d4dab760e81d0b834c7f3b8
fc1b418833473239ca682d4090ce0c62
fc103dcb1a5582b7799abbedfd8e17ba
fc155e8200281815ee0172a1f1d0451b
fc135120fa9afaffe248c2325a84bd6c
fc1ee55190d2380d9e538483c4c6fac3
fc163d3960e822de9ea27ab3a6e475f5
fc10817e05b2c4e8bfee0c618fbb5d2e
fc13e39cb718e24e64a99e5b274335a5
fc1cac1ee36fc6fe4fb7445b0160b152
fc1a2575428b4db1d586fb6546841360
fc1b1c43dfd7f14d7b1c9fac567cd1ba
fc1b5c2b0623dbc81969ae408c749c1d
fc1478a910d1629fcf851704dcdd38b5
fc1b028c882f8bbfca32f7d2bdd0c78b
fc103883b4f11b1c77cd5e23a786064d
fc1f0b346b28523085e04ba9fbd61fff
fc1d8d0f65adc24cf225da4e7fa178ff
fc10726755c6cfe16979d2a397ff4b69
fc16bcf74f1ed121448d52dee16a3273
fc1d132be645b39aa121f0fb3859635e
fc1a329afd15a3d95a566a01de944c06
fc1d69dd504c0b7d85b8df75b0784ece
fc1b944c5ec01e6dd866c45251d2207e
fc15b006fc07bed053f6a010be8f627e
fc1b1d6f38267aad282cbd1439172825
fc161d64b096043f626060cfb79c3956
fc1d224a173d7282af8bb048ad3909f3
fc185eb67ce5289798146cf4a1404af6
fc148859d0fdd83d20ca5715ba4a20cc
fc12e6f2f7713bcc7b0199e5617902c5
fc166adc28b369713ca3084c90803dd7
fc17ee7ee19f28b07510f2699b9fc8a0
fc145adb921d9c603f58ddad9dcd68af
fc168f5277bc994b28ec400d73eef201
fc10f6a061f6d63e4dd78459e2a89c40
fc10ec4caff9b7a5025e16e1bd6fb5c0
fc1fe9ff8408985b4a863bd27d744203
fc134579e97df4b38bad3e5f270a0c07
fc192ec12945691784af520ade000f48
fc13cb8a2156b7c1fd3719293e5fcd3c
fc1f024da92f9461b8d00fa689064f45
fc134ad2030e0213b331993cd6c5acaa
fc188363a40777f244e2295e8cf3133a
fc1d0f07b9ce17003039a4edc441fb6f
fc1bb783c9ee18180d0d3ce3a0fb75a2
fc1c51ba53a9c32fc180cf9689710989
fc1aaab850f6d0f232df29d8ddf3f639
fc1e8596236b79195daa3d48ebf9c1b2
fc1dc050c5207b06a812af707382334a
fc1e429ecf108c2d05ffdf173c81c334
fc1bae9be25a80d8973493cedce49763
fc103c52ddbedd13a91b7d7342327250
fc1a56f3c365077371f9952cf39de3ff
fc1c92fbf1802d0898e5de8cdca867a0
fc136baf5a7a90563733eff1472c7d1b
fc1af340add1da10695a2e811db2e605
fc1164f81825f21ee547c54ac9139864
fc159fef1c838b031228f1be617f4205
fc1c431b9c8375375f9ef68bba7f9c1e
fc16b6659db2928762a8f420ebe3dd62
fc112a416cd031b62e9f449b10c3c02d
fc1eb9727e041fee6c235896f34a4313
fc1e074502e899922dda3417649be8d1
fc1a2fd840385893feffe6786b9ae9e5
fc15e615b96ee61ac6e32a6b084e981e
fc1048413f425c67d7a635ed8d9ef3e3
fc159aaecd5b5131c028518a51ee34f9
fc1934e78f849336d35006f8c82d2f04
fc1a8b0b290eba75d9bc1113df8e143c
fc149619ec0b2835571846bdd0d5e293
fc1a58d074ffcccf4885f7aa2d2b1e0c
fc10c08408eee2deea5953ac59d0e42c
fc12fc6579fbe02bad9e5d6d9ece18e7
fc111e4e23cbf15e49d5af0be4544342
fc14641d2497b1b3a63bc2145905ef27
fc1d4982f52cf9d2a04eed29d9dc0828
fc190c05733d04950528f7ee6014ff9d
fc1a30a5709e9676f15eb721c1967270
fc17dbf9a5a900162988249b47f1e8f2
fc19b786edc13d51c9beba7c82ea0f56
fc1635f8f8d4cd5a3295c64f271a8543
fc1abdac9616b1d7a9f47a19af6aee7d
fc1e51e845d5ce308ad33de5c6cbcc27
fc10ef9de0c9322647448ccd95a3724c
fc17af8c83c7b42a057d5a2f961b6db0
fc19698fb9b7a9124f57cc1d46263e15
fc15af8483d6d8ae56e2f6fd718846a8
fc1462caf81ecaaf221d7fb474a9bbe0
fc102686617697f69b10eac3ea657e88
fc1e9e48954ce91bca76da3d1b6150b6
fc1b97c08b8a7fa1377b7eb892b90faf
fc1d087c3d5ae2f1ea6a3824c203e44d
fc130e4c93b643ef52e037bc8dc1000c
fc1fdf956ce57472461534fdc590c20f
fc1df47608f728a98970bc55377ea39a
fc1673e2176da78a4ec15e2733be25d8
fc1d4525b1f03fd2d60676114d96a77b
fc13ce5e7c659091099c8bedaab408ef
fc14df28ce645b04f01c1ab9a6daa19c
fc19bc4597cad4ed91040f58e24e3fce
fc12f6febcf59855c3511634a328624b
fc1f6fe39f64911931f4571363c96805
fc1c3d038a3c06853ad6e31530681cac
fc1f187b612e42c09f38c670af201c2b
fc1f3f3c65ad58c3460774e32c6b6dd4
fc1f011309d3faf8abb9dd046dad1db5
fc1033d4af28a75812f8a535e82d4dd7
fc17e710dc04629a1d9b4850fc12d14b
fc105a3a6c01529aadab80401fbb8d90
fc1cc865caef17ed695d57ef7fa9f283
fc13a084985a40d51239c20fe917a1fd
fc117696d4a881154e6583e8ba610626
fc1560baa7073ca0a3bba7d5b5a4b42c
fc113028cb97763532d042a7696dd192
fc1cb5b7616b3258224c6c8c4a437c33
fc190127ee4cad46f4d5867cf4f2ef05
fc1eb4d95eb0a60df8c7bcc59070ce1f
fc1bd6e3ed04e3f002f1f8e3f183d5c9
fc125dbff7a361938a38ba05b47d8b04
fc1c46e2efde2d5edfc514e62127f6b1
fc1e2201ac203037729076eb1c2af6e5
fc1cc167e29e47482e4c5b42adf2ccf8
fc15f01cb1869ae7cec275fb6285c572
fc1c659ff1193dd476dad6ddeec72f23
fc1b6c66522897348443780378910476
fc168bf0d1a4520f865f8e108081722c
fc19e993f423e5689fb5bedd3289f92b
fc146b883d75d80920f67c49832b4b29
fc14a24b193679ca8ca8fa18ec20937e
fc16d76c0005bc667ff094c64c2b261e
fc1b63bcb69a7e8220eddcd2a1811738
fc170eb72e4c64af7057f74d7c98ea35
fc17a7b3010cac37b6416cd4ef04a41b
fc1662c265031e4bfea9e9efb5d9c7e1
fc1a445ba1af69fdbb69bdd8faa1be46
fc1351ceed640310826737763ac301af
fc15bfec53c1fa5083e6a62f486b4bed
fc13b0a03d8e989addc459cca7f99eac
fc13436f1d0751500af73da498ec04f4
fc1679fd125dcde13d7bc42f415432f5
fc17bfb4abd37f834527317c7b165c40
fc1b60713892d58925568fa239439ec3
fc12fbf82f3687f76625c8bf49637498
fc19feb5cceb22cac8623ddb42daab7f
fc159c99700917fa7479c65d7639bef9
fc1fff79a35a79d0841504120879d80b
fc16d0a00c9fba8962e53677425c33d2
fc1307290a4a0b0c92a7eb6ea78f8ca1
fc1e91576408aa1adf656915e5af26c3
fc123eef2d07d2a57a5b01c58d70b59c
fc1a5594497b2d394a867f07f74e0095
fc1a94798c8b345f8c8930b4c93caf49
fc1ca22895d1084e0d898e8859d6c7a8
fc14462044bb3eb38a7342ee7a9fbb2f
fc172463a5718f5f7d8add9e77ce0e00
fc100c9a9810f72b50045c4087184617
fc1bdb73e37babd0caced2d28f3db1e4
fc1fa239d840e9054c54c45dbd282be8
fc1d5a65c72218ffc7b98559bcba94f8
fc18d3572caf771975037ba5c65c4360
fc122c16ed4cab9bd1c2816f64c1979c
fc12a13c3c8b2258a6d6168a1f01806a
fc157e42d689ba47a7ea0069e08c9ec1
fc104d637ab1d7c2733e26f90a8b8687
fc1ca60627b3f600c21a0c6252616925
fc1cbe2d187b0a1ff0595a224c4d9627
fc103081d49de3aa8c18529084f23d6c
fc17c9deac39f3d31357d6dcd0155e85
fc1b535d421c9ec454d704b15b956125
fc10d1c65662b210356c7a89fb0bd9f7
fc166a0dd9d17d984d5bcdc89354bd8a
fc15fc06471d690f061c324930a623d1
fc18d34fa0a6583f23414302952e3acf
fc102090d8915b0b8a360db6dee51418
fc136fdc845d48c2c0df1953282c1710
fc118f10583b3128e04574e7ff0a245f
fc1ae5479d0a8efa3f6dd05abd4b1093
fc1210bc9bd09a80eb5e4373bc90661a
fc189e776e17aba5ca7e5f7fac8e278e
fc1e27aa40da6e5a5e446aa2263d5dbd
fc141d24241cac6680fbc57b7ac3a9cf
fc1c29c23dcedf01ad61507a8f258176
fc142ff156fda50c67b7d7ee23250754
fc14f64961fdd59e76ff45ef73081caa
fc1a637d99eb367b6bf555ee08e2431c
fc137459a456253476b3d3222972611e
fc156184780ddd3d05d2a07fef6404bb
fc121be9a28bfe0b792dab5074d68ecb
fc1bf852cb0cee97d77b573f7a38b7b8
fc1a2f5253415cbddf1f72a2716aea57
fc17e9f28f049d545adf9c177f8f8820
fc1af9184fbbd9bd35e09208e2210ca1
fc19b7570415e3be69e340e2753a1aa8
fc17e8f857965b70e685ee2902bfa942
fc1a851ab04238d12663e0f4991936c0
fc1132abdecf2f3af77afaffe551c076
fc1f86a0887edc7467daa8fae3adde5d
fc1ac6221145e00f695bdfbb23cbbc2e
fc1f5a6088788f0b224a6cf4ace34b0f
fc1e1db59324297801b1c2609b3a899b
fc1cadffd16deff66c8a9f5e1cea9fba
fc186a5e5fa990c6dcf2173cde4e6813
fc194e595ad0eb81fe0bb0fd997e531f
fc1f34d1e57ae3b603a1e998fba035a8
fc18ca2766a00c44cd6af30b94e2080a
fc150ae0a0dcc8184c30b4e5d2fc3600
fc191adeb87b7d851e9524bc37879d12
fc1cc2e1b6b9c5dd6f97325afdb8d894
fc1faa599769f1e2c917fb17cafc2996
fc12a7d00b84d7610a30a71b5ce5d119
fc12c964ee020bd9c12ae38a051e9b96
fc10d6d3a3f27998c8f78fbf908884a3
fc1b3015bb7f9133be4cf0463b2f040e
fc1477bb122626e0d2f4558f59908251
fc1ef21e3fcaa2235711cb05ddf9f80a
fc17fd7e0e30e065aaa47a9b20b177bf
fc1f0a2eb26c487737ce7d8cb6c57697
fc14060b0d16ef2c69e5c8133526b623
fc12b0292439d53c2f99aca0c4d7941e
fc1ed21c3edce444cf9c83334bec9db5
fc1f1a941d30de5d73da408fa1d825e1
fc17dc4e96449e2ab18c89f2952b2284
fc1a088ec5d9efb58e7db8ac3daf8580
fc1bcbdc30393e96ead09f13ad86c70e
fc1ba3e76a4bfc89f05647437db23423
fc1d2797a30bed5fd72994b76ee23c01
fc1dec6551cf7dc4030c018b79299c18
fc1581adc8e8eb6d9820e9e0da39bd90
fc1668fc92b6a19a4488e2f117aeb9ec
fc199f87aab896a244ed660f59071a24
fc17e502e168786c6b37450973b730ee
fc1bb98502bda87b6fac9c3bbd48e9fd
fc1bc7da04a830a0a2fcd116e0d609c4
fc11fe2dececfbb79efc538616727371
fc1e422f6abf30cc982c9494da12ff7c
fc10586028eba33d13ce353d4a728c55
fc1455a30d5683e92073415e30284516
fc1fb51a7a8e90088067be5aeb8d1845
fc1261ec17549ff8b911ac98c1517393
fc11e6c5cc094296853f3393f535e0a6
fc121c84767e88b16f05ab1eb3462f43
fc1f274e60438a206c6558c863056b43
fc177b0bf7d1e8a68a41e9f3ce073ff5
fc1bfa95165b9a12cd9765c5bfec8fa4
fc1b2c6903904b5d02104010b005f972
fc1cea462741ee178d2e82be19823460
fc1aec805bf79a7f3eff6fefd09a473c
fc119f8db39506b8d2195ce1ca88198d
fc1fa22ec977f7b6561948d3e2fc4239
fc1441d6c417b92ad5d1bce848cb1e10
fc1a725cd2b77f787c9c2e6213a12d48
fc145cb34918262240a81854a99a7dc7
fc10b53e00fd429ca0bb8b6e8b0cd752
fc1949935a57742df292aab71d643866
fc1a52eca4f1e72e12bf33fd3d161b47
fc1e763ad5d932b756f38632e3d55ef1
fc1afe0b830ffde184d0acdc7dedce5e
fc1229412746fe82123237f9e853a07a
fc14f9b3fa6ab3e2e74bcbcb86ad5019
fc1a6acf176c1d0b9bc49e2da0cd68d5
fc102e98ef724e1cdfe47234de8a19b1
fc15f2413a603d596b5afa040d41f0a5
fc1c7bccc3f30be2c88cdeecc5995aed
fc14f8bb4c9c21c45c8fe9273a871799
fc13ae4e3005c4dfe8668a8a5617e767
fc12f4f8e0b4ed0471fe2430c9dc1700
fc1b72d1157037a1e922e530df3f4e5a
fc1d932afe6b2748baef4778d9fab1a5
fc13ecb3565d32022f3efb9bb592cbc1
fc17a2c643470d8eada444b353ab71c1
fc19fe5b3216ddcccbf6f58292e13183
fc1e605523433d999380315a885d4d82
fc19dff844ddf783b64e5fcaecb6adce
fc1f7343dfb55eb582dc98388fec228d
fc103e75e3163daf98679eca612ec474
fc12394d064dc384a644c9ec82e70543
fc153507d449c2911fab03d8f7a4e66a
fc1a650d33a94ee5c96c6f06265e25ae
fc1142f651ba29d99114be8f6f720b3c
fc152947e49e54526a7d432a85e5d1d5
fc15ce0e30474aef9a27fc7d069ff506
fc175398f071309fd915a237bf572828
fc108638c0911c28a8ee8f0a4fc962ee
fc12f7eae91d68aaa859aad2cca809d6
fc1ea1d98a98318b6b53f7d97c503aec
fc1c24fa3699b160199853abf75308a4
fc1848130bc77f88318477317af20cbe
fc1c02c04294e001d94c6f09c6614365
fc16eea6d4f41201b028dd056001a6d0
fc1b49b22116336965c959249b118436
fc17ea099a0e401e31ac6263a0d307e7
fc107df782e04ab3bdf479c690ea7a1b
fc1ddc56298791aa1f8a7fd9c50def86
fc19b0fa542580b7ecfbb7af4aeb5b11
fc1797d5300d88edbeb3a627c4848043
fc14a8998d2bdb8da16bbdf9ac66d754
fc1fc0d0890afb03e943c20931c1eccc
fc11a7ea7edf71cd0404f4e747d964e2
fc110e5813f3f77172bd097b9aaebf6d
fc11ad0d6e73e5f5ba3fa4cd738e7628
fc16f70e42abd301115a90f960172e4c
fc136110803af81678ae2d08aceab8ae
fc12dc78ac3a18c45674bb212ca516b0
fc1392ebe7d5c55e992ad22c5629abeb
fc12c2fa9e57e86f94080ac216c3e642
fc1de98f1027e26eafe105b9e4b32ee1
fc15e3404795b99ad8527595c543b73f
fc1121d517193c6df580edaa8a8e2a0b
fc1e6d3fec35085bd19f5db2171a1b2b
fc178c1c93b632c602fea2a3a0cdf251
fc1485d9ae5e976662e36bf7413a7825
fc108d1d920e08d7322048f02a753fd4
fc138326af5627f7796821f851065505
fc1f19e1cc6c72b3aa14d36d1b9af841
fc186bcf85a43da3ffbca8fd524a870a
fc1c738a2ddab6d23d53d41cff1e8c80
fc129208693fd1f43865da470a3fde16
fc19957deb720f0ad836faf3451c1d51
fc1ab0047ed43833ccb0ad9212cf332a
fc1028f34c1ad6f6cbbde8f65400d3be
fc1f68ba84881ba9f294c0c413530af3
fc1a74f167fbdba7649e0a8eb8e5fb4e
fc133a005b2f025e1b7adcdcaf3a8642
fc1a3df1c1a37e4142a0bbb78a3e6f94
fc1e5c83d340f31ecfc5ae61d1e283ec
fc190849567b44da2600f1aea5b94737
fc1ca81dcc82c6387bc5aa5194b9522e
fc1908e6964fb24d8c46b68219ade770
fc102f8a9f4ea98afa051f9ec1a82c78
fc1b0f86a54b70817fc62e763c49e6a7
fc17109c05a80057f8b6d6841a2bdfdd
fc1682b97c7b2ee8b38023cfc37a8a01
fc19dbb3e485810e99af26878cad2841
fc139ba58f6375b6e8c02aa17a936b25
fc17014f9f880b25526c33411d630137
fc1a20a04a131990a0f7839955ff5ecd
fc1a554ed5f3bb686e91d7aad8398cb2
fc1cf16878181a5c33ee01e1a67b11e5
fc15b947ddeb3be8e7b43983056b90ab
fc14d5dc4fe03607b8fe295de81a3581
fc1fca0b4f410c16d19cd1e088dd31cd
fc1c6da611ac12accc855813f06c4442
fc1e356c683599bc6c36c8ff5091ec37
fc1ab548f64142c7032957e6e2a3e7f8
fc1e2020da7f17db851ad5f60579b687
fc1edd11bd555cd0e83debc6a1a63a54
fc1d4a567bc580d4e456a13c9416b0b1
fc10633f65716d1c282ae5a4d17b546e
fc16e64510c6f5dad85e71c646b33da1
fc13555ca31e3a704670be32e7a2eb10
fc1c04da7bd709abaee5c5e4450acfcc
fc1b049c5497732de4fb0e74082aff59
fc10aa210d84af08e14b3bae43e37c1e
fc1cd28acaad31ec46f3e133816b2180
fc1a6df6e04aff14caee1b2e888ac1bb
fc1b2e80619f496b52eb25cdd1ec6fdf
fc10e578200aad77b40d1299e76a66c6
fc1ada8975c4572d4dcb96e5b7e00917
fc1c218e4badd0fa885cba4206a792c6
fc1a0e3b354af2397a649d4135cffa19
fc1786852a828333ca3138bfc6468693
fc1382f7039bfc30f6d724f323d31978
fc1b354a5eb5a43bad2d8b589986d405
fc1c32e1eac29e29933bf077237de8c8
fc135a08d0fdb8db89d9a38a8b0eb07d
fc1a937f8216de3085615d19b0f4455f
fc1a27b9f18cbbcbdf956cde1904a4c7
fc15419d939fec398844939b46532f32
fc17aa8468b58c6170b9eef7ccf8f25d
fc15d43e64b744768d82ac6425fb0777
fc1bc89f61ff8485e7071ae90b18ed80
fc1c596b8d4d6c5beab174234b97ac44
fc1a5fc2c72c80d51cd7624c6a2c7f2a
fc1fca686677db2a3d059026b3493ea2
fc1bd4a960b237b7f33e99b818457bd6
fc1904c2625c656358fa305eeed6c686
fc17f8705175d4fafe90dd27e17fde72
fc15a5c59dc53bd1ccf103429f4f045c
fc13e3f2397f95f9797859e0a7c11504
fc13736c8683563ddb2dcf2b89f0609f
fc10a10aa5c62e9c2cbbb8ca9e6ac179
fc1f0d5a0aaf6b1c416f7ab2d8e2fe69
fc1cb16670554ebbc94ae7ffafa02a91
fc10350baab882a55cbd8953d59fe544
fc1911be9a99423a081f803af393e24b
fc16eea1013e8633feb5ae24c9522a48
fc199b41a220d396f4ce6b404f4a81d2
fc13b059b55ff074adf9e7ef8407388f
fc105409f82442ca858b10c1964b502d
fc12b7851444cc51c1c430d02223ad6a
fc13dab7a5df512958a457098830babf
fc128030289b9c305b5d79ad617d40cb
fc1c4155ad29dc7fe2ea0adcc61d2452
fc119e9b1e42d84ebb4c938b7674a518
fc16b601c90d0cb00c10c32c8345a9c3
fc1aaccc3706d3c8145879bf2f49b2f6
fc1eb3c6b6f71a9fd65565bbd9eb9a66
fc1d0fbd279e006a153fdc092962b5ba
fc197b4d55b6a96ab96ea4898a4bf1d5
fc1185bd89bdd3c15c5f518871ce1cd4
fc11f972be5af8dec2c1aecfe3db34e8
fc11e6902163431b4ed2b38602eda743
fc14f4a599744692c316954ce486c178
fc1315e957064ae01be98e12682a6e4c
fc14812280a1b41c350e1a701c4cb129
fc1685f16cae9071135b7fb80ad32762
fc122477414da0d8da084d9fd1dca56f
fc1da203d762343a2fae285d84c019d8
fc1144f1e551cbda188eef256b4dc6fe
fc186daab30fd4e3dfb3b6e9ed406718
fc1571518227a04101fd5801305bf674
fc1b541a900070333e5588f9af51cd70
fc1e3381418268158e2dd9ceab8b6608
fc18a0c9b67b223f165e78b7bc0d79a1
fc15efd691ce9868afe3470c5a04b175
fc1fd259cb4b5ba6e0faff5e0f1ab450
fc139219d7907bd3eb4c8448fa2ce636
fc154813ed4067a1a95dce9b89556d0b
fc18e811ef558a0b87fea5bd616d0c2d
fc1c8361a5604f932c8e781cda727ba3
fc186a6571e8744ba14760cabaaefa63
fc161a01415e7b96998e8bb3bd4f0f23
fc10ab743776fe6adbca097ce0ecac4f
fc16a53fe40299c101ca6d1543c9e8a1
fc1096b5bcf6e4b4b8449509c42c1447
fc10af89c4a78ade7d9706cbbb8b452b
fc12b6802d4a6629dac0ae9324101d31
fc142b94ec3b674e42e2ed2d9a097f27
fc10f63d3b4050cf2ec2433b4fa07a93
fc1410217352c2665230d4f44a549b27
fc11304e770d3dd03040c9efed48677e
fc158ee9a79ae87b4fbe4966820f9cf2
fc1ff75392ab10f99ef93ffc4ed6198e
fc1d8fd9527d85904b46c7d0b838c7a7
fc19fb317d641fc11fbfc27adea61232
fc17a3fd1386051f9b9a038fd779ad7b
fc1dcdd98ed7939bf2a90141c5797155
fc1d5e9816bdfbeb63b54c2d0f92fc47
fc1acd62e214475e6c4de7be5e3291a4
fc13a2142efd1329b00f26de013bba37
fc171107d03a4b60b9a5fce5444eda46
fc113b101dbe100a0866012664324bb9
fc13ee9d3aa23ee248517bda05ab907e
fc1da4a5077d4848f9f9a23af279a6d5
fc1d5d43561dba35aad159b1ba9e664f
fc1fdee26745d043aa11aa433d8912d6
fc13f1153709d584b58a826db49a77c7
fc196dd57e34bc1f27e3869194da2ae3
fc1fb3f4596bdad1b4b94691eec901ee
fc1638a95d06f2eb8c416ee817fa6abb
fc1b6f8cc26c195e0a823043cd107eaf
fc11a75b0a266577e827d3949dbdc6ff
fc1759e5273aaa581ec391567cc8fd86
fc1572d9e84fd8a45418c68cf8a2cf05
fc128d3cc99c16be35bf72bb4af3fac8
fc1a056881dae72dbdb5a05342ecb596
fc1799341d4c61de9a0618e6a99a6476
fc1349e17f59b413cf8e7fa7b4605c14
fc18b489d75e7b24c1a9be740af52401
fc1a287d60c1f97106b2be1ffab95e29
fc174fc79c5c367252e8358c6206f43a
fc11354486a47dc00b628e73cb616e88
fc130a3f40d2cee16dc0b55926b53741
fc13a89bb3aa6b7f9fe6589077412c1e
fc1acc045cbdb45d69e2c68a12ba9b07
fc160cef24fe977e1d5832a0666ce6ec
fc1e031df2e1d201738ab1fa5123d9de
fc1ef85b7253bd9296f35d11f2d5cae8
fc14054c615922ae4c3c03973f2dfd2b
fc19794516f164f1302e54d695551550
fc1a7558bb4abefcd0240735ebffb523
fc1796effa2074c65fa9545824a337ca
fc19b05a96ad3db5162d023456bd1ddb
fc1d9d3dcc24a1e8437ac262f58e6716
fc1105bd6958b225d5d857564d75fddb
fc1a4dc721308c54a9c481c3dff729a5
fc1697406a8966dcdd347e030d91d3f8
fc1e949aa7ac56c23ef0c3d71ae5887e
fc1ae61b1e8b9ff2d0cbeca021635c12
fc100c5c21937f02ed0d656a91e6b171
fc1779a0ae8a2b250c8928bb67bcdb64
fc18c01ecb0fa59c98012cfc7af4de46
fc1769dfe4ab8e9a5d9505a02f5a72f8
fc16ba2c0f84160e6de709c49e9d35ce
fc17f0ba068d249a18239994b5c56e62
fc1ad4d1ad6938f4b7aac36b8f1da29d
fc1f02489757e6a5321b3d803641a73a
fc1bd12d6c28bf67a76a8617032224ce
fc1acc17cd06b67f0f0900c94148114d
fc1f2bdeab39ff15b34c1d08c5f9ea76
fc100db7534a00f77789beab1adfa536
fc16eca501a0e5e16dc2bf058493df22
fc134aa1fb0a578231ee410a18391bf0
fc16496d43d58551771cc1c090c491c8
fc15449dd9dfd099aa9cb474a63f66ce
fc18589840bd2e8936a6d4ee1b51509a
fc16889874036ed68a4c67039196cb6e
fc1b88e5441434bb2babce5be3663118
fc141d3032369f6ce34fe32474241baf
fc167d0d56f0f58db6dbf95a469d9f02
fc1c880934e97dbe86a4c1349fd2b7cc
fc158e5beb49a4ef399e2801a5e19ac6
fc1aa84841234530c71ca15be669e432
fc165880176cd5d1dbf03c41430f0b29
fc16a8780bf2041574791f1019f58821
fc1230d3e3ee5f3ff2b8a4795fff766b
fc1ba7aed116b80e4de487a700a1bb3e
fc19d4571fcf78cc5c3d5b5a064af2f8
fc1ada24f9859f1cd653771262ba7a6a
fc1d416daa99604682405487e2eb9857
fc1e72fd95527cb034b039687194c850
fc13e2bb1629a0ae6bce9ea5f48d2ec9
fc1eb6bd166b97ca13d04ff633f47075
fc18f10bcba6d3c347c1a0a73a2946d1
fc188505d9173948b3e88a57edccd183
fc1487de1227e4ba06ffa7e239959e8d
fc16d63d2d170799c3b5828104a16d55
fc19786dfb8af67f3b2c80b62f8296f3
fc12e717675b95f982a43d7c253a079a
fc151b48801a56cf1bd50b6745a09b03
fc174568529d618ef0f476dd0ebe9ef3
fc18ab03dae00bcb06f8252a0a2a8431
fc1d1a96b6748ea418e521d93890f8de
fc144422b2ef73725624a0580ad25c13
fc1e330a351048791bd688bddde1fa54
fc1f7757ec55789431d91e9aa3ff85b0
fc18da7d8c4f982cc91cf71b48741e28
fc1e1b21586ee1df52a01d0c7cff8612
fc11bd3636800f31f1b3ba966f8cc89d
fc1d601f912bce2d482861ec7e004f64
fc148a8d7dfc190050250c2a432f06e9
fc1a972f77729b1bfbd94365bb070558
fc1396a7178d55b7e3c8bde801c779d1
fc15252ce62b68e535d4cd4dbc5f08de
fc1cca3a5d67b0c0ddf201c9a2d01dc5
fc16a55cc33bd2f4d29152e0bf224f0f
fc1dfec8c66d642f88e4ddcf2d81dd65
fc1a168aa9cf0b3d156a90636743996a
fc1704466bcf465dc5bb76621fad9d71
fc1edc20d7024022728461fe64ef77ad
fc1d5c938fd1c73962e47b3792ebc7c2
fc10980be7cb07ab3cf1f830a6469a0f
fc1dea8745d8d4e76b50ec76e7642a56
fc119bc11a5132f94b77c6b54a106974
fc1d421d303640db0933887a06ea734f
fc17d9efc20b63c5845b46710a1aef5d
fc1b98e424c0257fc3d6621b07735300
fc109d22264856cfb66891a8042c1e3e
fc1fdd4234e033fe4eb644ae8cf7ca7d
fc1fa12a7383b34d1d56c6672ae90610
fc1cf9dc4eaa54244492deae475c6f9d
fc1d82ab31c98dce16b7e5880d04dfce
fc124e5731d77f2b374b4a8b8e8484fd
fc1f12e615783e94e9219bd3bd8055ff
fc1222b0e10e0b6aa8c6e2360283e4e9
fc13794ed0fb091394b45bbcd70cf169
fc1cf6fb627712211f29a32a1167d270
fc1a1c334c876a103f4f52a0925363bc
fc1f7ed0e6c87eaf95fe7a5044b62fc6
fc1a8e448d4a13f666e792cfb34e2b79
fc1249b3f152095033e8093e7a462112
fc1eb6cb22cd471d351299ce316e7ee8
fc1158ac2469ee8b4c896e3e009fcadf
fc1308c800d7bd1ae4b1b265f502fa78
fc17630469c2eb270080426fd7eb16d8
fc183aba9bea4b86bc5dc80e87b49c80
fc1a729d55885b2ed47142581ee83f7a
fc19e249f25382812291962b459325fa
fc1d377b3e3072c27163a49a948731ae
fc1635d48722eff5606bf6c8d56646f6
fc1b84b7b6aa389f79047f3ae427b507
fc17cea4e76ef4378859880fe62a231d
fc15770443f40b13a1dac6ff7eed2983
fc1cb69ef890541d12291b62ccaab937
fc1b2659c9facec90e1725e48b483523
fc1cf8a2828c011949d28a3c5903d24a
fc1567c09c402e4f44e1f5ea23c6921d
fc1290d6b1eef21cab2bd8f043590aeb
fc1ea592defd91e6892de7f2fe1b039c
fc16cdf30ec31c9013440749df3edc81
fc16c254675c7ae47d128d6abd0b2007
fc165ca8156c8e66fcf8e679fbf1056e
fc16a2eb794a409becb9f73ee51bf911
fc1822e4cb55cc5e1e35013ba7bddf33
fc1fbe694cdaf33857f9039bc8ea9c82
fc1fe60674f96e934663731719c4d71f
fc1d980801e3a60ca7a81f20ff6f9940
fc19eb0540fae63acbf4a66e07451c3f
fc14eac0a07b506f8a4a608612b574dd
fc103e11fec3bf71cc5764ede223348d
fc1f4a27bf0f413b25cbf3a57a264143
fc15db715fbf57c27e43de4d9681e7de
fc101e2ddaed700f0d8ba48e4c195a61
fc12246f1c429a41b71864046191d7d1
fc1573571d6aae4ab89c29e7c5f11ad6
fc12c7d1c47ade4f0bee8cc448024847
fc11a0002d344abb5d2a9f4106d5d705
fc1cf3302ae7f0e47765eeee0f734c2a
fc13a90eeb0dc1ff9c8ff5b10dfe57cd
fc1582be5ede6436bdb9bc72a1f587f0
fc143682760fc4e748a5b863b4762801
fc12f44bd52d1fcc4f5231b1cae2708c
fc102fb7e7fb1d5b89cd238131a1bea9
fc114b76936efbf07225bfb47a8279eb
fc1daf3c2a455239e47b810c49b3bec9
fc1720398715a4925bbf8e18911fdbf8
fc1f4b3c57bb5c83982521dddd605720
fc105f42cad3e1e49160d2a9d6e74e14
fc1dcf2e3e0970f6a366bcde2d36847f
fc132ab67e5feb21533d8cf2848a0cb5
fc1376e4773c23475d9d3bbece92daf5
fc1ee79bc75418d2f343e366ba2e1201
fc10c3929b73b9eeb6a25782ef4466ad
fc1d1a325bd1fed83f4e5c27e63fd2c2
fc1b4b810d38f1f82a3ad0b31385cb22
fc1dd983c5faaf1030f6542be472a953
fc1bc369c15300849676418f1c521dbb
fc16c86d81dace21e53988e0570f3265
fc17bd7545798645060350250e359c9f
fc1f3d44dfe6e67fdfc72e66161856ea
fc108bce2bc169afa8cf7fa7cee5716e
fc1238d1eed0619adcda2478974bf6e1
fc19302a17e0acd79fb47b9bfe39827e
fc1db86f7c7bfe1a9f2742aafcc3304d
fc1fc516bcc8745def6db4dd00b47372
fc107d757b78aa4e23eeb874752fad10
fc13920ae5f6c3558fb520acc550942d
fc1a5aa0fceb541e097d1ec0eeee0b51
fc1fae8fc45f3d8bd5ae991c8cf13f53
fc187cb11a684df4cd7c7e31273a54a5
fc13d2cd2c6e7478e2fbc403188b411f
fc17b56fc16fc435c18117e2cf9bc668
fc1751efb076f01a9b3d60e41ae27dda
fc1f65d9b99fd5a189b7792cd1efb218
fc140379f807af73f7a6d4eb6de227e2
fc17683a3226cbc294d539c90db25575
fc11cb516989bdf91d311e049c8fb6c9
fc17ae10440210af76586781ace74f3f
fc1a4c5fde21bb891fdc3102ba5764cb
fc1eada27c9afb1295ecf2ef202f9ae2
fc15cbdf1348fdbe646ef36737aab737
fc1371efe372fa73ca4068ada4db5518
fc16acddae0082d6f1b2e8f110840985
fc1939ae48008d03830e22e9a086f662
fc13af639b8cf88c89a28d8957242f3c
fc14676998ac4b0938099bebeff91067
fc133cc871321f50e52d6ce5c57255a3
fc1b56eb016c2d1f9d1c302d53578368
fc1399116e1bb3681d699d7f77b77b2e
fc1117d18bb9ed93572df865b4e19b49
fc16c10cb0bd137d750f718fd5c83cd4
fc1ce824f4c722c5d4f81f40fdc41279
fc143b8a0ef6f88d916217b6a35fb1b0
fc191fa30c23e2c85bf70d1486cfb9cc
fc1cd9033a986d06bfff42f307c96d66
fc1d155246dfcd99649f0d245eda40e9
fc136e798a31d27db960d11350473f67
fc1ef5bbf974e614cd5661e344c20283
fc1b707faa3b8ae0932f3710ae9653ee
fc1f2aecb6bc898ee4605945c820c8b4
fc15d931c8e1bb1268e3ffcf08b223f5
fc1fc4cdad75c391346332dd44def488
fc17592f90d45c158399af3941c6d4c4
fc1e922310b880a9bdef2b51395c537b
fc15c42b5a4a319dc02c1b589ee1d2b7
fc1069f89de8d7eae9984cb4e95d6b05
fc15587ab0c1ba1c4e0cde95d84f5042
fc1da8a211b7def4a762048f094c5218
fc14bfe9d2ebbf7582bf06269903d3dd
fc1793fdc027cc38f4319dddc55e218f
fc14a63d4288ecf4fb9ff123ea34b832
fc1d65583416005af11432864d424fcc
fc1ae17c15d4cba9b00b45a9f95fa0c2
fc1700dd7e29bcf767d44d8bec889d06
fc1592a5e8a4d6e2d05bf6de3d878101
fc1f701ec9bdadaa94a644d903d45ef2
fc1480423ea614b7c102c018f0f5975a
fc15223227d1ce01081b6a6ea23b70b6
fc1499bcedc2a2d044870159a5bf7065
fc1fb0b3c315d182a3fa9b765fda29c1
fc12bb7bff940fdda54ccee3e968c6e7
fc13614978edb1466b17960aed7b3eef
fc1dc0d18d1d1e6c0af76c32e08c4634
fc14bac904d89b799acda7f792e59be3
fc1aa788cb7bcab5303e7e2760d42fd9
fc1b27479af984897f5333af3a67df27
fc171f5d1914fbea43badba0b2b0947a
fc17881fab72d1b4a8ff986240fec3a6
fc15350fd7639fef2d21fe8c073e487c
fc18cb1d1bce5e0a81bd300705bef820
fc165f260d0d79029d63b41db4ede233
fc16f71bbc85499978bde01e513bf6f3
fc1f29b3ff32f8258abb0b07849fe912
fc11da30ae917eb80958157616b70fe3
fc19cf2980205464b12610414c8be97b
fc1df8068ace89c6463ecc28ba610f1f
fc1008c10587574b5e580f9a4e626e0b
fc1724caef52d3b862b89cb58a104488
fc12a76f64b1b65826e52d9f317f1341
fc19dedf9283330911142f0f95acb82b
fc1d98c9fefc850de7d3b09214dc7024
fc1a1f42e8d6ac8e3f57c7632b1d706b
fc16a38e000df26eeff68d8d512eb78b
fc1e02fa101596357e16fabc3e56b79f
fc1f632787941d53cf99e25685d10092
fc126ac0e0984a6d52d7cc99faed6bce
fc1ad12c7cb1a6b5cd3dc26d0233b1aa
fc19a0560474149c3d1269746462f19f
fc1471502d42d6f39887bdcb797cbb44
fc1c1f6ad7121286640a2145446cb39a
fc1c689a6a3326b8d4093a5f4cb25038
fc14ea756dc3c6e2c02dfd008c9a5b02
fc1850b30861f5046610a27d3b414d24
fc19ba79ae2287a30751f96a6ee6d36e
fc182a49c02992ad7e793e6f573af2ee
fc14991f669a56d25936f80da0bfd0b3
fc13bae9e171ad1f825c8b0b6b3323f6
fc15e94acb0021057834b4ad2b2a559e
fc15364703e8d2f08e5988c9b34f3342
fc1cd840bf98788f867651c5e22d5cb8
fc15a3fff5e40ca2d8c42885b2304d13
fc16915154ee19c7e58e495ce79808ca
fc1a73eff72566630b9961c3902365b1
fc1c2b838e75f408c42b6fc5fbc3a5c0
fc14cb5a827c987509d2791afe7471f4
fc19f3125444b2fe4def6b690cc3d197
fc16c050cb54eb889a4ffc3cdc6ef54c
fc1cdeda32740d2fcd5c5090e284a4f2
fc164f4574d8c939a3765952e668ec57
fc193862d87b301cec22507485d8c341
fc199de4de0ee83e50e70622794bd8ff
fc1f2a1dff5f6dbc011bfa50fd3c3436
fc17b208ba9ee8b711040ef85da40b86
fc18d6313316ce437a83b00b1224b367
fc1b96739a40032e4018592d884b2a68
fc113e20554f323fc3990ada572fe9e4
fc1f6f9ee50e91c6d722fd49ffb82690
fc1bf76478a4c8f49f19fc4c886750f7
fc1de6adb9159ac87e5fc8cf1a033ad9
fc1da8d44f40c759d817fd071eca10a1
fc16a907a5026809c6aa24560f989640
fc1e2164a7b41e043c3a7b1ab0bc7d5c
fc1627d6f9e0ebb20530d3616e06b942
fc16bda787b5f8f5327e3471b24512a9
fc137031ec8642f331f476ed318de24e
fc17790e760130df1ad2779759db3575
fc1d3af53eec3c0015b824ac68c22adc
fc14fa32fe1b85a060ddb919318b4a0a
fc1132e667f009caa337adbfb561d687
fc167be22302fca1a889e51c8cb5928d
fc15e385e9054a73de0e6c915c839585
fc1c670910c7a614ec5eb61bad1dade0
fc172fadc923b1d9221f9b872ff64a4a
fc1903549d9bf0f07645e58a86b6235c
fc153596de9f576b51e3523bb41260d8
fc11444db64adde5639a0988644e4864
fc19b264bef9f898107e16e2fdb9aec1
fc1ad4edb2879eca2c6695b23b500041
fc118b7d53a879b7acbb4d680a378847
fc172d23b7b1e493dbad83dd8b8f1388
fc191c3f7dda9a4f4c552a139ff9956c
fc18fbd2a6036f104195c6ee0ebd96a6
fc15afa9daed48071da2a87515c1912e
fc11cd69e3e798d8bb38ccc29ba4a5b6
fc1249fb2eb266b27663731b65523272
fc1de4504f96748014ca664caff15362
fc1c3aa725aa23941bb82fcf9d856f29
fc174845ff17f40dcbdbe94d1ab89883
fc1b6ae95042035f4e00a4500624aa49
fc1613437dcce2f5a579cd7c107a34b5
fc114a35d42617cd1eb1f18500698314
fc18b23db657fd0037cf392d66b4300f
fc1307df7458751649c38060bc5dfebc
fc10bc79412bab4d51f8e749600569de
fc189a4635e1eac4e9b83775e6c8ba0c
fc140d8f94b732de5c685bbfe53adb8b
fc1fcee2821ea5e8b7d0a353f7ba4331
fc10d1da444bb5cde469c7e23e44ac94
fc14b424afec5101a2487e0d064a3e5b
fc148d16a19b9445916178ac8593359a
fc14945aca3bd2727abc8c1a2e05ea9e
fc191b9837cac768471eba21714c20c3
fc1985ef8e53afad653690c6a76b2766
fc1f69638b35f1ec656e36f352fcd09e
fc11fa3c3dceb933fd6de488f0acab29
fc113eb466945c94af87a112b036d019
fc194a04cf1c090d5a6d674298744cda
fc1828be8734ac89abb11a5a685bbf3a
fc19dd7111798648c9303ca2b1f6d91e
fc195dc43a12d006c14c48642f58d0af
fc1a39d1a84c15c25e3278a123a18c99
fc10572c05ca17754b3183e2e097fec6
fc1cdd0a785ac26f55f72819f0848d69
fc13ebbbce7228656ac84f0d6d024e22
fc186cdffe7373b2299f92bf14578b58
fc11960ff943cc298b27748a1c274389
fc12c4d48bcf8a114cc11088579a17e0
fc1adb031b2c00217a1f4777f409da17
fc1720e25d1e7cba80b835c47a2faba6
fc15f227cd39ffdd7d4c8c9b57fa1308
fc12d71ed10a4812f5ca24fe89e230f0
fc1b7f27b5a12dab1327767ebbaa3319
fc138d19c7ee38006917c90284fb80ab
fc144b22de6f28ae437e7c201e877289
fc12ce79e4b419e0e2b0610f0fc9ad11
fc15403cad41ea72ad89f59190567aeb
fc1601a6c8404c22281c3afd8a945739
fc17901c4eff256eef02ce02ad060ae2
fc1337947058c2caa577c04a3e2606ea
fc1d0571d8f817822b090460be16ee88
fc14a681f332cfe14700638281d26252
fc1ca45ba6b626ff47b83f346ca93d06
fc1837d96a28d6b7b4b9f6af0fff5fde
fc11ce6766427d188555d2236a471be8
fc19b2f6d6411b57ed2ff17cc3ca0138
fc1857a3cafd7347703ee54b3e1aefd1
fc1e3879623a2cca5de53c7d5cfb9031
fc194b0b981e4f1d1d8fb04c6ebb710a
fc12b62e21c5941b19e5b0c456f3a57f
fc1275e5e603db09a5472da449b6b964
fc1fa324fb543699b9e8b47b69ec9c44
fc10c307a499954bcc9fb95a86a3307e
fc1e70095bbb5bf2ccee26f7ef198f0c
fc180e35936df96f809e0f1e24e669d5
fc173e6b36adf9af5d0a2d6085ba0956
fc1a41aa33119a3d3448160a54a59c8c
fc18e25f8bfbb5796bc6c231de375e62
fc184e7b6ab98c30534002c851c641bc
fc100a153dbbd2e7349710f2e96f90ec
fc1082b87d416505104ba5671a854078
fc1620fcdb1e2b4776e850fb52ff1f14
fc18cac8c655bfa51cdfae0cc2ef1daa
fc17fe28517cf120d99682bbecb0df08
fc1d246a302808620cf488ea6193bade
fc1548e8036aacd965aa3702ebfffb56
fc1a142b92ae36937dc4c0ab88c8ed6c
fc1d1ec1063a997235be7108044d69fc
fc1db8b3f293334ea3978ae558c5067e
fc1b6132398eca20b928276a4c76c43c
fc1a7b691bd51cf33996b98b501cf90a
fc1fc5ddc5edf24c3f95a6b1caf8947a
fc1902e06132cf9454dfcfde06179822
fc1f7ebaf857125b80bc4b34b3f2eec0
fc1cfc1761b3a0ac4be44c24422c02d7
fc17d3713fa9ba54ae2bccef25aa5bcf
fc1159b82f69417d0f6282fd0603524e
fc1d2dd376844b0b06542b3c94adea8a
fc1c4dd40fec9f248750cf8c7f2597c6
fc1b357e256fe5e61689a51acb842c38
fc121693a3236f6d126b98df99aec105
fc16e0388d2f8685f43786349fa0da2a
fc170017690859930058fb06b228532e
fc13c8dd45a4b65b2e88d896ef05047b
fc1b9db79b43747a56871dbe26e79a42
fc1415f6ab241e8d48944bff10319edd
fc168c5a75a62132e1378b0052fd814a
fc11230c5ad22e9e265bfdd68c578a93
fc1c6672df4365776de25e56da247655
fc1093f007d4cdd2e0e565c021168d48
fc129ccd7c082a3f6a9af84fba498847
fc1472696b6524f2700a763d897c9f85
fc19b7708005d157165ff4546570bc2b
fc1040ab7beabc5397962fda520adc67
fc17461664b5c10a19ed8a762ea24829
fc1345b1112529aed6e4dfccc3651388
fc1a5c2943896ed998fb11dd5992e7f1
fc1b37fcbc5a9a83f0007ab6292f6ee7
fc1c2455d927f6dd6897479ac2228696
fc1b9332a036207d416f388e621d5ff5
fc118fa819789346d47eafe3164ac215
fc129f8dd62cf2c43cf04b4cf20b3fc5
fc1591b4cac1b111cae1cfac90b12fb9
fc15a5c2d0abfe433b7fcf98992776a8
fc17623f08e6df7b0d17c73665989b51
fc13088db2abfc546246dd47b6208817
fc124796dde006935909daa9be365b37
fc10f68f6d5669ac50d6f1079050a5e3
fc17303f7ebeb70fa665adab05c3696f
fc1c0e716c56ebfb8f36f204696e9af0
fc1ecf7ad9c0095a520cb369dc7f656f
fc1b3f0172aa4b4f02493df7e2119d49
fc1877462083e4e48888fbade8684cfa
fc1c04184d807c35887630ff8b2f4d6b
fc1aa2e43d671ce78dc2d5bcbee5b174
fc1a8f6dfa6d9145f3cea1e13047bc9d
fc1444d4349705af1ec1566cc59e3be8
fc18e3a9d811d4a223e2e0e76b632b3e
fc14b3334c3d0ab0dfc847c9007f81bf
fc1ce91b9a6ecaeedb95a7cbfcd08936
fc1ffa9b673458d4ea763cfb36fcf124
fc13fd7bd387db57e25d52da01429bf2
fc15dc3c590c18c6addeb8090302a515
fc15562f05e928ae36481c830b150d32
fc1f8b6b47a3ecc0de01649ff0781c8e
fc1c747d0b5ee465c077176f896e8951
fc12e770a5b65e901bc0e7dc510ac1e7
fc15e853cec5f684a0b0aff737db91e9
fc171f60a9079f3e4c2a86ea53679956
fc19e78841cdb796437cf345ee37a6f4
fc1e87f248feecb62928962d3eb20bb9
fc1aff9e5997695f511cd3ab1e04f335
fc1baa1b12d18cbdf7a279ae29e99e19
fc15541ac72f3f6d3cef372fe86f928c
fc16de9dbe706ebe6aef7f62a328c2c8
fc1eaf8cc3289afb9e83a31bd58dbe39
fc10db52898dc8e0b1b88e9fc3b3aca3
fc17f935cfca416ea462b1cb8db78918
fc1a2ee4b9e159d4a75910c8c20f46f4
fc1bab7f3583bc303307d81e6dfa4c0a
fc17f96fd571e7afba125a80fbd59026
fc1f2b91d15a142af82bbf60d5f0392a
fc15cb62f22b8b2ff23b4e987b19d228
fc10d16404b362a9d5f6cd68858b746e
fc141941478d483e0fade4773c50aae4
fc17dea9d80b8cc06a39783ba7763832
fc1cee41efa0341098a5899aa43d686c
fc1ac30714f15a88a6c7962702eb398e
fc11b890fb8cf306a9b47b73d4fc39fd
fc1c0cb955a84b932566834145328c91
fc12452996be24598ba8c6675bc5326e
fc11cc32d98c6ba80d9ba5318ae33825
fc1ec926242f6677b47da419bfb02f8e
fc1966370e9dbcd9d86f18131dbfd559
fc18f45a870e0851bffce3397b7ed8c1
fc19c78e5b34307a0fb50da8bde37f15
fc112506a7724e0b6e2cfa03fdc356a5
fc12253442713bfdf96e138595b4bf00
fc1c33eec3832267ff59819b53f931bb
fc1ff53b22156b76367b0348000f554e
fc1d3948c687d8331410e503cb266376
fc192e2274c3a3270dc509b7293dfd2e
fc1dec15933d53e0f2534336b3693045
fc1f751107228901ce3f8082b4ef2265
fc1629c1057793f51287d7c43c7d9afe
fc17f9a5a86ac54460f491fa93637317
fc138b5b7ecdfa1d39ccb1e0a690fe9a
fc1ded8fccc773394eeda9b76b40e6f0
fc1c874065808f28a26acf29ff3372e5
fc187572cf77729dbd1bb18cc0e48f2c
fc10fcd2276a942269d3e6273e51a889
fc13120e16d30a848305c2403fc4e5fa
fc1f73079f56f9653bdfb022375402a3
fc1139f88e3dd9eed81a1fc2a61e54c2
fc1de2956e17f229d8e767bca5363000
fc1ee883071a646e81bfb9cd53f70633
fc1531deb8bb63b1225e0741a21ba6f7
fc1505ebade2819cee00227e6012fce4
fc1309d8d0b53f1e41ebc5aa3f3e91a7
fc1d21e82402bc64cbd3c89ad226b7fc
fc1848568a20ec77a93e79a578c16b7e
fc16038b0a4b89901adc0945d79c9cbd
