fc248ce12296bdfe6d64b7036f1e6259
fc2c06eb2647ae43cfe1c73f7e9dcd72
fc2ec90b08e8c251c567c461bf8b7fe8
fc26bee580f3fd4227822e838f20535f
fc2770dba41bc8adcf08fa7d0d72d7df
fc2b39a16dcbd8955b5fb506262c6555
fc2d0c8e3b21d763bca6d5d79d90ebb9
fc2e6ddff9874d43c10c847ecc7d0a1d
fc27c06471df10e03883d39b34c463c8
fc2e765f81e9e0737f965be2eb0bca82
fc24e5063e0dff1be695f8ea92a915ab
fc226ba8e76d16a97341f09675b2b19f
fc2553718cdab5bffcb4a6ba671caabf
fc263461b24dffd5d592c77956b84c5d
fc242f93cedb2171d4f9b7a0baa4c70b
fc2b9049b080cb01c44a033daadf0618
fc2647e7668aac9a42ef4b1aa77d960a
fc2b0b284471db90e7ad401c202e0d56
fc2c4d5477975c908cfd42519bf5ff29
fc2bdd5cc92feda914749ad7e47426ed
fc2635e61754103f6f118d52e6cc6274
fc2c5c9b835027de6f46f156752fe056
fc2ed4f0daf9875a9a56f79a52bca7de
fc2fca5be4ad5fcc3fab9b3a15f225dd
fc29879640e9d1f4fdfcd186b467abb7
fc279774ced9eed12953d949a4a4832c
fc2c1d18fcdeb3dc24be13011dd440ae
fc2f7deeb79c34528867def71eb8a5c6
fc258fd88933a87b1b761c0c8f0ab90c
fc2c310415e45075e2d0ebcb48ee3562
fc276667ee175df0f48d631c8da6f91a
fc28617f01be41578af3f123879b44d7
fc258756039eaad293b19f9b2c1ff585
fc2620c7c0e1eb9e9e242a7fe9a004e9
fc21710bd11990bd8e919051009d9729
fc2a44cd97a9325c5b14c8f4aac6a014
fc27944d6dbee350b3e9cd1a92c51ad1
fc26677be6da0f7f62f41c077284994d
fc2e64073479f4cc5a2329ee1541d3d8
fc253df24a16a9da761f0ef2f453de3b
fc22eea389fc9b011d34357804c05a17
fc2c82c932b25eeb604b909246a3b62b
fc203d50675eda23d16037cdef425a26
fc2e1735c9aa80171f31670fce7f2538
fc2a4aaaa9b503b7082e87f574eaef53
fc2cd79fe5e276de1a1401ced065fab1
fc2391c86fdc37beb185d98512a2b458
fc28dce2cf5536493a717b658ffba2bf
fc26aece1a4e6a5fc486e10e9172a2e8
fc2d0788fb41ee77f287297c1c2ea960
fc2d26f458b4aa68fd5df186fdf07188
fc2d3fe0cad8bb02c13a215e7d53ebad
fc2df0f1e9dea5b5eb26e4ca1cbe07d1
fc28283013fd283a4110ff5995416fbe
fc257daf2075a4a6b6ea5f936afc4668
fc2bff15ecc81530984d21c2555d2c27
fc210c3c02633aca2b80f2949c8f2b21
fc220a6943b4db8af7b1ab7cd6fdfffe
fc23d7b180c029db55e331610156081e
fc2db381b1837286f373cc2cc1e6c6c5
fc2d129b72757648080764c1145b5d46
fc27cd6d394792216424d1a46b284566
fc23ac8f26bb98010045e52e524db89a
fc2a4b167da63d5799a3efe0226b4661
fc2b986fee154712aa8e2b5c8d5dad8e
fc2530cf23a8078bb9be44942ff21576
fc280c2b299f53ee53ad20e6952b9d8b
fc26c3d0e20ef2ace2a52a0e3f5b3ac6
fc2351c5cdd03d2942028464e52fe11c
fc274ce3731c3478dfac4685a8352d00
fc28bd45f9e0152fa1b6614e0f7e7c64
fc21df327fb883458116b277ac6b5542
fc21805063835726e5b1cbda0b504a49
fc21deb45d8a87da75c22bff48f541b3
fc215972642f9f82b3a29569443fdbfd
fc2cd32f567c7ea4d79ba3fd63e7aab8
fc22e64c2403ca961d9f529326969b78
fc2a936ece90625ce236f7e1967f3214
fc21fd5e562dc4a0b264a9be86439920
fc2d32c4b6343ca5acbaa17e02aae3ac
fc233791f9cf9adb3e414ebf39765375
fc247e64cff946fa109d565562c0dbb8
fc23e6a914e0c21fd363e14b526d6a35
fc2d46c1f1a625d9ecb458a2f687be2e
fc2ae7fa33902e942f5be9880c770d4b
fc2f996ea76bd5587bb5e76750872134
fc286dec04d723a731b5e9c55748bc45
fc2d23861dea3c447adb757252ec1fef
fc22794a0d55d4cea0690be73de3c3d0
fc2d2d1df56a5e339e6be98a3014c61f
fc20566d9988472881cc950a05d34d35
fc2aa3bd9060b75aa2d57e45919cc8c3
fc27b2c61cab4e091c34fca092fc6dad
fc2b015fa066671aed46a426b50b2c42
fc24f7618334a451fa447f95ee1b7a38
fc289e9a6866ad34160fec66e479615b
fc20247e460809f9c2d09e6e26c8b705
fc2704532e606233a6b197f18abdd9d0
fc29ff9addb687721a12c2aea7a4df6d
fc217006649ad3c5d2718bd43d1fcc27
fc2e7707cc792bdd3abf899e801d77d6
fc2e75bd6d561cdfd3f656db41ef7b28
fc2d8cc11b08abbba37676101044dd24
fc2c7b3c154b74ed0fd0f999145a9cc2
fc29e239cd87533b14af94ff1a5d895d
fc2d6c3694dbe59c3f3ddeffa24aa401
fc2705e9405b093fc04105b2966b257f
fc25c7a462b850be6114d3ea35cd0b5d
fc2b8901030e5efc95a3d39b907f2073
fc239299ad7e058b8a653578538a7ea5
fc23755ffc9e7e255214a74c8b00ca63
fc27e4265d4da3bb79208cadbb1a41da
fc20d7d8cd7327b0ea66d86215eabfeb
fc250715835069da25ce991d5515ae7b
fc2de948850e411517b14166cf1f374b
fc2a1481eb893f08b9933d7c29760bd9
fc226a7bc55268f0ab331d13b8ca29e9
fc2fe98ae90453f6a493db662c59e418
fc24818bf97e156217dfd501b0038d3a
fc2da80b6d8bfcd20864bb2fa4c0ec80
fc230a821590dcd13191e0db9ae0e2ed
fc2e54272a6c416bcad3d0b1dfb70bba
fc2edcca983df81f81c83498bb2bed46
fc2b0417d27f865427eceace2121c5d2
fc2ce73583ec46508141cc424824cebf
fc23b2817dba58a3e6f0da6b011639de
fc24c6e39782593ac8fe663d2b393bcb
fc22835183c0d7c48ccfdca026c722af
fc23059766ae2c55cc416e503aec902b
fc2ecb44d80c255f0189e8a5f30a96fc
fc220ca9fce5b9ba484a2b436a7c0202
fc29cd762d51e186e0edfbd13e30d01f
fc2761034a17272ea1e4b9775ce70f0c
fc2b760e1aaab2fa1a76e18aa4f64ac7
fc265eb3e08858fa9e1808f0b5e9c4cf
fc2076b9f97b7bba585fa2692a3bae65
fc2e047b878bc358907ee87687529b20
fc2ae4065a025b457cbf51d868b201ab
fc29db67d9d1d1e0aa4144116da31ce0
fc2b6a2b5015ded57acecb621c51e42c
fc291ae9dd8d69d7dd9ac9e1cc51da93
fc2a1c70135212f0b455d73cbe66bf2e
fc2b32d69e520f22605286d70e947193
fc2dad4c97058087b1563abce9e67978
fc27c85a0bfe5bf58cdd72eff80d830f
fc280fc90d344539e7e08aa18fa3d9a1
fc2b10acd0a41871a3b558aaab1c470c
fc2e7f558516375136a7ac3a62b785d4
fc248575e38365d3d3bc7517966bc5b5
fc2cb695ce85c7f78211e03db948111f
fc2dfdac0daf22b9be0621170b36b254
fc2aa3797d22a66c0d8dd26fe5f760bb
fc270e1aab2ab80c7790c1264e512acd
fc24ae8f9187059917ab2aba2b926c22
fc29311e7ad3f57ddd6b49d25bccaf57
fc250bdc985d3dfa73e2215483702ab4
fc2b088dcef7bc90e7542c2b52da66be
fc2a7272cb86f5cf060e86a3b6104d07
fc27c6dd33e1cae4bb8d2df3d48bc708
fc27506019c6879fd3424df8c53df952
fc2cc24c3267bc61fb0879d651ef6390
fc286ba8c62da6b6aeffac706bc2533a
fc236cc87040b66a49d71e4fbb0de006
fc214478819afaf416b55a945d716356
fc2f16b3cd59a2dd94e3a43ba8ad3a87
fc2583fe11fa0a7f7d16f5f07fdba272
fc2969f39ae3b02f24b077c836c1a9b2
fc28b757af2647348d5cd86afa4c033b
fc2c102751ecbc4dc95654b970ac3247
fc2b2b53d28812d10ea88df5ded3db69
fc2df22a2f812bad94428b4becdc65da
fc248eb0bf87e2a91feadf40ff4379ce
fc2da574005b80ff271f078c63f24667
fc2bab9baa13490e80cc519c1b4fcdab
fc2da2a9ff339f09cda4d2c86804d69c
fc21949d0268c968952be01485b4cba6
fc2b9821ab73998ce43addc516204d0b
fc25a8aafcfca505680dd747ac8fab52
fc24da53b30fb022df08b8bfb105edce
fc28e47b96c0db0b7b66272dc0b0ec3e
fc287f7d41a7895d92e9031e2e6e5b27
fc257e27c083dfd5652ac581bfd788dc
fc24975279e85efd1744c40c140ffc4a
fc21f42b3398aa5acaf4b6312817a421
fc2b1a9b7d8f7a777530d0e780dfcbe0
fc299a9c6d09597a7e5c803563969481
fc2460d23306c9ebcba20487f78441a8
fc25b3d6fb8e1352cd0a23567e1aed2f
fc2c9328e2aeaeae4a408ba0df6baa7d
fc28a050c2525436eb2ceff4e6d8d0e9
fc2d411f40d9a2810ebfd1f82df7b149
fc27818a36e03d721395c8da89e0e537
fc2728a48001f6b2e565a35025d964ea
fc2af006db56c08e7d434264c6087f9a
fc2b58916d79a3d89046389ad50735d2
fc2382094668b9106549c92f2bcdfb5c
fc26e2532e7b2edd2b16fc9d5256513b
fc2be4e2a575e539cfde331555b869e8
fc28b41273ccd85c673d00f9237b5101
fc2c4ed1558f3398096b2b7ff9d73f22
fc2231b54c56d8d7559f4d11bb2b79ae
fc269df5d6f6331bd65a62a321ed5bbe
fc2da62bb9cf8d3d77875c50ac835192
fc27de7af167c8b726b6c74ae5e4d8ec
fc225baa569885b9020625233582af9d
fc29f5af9ed3e2ffb9da448e57f860d2
fc2d635bb0e3d4510c3f8ff3a300b976
fc2438ef627752dfd7fdab5d66d0dd29
fc292a551044ebca9318b6ea644ff4e1
fc20dfe916ef91b89da8312c888023e6
fc23c3b6cf170a8647ed14686d46d60d
fc2ceba5c49777e7b9ff1508f7d2afc7
fc20c54ad024ac4c85ff6e5e16671608
fc2220bf38944c4924e38d002dbade78
fc2a7aafaaf9508151ef53b7aac6465a
fc2cd38d1b8e7e432b98e54fe0b4787d
fc2c2999acfec43eb3be4f68fc2389db
fc2e57f0677b4df294d36d06cb3e95d5
fc2b26042ff93aa1b584387641ee21fc
fc25feb700473a5a4e1a911769ee6456
fc21d364aa5ccddc00ce8b5b11587ff8
fc2ab6b996200f0e1d23ef5664d2e8f8
fc27d0b2aa38600137bca7f93631d776
fc255dd4ba9d5fa5fbc0d4069b153832
fc2768aa0da84bafec430e5501ff1ebf
fc247491d6535c2297225a0c4253f587
fc28b8001c4bc81311695b6f60e3f4a7
fc268763811636f027efec90d259af5b
fc2730dfe73d6ca3477a4511e0a9466e
fc2168cf9c6af1c3a7b26203f8e16864
fc24c17821cb9b48e8a476226984fd24
fc2b54e2190b850e855662d4f3ab6543
fc25dc3c53546c59eb96dd7c2ac2715b
fc28ac6d70aece336bcf1f3018028d61
fc2f62370eb2cfc11131d31a3fcc4f5f
fc2bc69bae1e612a33193f6e6989f85d
fc2918ab686cd2f8d2d6ab5715d1d0f2
fc2c8fd4c54feefca64dafb15e1eb64d
fc27dbc9de6b03a43ddf996053af9f18
fc26d7f4241cf74df312ff646d836edd
fc29a13fff748fb8c7da0e4800d7677e
fc26d0fe8b50bc88f5c9af1ab4831e23
fc2404d1607deed05e5c9c8ada6d5346
fc233eb844ae1629933074ebbb1f81ec
fc253841cd134851db722c8a257eff35
fc2f399359bc1219b395d764151e5aa2
fc265bd69e26bfaa319a4494312b0dae
fc227fcba678357d420d923fabd489f7
fc2fd32e871c180f9886242263a1583f
fc27c2ec42524b835ca8c349d4f2ae5e
fc28da7a58829a535a80082bd829898d
fc272246b3c8a1b0bf0c31f7573a0558
fc2fabfafd261d515132c9076676a4db
fc2a0b48b9566440362d4e0d84097fac
fc22e559f64dfe9833e102ff93d21fec
fc221ecdae3dd328b13356689ad52333
fc2b2d78311a6f05bd538ed71663f839
fc2bbfe65946bef9a94fbd65ff1348cb
fc24571b347bd671078fc12c02a29cdc
fc2cc38cfaae2e4101fdd9a98f29bf01
fc22e90fb5d81469323fad605efb791b
fc2040d86d760a4fc60e92fc5f0c93d2
fc2508a3108e866b6d50e7282ea9ac2a
fc26102253c75a7d2f9101c12156066c
fc23105aead61b2a354068d90547fca4
fc29b9c9b5661b0d1bd26e45a79c92db
fc21f6323ba55865e78d0f0b7c3b555a
fc2de0b62e792facb28016e06b7e7292
fc278901d9461f31ae36e954dd2494d6
fc298aaead25c4bf3ee51092936103eb
fc2289a6b2bc8f628302c11b2842d1b6
fc2a8daae42bb3e8a7d335f41ad9837a
fc2fe7a9475ef8274026aac908874c8e
fc25812e0e03b0212a35c7fa15d76948
fc250000b4bd61e23ebc7dcc6ae57194
fc214f861b4d066ab814be7f0e9983d7
fc2f87d5cf7bd092675f34508a11d97f
fc2637fdc541a8d49bdc49b091d3820a
fc20f2bd798b48a626037df1572ba73c
fc2701b5345de10f31c2f962af944162
fc2c60e598889228169843358bc382ff
fc25a7ddd4903e06cf68a72a6f803a28
fc264ff4cc9d457fb1e3ce72421cb9ab
fc2829f490467aa7f63b0d5990a83634
fc2aaeff18f057ccc2235f985bdb707d
fc2a3a6d11121f481f93bd28d5202c9e
fc2a5dab205cef879dc125a6c0679e57
fc26c9e80ebe7540a61d06a3dde80a8b
fc2292bc8611b4584a362239ff115097
fc218e6ef7e8478ea495bff85ff58d03
fc23f80e8c40baad26ba54737e06d27a
fc21122c7fc384ede84664fb9e98ec7d
fc24dbcc8d02d1577e3c5805cdc79864
fc2114a29858797a3480063dbcbbba36
fc24f0ecccb1f54e1873099998e448f3
fc26eea7a4533238248533975398d4b5
fc2b4cecd925f698028aa3c8d0d1ae7d
fc2df803f287371d53d67634e1ee0e0b
fc25a1b7d0f9b1f9ddd27649e81f6912
fc2fb5ba06fb4e785a1cc13ccd810f14
fc2c19189a99f6348bb8d97eacf15ae0
fc243b77c448b84188a941641837217c
fc2d0fa1fc4996d79f0bab7c85462605
fc284da11969e2fc045796cde87232ff
fc267a8568661372f9ff2ee7981532ee
fc2c9c2367f98705e36bbf312c37f400
fc2c5a943c6d9ad07b5fdfb45978231f
fc2ba8adbb5cf2e1e664f4a5527a2ee7
fc2bfd366751d7872c147d99d85360cd
fc2e5140974356e31692b978ad6970ab
fc2ede1a3a1eb9a45dcb0f3057bb68cb
fc2df43955b5c354309db9b91d9320a8
fc298c9a0e3f65d6ea0b1d136d253e5b
fc2daf9aec289845f3f8fbfa6c3f7df7
fc2e4a900974063c3fe674d575e947af
fc21a2676d3424de979b3aef3c653639
fc2ede0356b51a0001d9ff7b92271390
fc2920d00e9bd62b6b4e83df29a1589f
fc21dea1f69d9e127e90298a5d53fddf
fc2dc323f77150ed8d6ca941f4974e0e
fc29b40d45252dd2f015e6d3e9584f84
fc2375550494a3598f6c54a24a8663af
fc24b38b488ae7d06d75d93ac97e8b37
fc2a1ca53c252e5b1f14d1b93e3ca293
fc2665f601ff74e8ae61232944881b80
fc27aaaffd9ddeca993b77cf3e31202b
fc291c205a1fe0f90b7404d3c0ff48e4
fc28eec20f882c83a6aedcc52e22dda8
fc277a3a47afc458cec619451cc2e6de
fc226ab787178394aa1c989ee554f827
fc216f28058b9ead06f6dd0f9f1e7db9
fc28020c4a9be1ec97a4740729644279
fc29a7e1e2cd6b8029bd2adeaf0e7e16
fc2d26ccb20ba590b55b88cabf76fb73
fc2c8663ad13615d54a8533e8000e336
fc2b65dbb3a970af5a644149c8173234
fc24697f56dc143b8f13d24970de62b6
fc228911d7eb1bc73a438d23a6ef26df
fc2f35a5904c1d58162c9dc4332efd70
fc2b3674141909a7b6afb2b974eb8770
fc20b20636c5f1888f243cd9d0ae870c
fc2b2cc7c46b24f1efc2fd823f6e91a2
fc2cb24e869f9f43b5c78e3ac954232b
fc2a9694b9ecac166b368aa99e3dd268
fc2d216ff03b9f4fd3cc2cb48ea3df6c
fc2277469f0dc47c9a152858d9ccc49e
fc201c27e40fb2ab83b460f8e21c0f3b
fc28803b90ebfd67fcca835a6c27fe4d
fc2d803c97a300a3aff14427d768875e
fc29025e0174584ade5cefdc86737b81
fc2a569aa24952e022b7a919020aee8a
fc28f1743659afb7509587914f32e89f
fc2b5d08a22db6a7933658c1fad66a9c
fc28643bdca145f5fa98ae15d70c6d3c
fc223bd5d3ed7414267e2ff7ab7a1a69
fc2dddfc3188b5ccbb89d4b530b0ead3
fc2af3d80d374a7ac753baa0f560902b
fc2397f57d0730a85155b2a6c838546e
fc2eb9077c236bf70634aebd510ad83a
fc2499aec2097875061a8ac6abab1d3c
fc24e5fcc3eb85f6cdeebf738879562d
fc2d18afc3004496c4defa7ce3d22ff5
fc246d7eb7731ce2952b2d3fc5e4d128
fc24a09bda51a4f52b11c1307d69ac49
fc219c7295b265a9ed76ce8c661e617c
fc2d4b7ad3ad1f663c5cc01ae8f9f626
fc219112b41e39c5ef8e0803653b5f8a
fc29d770de76d1e4626a264231542dc2
fc2b5fe49aa9e1efa9345b3d9ac826a9
fc2c83ee80133ced4bf4319e5ce98619
fc2d8da532cd99c7a36546884d0e4080
fc28842ded00f9d36073ede6875d4989
fc21e89c0b7ecd69be3890340d5cad3e
fc29f7e287d4927d4eb5aeaac14c3844
fc20786ab717a82899f05aaa4280362d
fc2d7264d90107cb38c37e744f4bdc6c
fc290e2309163d5c26201ccc70ee1cce
fc26bef530de6d3a88bb231176bcee3d
fc214a7dfa40c9b4ec2a33cb79c9f9cf
fc2c557fab128a97930567a2607d8cdb
fc227914e6e978710d56acab04c711ba
fc2377d2593dddca40fd1534ece1df80
fc21e06b2d6d2a8c2f30cbbe27404761
fc24afff89ea2028306198318cf0fce5
fc26d6210354ee010935b20a207562aa
fc2d9651aa42bd8037283cd4d7a7f81d
fc272d84b1c3e63df35557910913fc41
fc2f07ed6eb8fb558d17716f3e1d6ec4
fc23138847e7a9311d8128d027f3aba0
fc2b1c3a494f9b656fe8410cee7fa008
fc217b010c0fceff3ca18b91b2c82604
fc2e7e93960529496b4dbb8d25d913d4
fc2c0c0534d5ee2c0978e5d5bd3dfd99
fc24b518ec6d2de7c4fe6a899fb0edde
fc2a6ceb39e531cc8915f89580c3c001
fc2432c80c911d3059e78b63b1d9c17f
fc2fff66f1714dac907ff9071390b5b1
fc2a7adb1b3b04210700eee929764ccc
fc2239e6765255fbfed5a4af6017399e
fc216c7c7bf0dedda165ebcf651d86aa
fc20ba9b17429edacb7c06af03ebf9e8
fc2cc374f6e6885c89e778491e88cb96
fc224ace009ba7a7f932227a658da4d5
fc2f6e8c326a33ecaea58b36871a02aa
fc2b84e7bd85e16f256c9ceb1d7560d9
fc2545b3f147f729d96af2d1af4860b5
fc230ed3b95344ca4e94b58bb813023b
fc2cd92216de5734c7520b0c9ae39da0
fc23a8510955e05042809a419dff1ebb
fc263e86a868dcd2eb14c5af9509f2dc
fc2c1b96a7f18723a78e9a5ee8d5c763
fc203c20cd022a6787f6290e6729012f
fc2e992e5220de4725ba3110d926be02
fc2ede5f005454d2add966822de8f4e2
fc2416b0022e3d8b2e1d0497d0e03212
fc2d827939d9e614ccb23d693a45fb88
fc2b394b84222a110aa3f26871f386b1
fc2c36ec2084e39a26f5490af3952567
fc26a1b9ff65efe0cca812a0ec115da5
fc28d3fd4f81199240582303239faf74
fc2b00945035491ecb1ffc22af0fc454
fc2dcc49ae5cb6c69540880a41799d0a
fc21c879c909f8a24a9e631e25b7272d
fc262f668d081bdfd4e489c6ff1e3ac0
fc257967e7e38270575f6ad6d7ec3fcf
fc2d193439f3816c44c15335963a7fbb
fc2b1297574d418f3fbdb66e5312d035
fc2abbd0cc071e04725edbc9418c9bc9
fc2d579af53cd42b043df69754f47cc3
fc2c5df9cbbc428d2a1ba791de960349
fc2229854c7b52b0f8d2cba5c5711162
fc293b0e73b00347fd1ea07981989b9a
fc2f7c48d4ada594147b7d24ea0753c1
fc2fdfdb964cd408232464f23fe8cdbd
fc2d2a0288bc63e10fb7716d817c7922
fc28f05f3a21df57bb581aa58225331b
fc2abe7d1fe9c2433f71851712fe6aa1
fc236bc4f9f4b74762d8682fdc6d960d
fc2ae68285c7391af222603fae19ec14
fc2716d5385ac99cd005120437229625
fc2bfbeba6fc5d19bd54f2c3b85e7cfe
fc2ecee267900a2adb4605c17af58c0c
fc26eb6afde5cac7fe41a6d10efedf54
fc2f8a1e64cae0d5a663b8ac795fbc21
fc221a143f1aaf1e2642ae818f4954d5
fc2cea8edd7abbdbb75672e18e89db96
fc24050b1b1ff732d0cf3d4315cfcf5e
fc21d43c022b7afb5abf6142203147a7
fc27005af227a389ecce9f8c23746318
fc2ec04bd35e1bf65bc1b42052baaed5
fc273ca5d1f688c8c9c690741bda6afe
fc2d7455fba15e689f44e17e9c50076e
fc22300b223a43fd8d9021c1c2d728d6
fc2da283680d7ddd337ecf9d51c7a752
fc27b9bfd5014615deff6dfd9f934daf
fc20f6668091967687da2e02b4fdc6fa
fc2a48db05f3f61eb56e8a9da05900a4
fc241f83972a12c1ee18b19542d3c40b
fc2ab0d69604799fd6f5707d91c7a5ee
fc2f19f4ab0ba371d09d8efa068c076a
fc20336d79554ea795c7401a3ba65f5f
fc2a1f85f84f1ef0954cce5b0598378e
fc2d0936b5d93d4de220255fa154a228
fc24058e3ee1afc673ded77045325fce
fc2180efe96ea42a7fd5d1fff3caedd8
fc2bfd66692d286f08c62d21af34d16f
fc25b188bbe908f41d00d54499c418a7
fc22af62114900874779891195693106
fc26c4060f20714917c932abb7db4e9a
fc218770444bf9f052512ecc7e000a5d
fc2cf4f614dc7307fcbcafa72e646b63
fc2873964b6e3e001f05a0e861b66801
fc264f19368567453393825c23bfa1ee
fc2f9d1b056851cbbb97a900c170fa97
fc264355d9773904046092e1dc9ecbfa
fc2bb3d558828700e1b679854c5c1ea6
fc28bef034679fb58e28b8b1734e99f6
fc22bfc51bf5bef927f3f9d8157d10c3
fc20b2f4931212d72052d699056bc7f0
fc260aaa596ae807a90f7a19ff26265f
fc27f60577a0b4423e189a699e96492f
fc2d6c6691eb8ca838dd49d41459951a
fc2978c366672d19e4d5267ca90a1338
fc2ce321cdf6e2d34a2be17fe8f88ea3
fc233d51a92127d4d51e0ea74785127f
fc224bb911df6df946a6754c0386f1a1
fc27a7de43c8a6bbcfe9a57df690f875
fc2cacf5bd767fc1390ffceac81fc803
fc292d2a309b74a1aef4b97b240b83f2
fc26ec3699653d93c7ca6b0bb4c3b854
fc21d909ed6e7781b429c916a349a469
fc29503cc38dde61e9d2d74e11f4d521
fc290aa586f1e444a81280257f22d45f
fc2887e0dac596cd7f23fb0fcc999afd
fc2b8789d6cceab86a168506862fd942
fc2f533bbf839ab6e74ba359e6bca66e
fc2bcfcad7375c0cdec2ff22db1e80c5
fc2be7ee00cf5bb36560e9614dd6bfa1
fc26aa423cbcb79857024f5680c40870
fc2a18b8a4c66a10ee4b614f10cee35c
fc262dadecffe1ef57a110ad3b82c9d5
fc202ab9685dfb4c135d4b823e26ccc1
fc29ec3268ed1b1969d762df977ae4a5
fc2719d70eebe104209f817a6ea41d84
fc213c217c822b965825aaa8a588efc3
fc201c4953f8302a15bd72928338799f
fc24c48737a3f3a8cc6098fde69a8f59
fc266bc8af8a7b0cfac6e33ebbc3554a
fc2720559ba036bc7e651107db102e82
fc288157b7bcd3f1de37ebfb0b4335e7
fc24ea9c59c6403c64be7c12d45f3480
fc2117dbefcc87ba9cfa92d1c3652f87
fc2820b0fed70a309f2410f6eafc41c6
fc2e546401799d19b3754bbb7dfff49a
fc275127ea7898bc7f96e1a6eb0ff03f
fc242e60c5c84c49e26d47457f61a50e
fc2c41a867247b76f0404a02bd40543a
fc21ae9db4afb1dc9f7a8d1e61453496
fc2ca7834b79df69dcd4e483eb5c69dc
fc257e7ffba1d4b6fbfb9ae598fbb28c
fc29d8673c1f695231095ce08d7c97a7
fc22783f61b4d261b46e9c14d8adcec6
fc21fa89d2189ae5723c8d163bd376c4
fc2abe5c8a024ca910e819703b860cdd
fc2067729b45e8b975e1ec891973ecbd
fc272692f1ea251b949057efc11060f3
fc2ef33f646003c662b919b15747d77d
fc29cd7d94f1b397ac58ffde90342305
fc2f198722ad09817ca13845544c73d5
fc24f145dc70ed92fe31c76be97f1436
fc264a04387063f98c3742e02b9e4259
fc262533dafd0d38c389d637cf3e2f05
fc207186140135485890f4a03bc7e98f
fc24804edf8534285f003d1d109bb0ab
fc2a6d9efef131e9df621578cb4f89e1
fc20e0f0ce4e512395f6dddcc800f7d4
fc25a676fc93733212f06129a5ac7b51
fc2cbb955ec02448e20407e2e139397f
fc200701aceb1e90df29e1236b25b32a
fc25916bd824fa2829a6322465285c0d
fc2a26d491bf4070f25f7c6ff0b290db
fc2611f9e5f6c2bfcc3e50915f10c643
fc2d15280dfd154d6fc1c97969560c36
fc261981f7d4016099f47c3d4d0dc18d
fc275fba3a8863a3c7d0e92050b52088
fc2a5d4003b4a7f503e09ff3c6fbca32
fc2d0da665371952f369036bbc99e30f
fc29850231d1fb17b72c0e73394a5989
fc20c32ff9d09adbbd113556e46c188d
fc28c41569d370530b9be6a664f6e4e6
fc2293ebe443b019d867ec8cb9210e5f
fc25184a51891613c4728773ffa5aa42
fc264b0af9d1d7c09ae7f010556c30cf
fc2e03011a08707fe0f4214531e15d15
fc24d9ff1d0562b7ab6b7272fb36b547
fc2c8a0f1924e283d60bdcda7e3a8aea
fc207d1c9402db8c51ede6aab97bb136
fc238269fb81d3409ef157a336ac79fa
fc2a852b444c833b0cb5589479d9b2f3
fc29c20b1f45b753a402e256ca57eb21
fc2656df4767ad5dbc28d242f7f7c1f3
fc201c65a89ea1c248185a8ff5397d0b
fc257bb86ea90e770aecaf24786c21cf
fc2ac805b489c935b06ac94517048a5c
fc242eda968d7e9152b606ab48baa3ff
fc26a5a189c7027ea2ea329dadb31683
fc2a3524356573d6d88d81bfe37cb30f
fc2b8b6f7d4f0da47a14debe46bde8a3
fc2c960e22c1d04957a359db4786f38d
fc2e6552abc7ed97e940e61b6cadc578
fc2345b3afc63bda4bc64045dc8ef0b6
fc2a03c2ef453fd10b60e168a71b2a7d
fc2604a0cabe2a647fee0d99fb064e45
fc2a7c05cf907c5c3028efad96513f13
fc2611daa699e712c2e4730d1c33c893
fc2afe277af90f037e40f5056dc42c8a
fc28132c6929c9e8b5f6745b29c3bef8
fc2bdb9297dba3a1394aacc71250852e
fc2b8361db49bc4c9fce309ad1908ed2
fc27e7410247bd6e1c6a1df6264e2531
fc206d841431962bae1f74a7b5223e12
fc2206f4145ee00b9f335f8dccb2be3d
fc23f55f4a2ad40924884cb14bcb7b1f
fc2353a990d86cd95e509e6226d41f76
fc24005d486449b711de6a2232468193
fc20dd01ec9e1538f803fee10c138107
fc225592a9798f4a07c19f1302d3c6e4
fc20a7a3ab02eb086bfdb7036356ff90
fc2188538bdeab773e6263256df18f0d
fc2f835fd2b1cdc8a27004a1736be0bd
fc2128b772faa51bad270d962b3d4fd3
fc251c52382c0f29a2c79c9f66e903aa
fc212259522b7bcaa09e5423ff2e42a9
fc24e87a2fd06f8452a5b43738a640d4
fc23a48286194c7606f6cabcb22075dd
fc2b6a1bc04552fef35f2d41169b1fdd
fc2e86df5e77005507ee3ffd19b178c1
fc2691d24ab3bb42cc93631c5a62211f
fc283e2159eb0ac2b8ff5b9ab835e8b5
fc2fa589e79de784fc2b7d58a3bed795
fc2bd3f03567855bd61499c2b706b8ea
fc2be7b1986747f04cf8cc7ba118a8ed
fc2491deb4a12085bfdcd7cfb995c789
fc26a0ae57831eff84ee53e2170cfbf9
fc21645fb738284ec7dd19670cc3930a
fc2aa0a45f697c3b4e7803dd822e1089
fc29951c38c074136798928b5fdbafa7
fc20c2db8d81a85adf8201150c766a4d
fc21e7630810c055e78bf69311ba523a
fc254520110bbbb9c5ba11f55c680906
fc2d1f50701d573a72963309d21e3cdc
fc27db20b148bbca972e09a3bd58eec6
fc2f2786ae0f3185b98450aeee245a0a
fc22ce908e43184aaedc7b08445731a1
fc2f279bbae27f8f416c67a6b4fd142a
fc2b74ff8b592abf9a102df73d30c247
fc2306771cb72c2d4c1e0f1084a71014
fc2c4800c09bf882d8e3841d43e94e04
fc253121d8111aaddc3fdeb8192f0e50
fc223b1e026d23b9f5487856ea131244
fc2ce021cab56b6f92acd08ab29b0171
fc21d284eb1f29712369a1860b2f413d
fc2a46717bc9e5dcfcde06853b5cf9e8
fc24e39dee4061d9f92cbabaa918a605
fc2523a7dfeb6dc4e17775c3d653ef18
fc2acb544070a9cd3d19bf67d8923bf5
fc214898367eb30201c01643b18b42df
fc223a9fe15c176aae0d4d63c224fd67
fc23767bdcf7f3ca86ffca1040232e06
fc20626097867444d941e65fcd39146c
fc2482dc62c44d772296412b01a6a683
fc29a27e0f66676666d7e21f390ffaad
fc23ffda3b061c5e15d413b9dab3f020
fc21f31766873c12421a189d11a460f5
fc2c989fe88f3a67bee7c73e48db0c72
fc27530eb5a87555c526c2c0e547560f
fc26d8427d8e5c79e3728900f6196d60
fc2f5cc8f32dd0455b9a216888658a56
fc28deac0f7ce864aa9997207378b016
fc28ae74f19b4d3a7d18d68d9445499b
fc23fa0d1f4273303cfcf1e3acf7875f
fc2205c9409119fabd32466225e14b58
fc284063fac7a9ecc729efbe360abee3
fc2f540274ed312496e3d2f50f5b66d9
fc26f8546727b9f7d901bcc16603c180
fc20906a87631f6274ffc01550933765
fc2bff42c493c45457236870330bf2d3
fc2a5371ffcf1cfd11198a95afb7177d
fc20edc1817783322612e647cee8b996
fc27b5f8d18efc705c5428ab30223480
fc2fe259d6ba7970b39281a205105b67
fc268518ebd2640e60703209b29bf628
fc2490a28254ec2d641481a47ea7a971
fc2a6dcd4d3155b837461c3a2652e962
fc2c586f36e9b75fe98c7147918acc20
fc2b79751234694e8da8eaad35df6464
fc2c5f7b58cbb7f77e435b6d83335891
fc21aa499e10e8f9600b698f6e48e137
fc2f713ac991fa908d340c7ebfe5731f
fc2ed88d6cc1dc2c398c7f6e83a878bb
fc21d678fc31463e2b98e6c1a3961ace
fc2327574e0ea224caccf4065682c79a
fc295dcb435d83ec4b6974a7e27c4257
fc266c5270b14fad241fff9ce2653ea3
fc242fedb6e258ad06563b64ddce668c
fc26890e2f0bb9a77de68ddf738c36ba
fc2308d2131928bc4ccf0628163f9d5a
fc215dbe4541f5967a899c8bb16bcc84
fc25b3834640e5497ad4b5dbd12871be
fc29cdce69b2c72164ca34090c12a364
fc23c1bf17d62a9df1a100c2a70a2d96
fc2e591a2db1012df060169381ad8a47
fc24760b481c24978c79af9d7dd20964
fc2ee7200d7df203cabb048d6092c19d
fc26db412290d9b4a9b000a5e4d33b40
fc290b0ddd8d2ad5fb96c1f0dea4e1ba
fc20f186e5d8f684a2cb1b5e3d4e9a61
fc2708b792e53c8c931e71e1a7c9180c
fc2f446c3760eb87069f0339b3ab46eb
fc2398ea10db67fd2f1ea25e2cd72ee8
fc2d03d7d7291f689c407ebad180392a
fc2221691302a4f3564f6860cc6d69b5
fc2d01a7901b3f5916d6ab10bd6458db
fc2114ee54ec9d58c5a7b7de33fb339e
fc21c02ce9cc779f88152c3ba76148ae
fc212e9a2cc12cccb329d5de54ce9d77
fc25738567b2a9e7d62c666af228e566
fc26a3953e1a871ee8aee7c0a81db74b
fc289a6edeb15eb7a0ed03d3942c9b91
fc219eb3b8d67859f4f96701f320219f
fc2881a035b653e684946e4b2688b9a8
fc26c6100890dc2c7879c1b46b6fbdb4
fc20da1a0736c39b12900a33a8a41379
fc286205a57980e93e03cc71acf4781c
fc28858bc4e3198854a40eb3eb14d973
fc2aa2f050e536eecef77b33020f8252
fc2bf18924923e8bc5942d15c7eb64d0
fc2de782c3fb2dfe41bf41e78e333c7a
fc219c21c74b0e045536a345e6bbbc8d
fc281a71d7a34095f1f1499032c866b9
fc253711a760735c4f72f97ecebf9d64
fc20b7385022fc3f353e5732e3fddf3b
fc2d3239307d74cb1c4737cd3d12bcbe
fc2bfb01df43151ca956d44bf8fc81ca
fc243be696d4484cef95ede02eace248
fc29bee765e4e25b04eaf92535bf9bd0
fc24462644fd03e0fdbb70b9006dcfd5
fc22373a643ac686b2f27281a74a3b49
fc2cab717e9cf57dbe6ac57930f58b68
fc27fc72fb52cea3d11559b1a26176d0
fc23255678c638ea37d1a0242b1b522f
fc24c36088796d16bc9b9a4e5aa24b2b
fc2c1ffc978c825a91cd514bfdc6a4f8
fc28575f27809ce6622d6b79037e7b33
fc214861dc3317cdee9f0663d890a3d9
fc2d299396b0537cf364f10d5e17a49e
fc2d66d4ecc861b81accf8409074fcf2
fc2d5f38f2e2bd5c4bd8103551aa3a11
fc26ea35ac5b0a64f3975ac759e509b7
fc246570b2758c3298b429bd77979992
fc2f998c252594e403ad4f60d93b2928
fc25d68721b3f135de97b51c39e4ad43
fc20c9374177f01eacc416285e6cf96a
fc2a8e842ef5d930d0d469976cba702c
fc2512ec5b8832095604231edc025853
fc2dce90a53ed4d5106f779e66f05f7c
fc2b4acf6fe08affbf3fa1033de7833f
fc22e190ab37d499cea2a661d2682b22
fc25386b92cfd2c43d118bd5f26cbadc
fc2731d0f9cc07baa85bfbfa650b04a7
fc26351e9427cdb61f381c07a550b97d
fc2ddaa3f8a17618da532c8afe57afc9
fc2f31facec89a1d3aa1d2e54200e83b
fc202d48345c1a7928b87b5542a0343c
fc2bf33ba23056ec7fe07cc4161c1167
fc23fe1171802c3ae8b56cfdb2b116f0
fc26f9a7c2b4f82626e8f4d597184e71
fc2b5a142d46f0d70db952363811827c
fc2db551fa6aaa799e27b921986063c4
fc2a090769db90057247dc09ad220e2d
fc2e733b24e3655aa8c461412dd0be87
fc2025ad7c1c5685486b09f5e15d7e64
fc282c666acf31b52e776c24db8cd738
fc2372508c605eed96c0591f342e1234
fc2b8ddaf389277820745be4f455db4a
fc2abb33924fa136a1d77aa9a7d1ee1c
fc2a7de9767e66c3aefa82d828cc52b7
fc26f9144060564d68c9a54c5341d376
fc26d27be63263ab2439acd535c0f67d
fc227d1bcc007e5b61636e07dccb4b9d
fc2c72156ba82e3f958316c4f65fb4a8
fc22de909cd8f77efe3966c3d1b5f683
fc261f4fddacb33cae326bf6dadf34d7
fc2733a226bcd1c114469dc8a420fc50
fc2b0155104e4f4208aa9d50218cbce2
fc2a105d2cefcfd813aa54fe3bf5de8d
fc22f2c0ffe664e3f30123689acadf46
fc2ddd57204468d6309b26a1969d8706
fc26b9e9ae94f20167254643cb5276a8
fc20340a55a0aba439d6c0197cb5ad31
fc2565c70204e147f97d4994cbc70394
fc2e02828c29afaebbef05ead751624d
fc27b0e0584ec4686903deb84296a97e
fc2339f491c5e3327258f7aa54bdda0b
fc210c2f9751fdb30b66ecf38b3c8020
fc2abe3b3d238d28cf2b9d6a8b8549e9
fc2a761d238cf798404217f81412547d
fc2a2de089737e72c2f63a862769950d
fc211cb386e41ec46108b4b3ed4fb6e2
fc25db8327e29dd7515c2e63dc991c9e
fc213dd8a9588e6f256caff875a3a6fc
fc253020b41e4eea419a3fc3169809a2
fc2ce5cce9f03070275aec70540fd3d3
fc2e14566c063752f83e95d9f2494fa9
fc2870b89c693f537966eb458cf1d9ae
fc25f2254e8d7986f8b51a1833069d01
fc24cdccc9563dbe7ae41c39785d3c3c
fc2846f8912df20ff8059b3b44668ad3
fc2d31370e298b7fe594550e9744e2af
fc2603cd1aea4370b15ee7befdb2033f
fc2b86b4b97fff0d5503a6447bdc6a11
fc2fbfc915387026ac0ad27c8af73f7e
fc2024c8552bab2c5ac06ec12999d2a1
fc22c8c23657c2dc5c0df1dc2329708e
fc20db9c2866de6d9423421a370c166a
fc203d7d67d81f7f14fbbe52124bc720
fc22334a06873bc74cebfc5ff26a4efb
fc254de64daac6871d96686eb427b550
fc2a4fc2adcd517c336a57af07d11bc4
fc2d332c3709bb46eca53a823f1dc051
fc2bf461e71803fca03972d43acc8f4b
fc267a3d1bf2e8797171da6dbc240429
fc222b13cd0d3ac4ff50e97913d77667
fc25ba536a28bbcd668d12cae8a15cc7
fc24377bfb6c34f5b1c8a16f3043b671
fc204459f15a92b4351f94dff84a49df
fc2ecdc27172efd69df5ad360983a09e
fc28292fad2dff8313c215d19135230e
fc2feb4195535ac7619fdd229d2b0186
fc241be006ffe1af1f9fdc0a91506f2d
fc2770bc012d3bca2c28a4d6047aee57
fc2a0580d99c01d6eb0ef2c2a804d4a1
fc22b63e28f3c8cb12da400839c05495
fc2b7f7befb165188d140f8c30527273
fc29ac20bcf98661d72360eae3d05a92
fc2b57a258da327146ba969e665413a5
fc29b8190405a5a3f98cfdbaf83f2d6b
fc23d4e29ce0b64c04b9e0d3e81e2780
fc299b150ff4819b5f5d36d0ca2bc767
fc22f7d9499b17e9f97767d7462b0ef4
fc2d1e9976b1bf727ff1abc48b9f552e
fc229223e2692c5bf0c7a29d7314d72b
fc295d668eb3e90baab3e2f751e1bfde
fc2d5ee28da85eae369f73cab4dee8a9
fc20a15de832ae0c2005665f560e81f2
fc2906cc061b3c4ce2b28f5fef987213
fc268ab82ff964411f3aef30f16bbbe4
fc2cb5633333bf3fe48bf38ed443df93
fc2ff4e24400a3215e0cc650d9d16479
fc24f0c63abb5a5e285b2cd495ed99f6
fc26ef1b7f7a02fd7d817437222e5711
fc2e861f2a8bd3c85637caf9f703f961
fc2b98d3dc21bfdadb9b2306a658f88a
fc23111300edda3be6201c576bee7b06
fc2e3047b5593d9e31293c560d96365f
fc219b1ea4ecdbe3c00be2fb49b5175f
fc26a5dab06480c30e0fd4179dbb9c35
fc21c2b9c28167da482ebe9f1feb32ed
fc20a0f7c2e2d4382aa6e36c715626cc
fc205d6eaf1da775ff4ea182ddfb329e
fc2b538646178f3b767bded590192e6f
fc2a9fa5097111926c97a677678fffc1
fc259d6e0a4a4f4528365ac656fa88f4
fc2e208d4b6d6ac98eafcd0bdf1398ab
fc2821a6191f81dc5c0d91ffa920587e
fc2fc8c44ac14aecefe151366d608cd1
fc23aa0a48372b948473a4829105e406
fc2dacebedef2c34549b8d80e40c2434
fc27f121401b8cc1e4b3aa8b43a6e340
fc227c2c952a60cf29f72476fba0ecbd
fc256195d185763058860502d1d94b70
fc2845a7f8f1026c116d327baa4a1e40
fc2aceca46ceaddb7a42e61e03617f0b
fc2207d889ce7c743954b024f89efdf8
fc25beeb4cd64a3e9109b54b08b946cb
fc20ffbcbe59977d399f54e806ba9fe1
fc2c021df58ef45fa05227e56c11e298
fc241ebddfddca9115ad05bb1e07bb84
fc26afae08fc2b4a74726a35b8b89500
fc25f1d7c6a7755992336685433f3c61
fc268860ad5ef1061cb61be8a1d8f64b
fc2edbcce3c3c3051828ccf2f2ca5e2f
fc213575f21f68cfb3b8c33f66d08bd0
fc283169e3ee19591e96a3104b890335
fc2ae5694a3ebb55aa9b5705e7af9fce
fc22e53066f6d54901ccb1586fecdd13
fc20741bc6c93f53989acd7c3ca8dbe4
fc29dd23de7b722366dd364360e4ac25
fc2212c6b1ce8adb1bfcdfb86a82af26
fc2b0aec1a756db47b220a7c05e544e8
fc27ec7802d2105d9a09d77b83196bad
fc2ed5e1392e78d2131fb3482122bbbe
fc299a343da2fc4ad6a1694371dbe15b
fc2cc9db75cf296168ee479a9b16028b
fc2686c727121aba5ad18429729ef922
fc2fec7fe40e8cef83cbbd1e374efc63
fc256587050b6f9a68ce2dd198eb0c83
fc22023b047f50fdc976de7bdffc28cd
fc2c655cea3b6280fcc2b7b4490cfa13
fc2e02da0a6780b209210cca376d55de
fc220dad0cbf07790145bb1a1d6d23b8
fc239181d332f0255afd2b66528dc6ad
fc2f7426fc19de651581a8345ab335ec
fc206e9c2040657c5938d0fd654fffd3
fc2cc7fedf3ec91b502bc6d503d36021
fc2829ce052da46100ebb1d1d6cabc0b
fc2ebffae2cfab24cdb6c5bf1251cfbd
fc28bb265fd341c391c02c2c47d7b4c2
fc2f70b8418a40ee6a013d017fd123e3
fc2ca41c041a9b19d4203364c8562264
fc2b745e0e52d4ccb81f741f95bddb3c
fc2f77e1ce41e769267b729773789329
fc2936902980977af83ecc02ab5da3bb
fc29122c416cba1f9c8ad2cd3c008f66
fc2d80a26e01781ab20e9ddaa712296b
fc2fa3ef07eab378966fea58bebf78ea
fc287016c381c80369292ad9c68c99f0
fc2a0e49a856d7db36e243585033debe
fc27d7b534d1e1c20d64eddb3af531be
fc2ad14fe8bdd7b80c71b5f55c1aa56c
fc268a63ff57c8c1869faa2e326ed108
fc21f1ddcc9fbd6b3bc7265595ad83c6
fc2f9861c03c7685dbf2352a363126b6
fc2881c710c0c4b9d6d46d7e5d6d5aa1
fc2bcef7e31f48b21b78ec0cf02bcd1a
fc2ed080c4a1808a0d5d78a3aa083936
fc2f25c01a16e7db318e0c1b8ea58b68
fc29804b82354d0bd8c229c6b4480998
fc29068e6b1e9c3044cac785e09f1da7
fc21b92112120936d21f659cf21c62d8
fc2e8da1304cc6fc587425fcf66a65e2
fc2876e7a48e35f39d3542d5e53407cd
fc27d6c17d15091adb8c900f07f894b7
fc24dc6371660e4df69c7cd0dc1a5f1d
fc284436c9f16ce6f8fa670c8dc31763
fc2c6b2db0399ddf8fbe715f0924f2ce
fc28c744a5cec6928ade5509438f7360
fc2cd30fa386de517b7836eec7023b1f
fc27dec0d428e893aa78f95f778c9fbc
fc25e3f051c1c2f0dad2d8037b40b451
fc24cd5a62f5715b619c0ab8ec18399f
fc2e3310d0ccfd6a5557fd14167d5e5b
fc25d302ab6d4c0333c3ef5c445eeb77
fc20624094f45b922ad08dcaa4899bc1
fc296db42ef9f3e6f6b33810efb834b2
fc23061dbf15ed10b96001d4a7b5959e
fc29683288dfc344c624d1af8b76135a
fc26486984ea2618af4a7f9063e7284f
fc243723d0aa83acc8872a6e2fdb907f
fc2acfe1d55e639f10641e63532c6092
fc2face859d01cfcc6111acaee150fa6
fc29e1bd6eb63fde82124d144ed2d326
fc2470158f367a57df83d70973656b9b
fc2ee5ecb2ad25f0a247c58a5388dbe3
fc2601c78fc29f4a775bab9b0d8ccd65
fc256b7d2f6a2374673d6826e3015df4
fc2610ab49e994d8aad5354db3e3db4c
fc2f61ea44bf774c2dd3ac438d3ab25d
fc296a8ba7a6b9f6701ee38e5baf7081
fc22273c881e027a019a7ecc6563e0d3
fc23357f69433a9bdbcc6d078bd0fc19
fc2122f6390a971bf4369c1d18bdd04c
fc2fd4061684dba3f0c572a962a75229
fc2ac858d632a75f0504f0136da0e420
fc222e764a192d8af30bb9f7cf55106f
fc22268c920b040baa15c0740535e0ea
fc25be9668c9fde224f68a83e9ba21a6
fc2cfe39d0ca583861a16484f380f7ff
fc22200867f8fcb6fa06e22d1de06597
fc2e542ce520d5e4ae30c7619d9b194b
fc2622f3d818000008bff08176c8ed18
fc29f0510be448fe64e7729a9be8fde2
fc2d90149d167949093f3899359d4bb6
fc293cfebdf4fb3112adce3b96ce6c24
fc26deec827bae76790e51dae1b82252
fc2ff0616922bd1fe1bed6096f21d296
fc2306c46cd8754dd47fac0abb78bde9
fc2e59cf9df94dbf16e60c15c673c9c8
fc2fac555556714bf93a02c87d4f6f3b
fc2667715de2a4ef8cf2f9fa5d923737
fc2efc8b41cb09423a4888006e1aac89
fc23691f289828281e03a4c7fcaf4e3e
fc2343bcee649dc41d26bb333eb355e3
fc2da27bcb737ceac5dcf2a115019566
fc21f5481c4cc4427146c12faeafcc51
fc2059338ef4b87a49a6271acabc4d83
fc299320fd84c01a9ab94d565248df29
fc26c3a2a0f0e827184cd419f6e2e744
fc2f8559243ff2016bff43b35ea9da10
fc20267724b1769e8880fe14ed3f5f3f
fc29601fdb1b057c246a55a7a0dd9bd3
fc2a3d04caa6c67e9c19a98f1789c89c
fc2ae4df4c8a9fa8bbe8c447733c2fd3
fc2b814db39966cdb7b3ea1dd9a8abc8
fc22f5a2d8fb73043803a1cadd96137b
fc2f18dc3e1c976d09044bf5a4e72853
fc27d9a05957c5a15c03ab1204df8223
fc2379b6202140e0fbfe8dbb715a06a4
fc2e26a08d30a3c4a5cfff7e7dd6cbca
fc2f5bf1e0886157839d3412aed34d87
fc2f589f01b52048e78a9ba78c08f580
fc271201af6be99f7fe1e14140673836
fc2c052d72ed7767acc1aed026f17de1
fc2f6aa0cdc0c6367572d089a03e5760
fc2b300fb05dc2628246d2355d7f6a01
fc25619e347c9f28df81101b18ffe331
fc20ae2b93b833b9076c3720558f4e6e
fc23892bb976943870dd1660abfa83dd
fc287ef1719a4b678ecc520a410b596b
fc2d874665f163cafebf5af620a0682f
fc26c55234924da3587b3bdb0a5cab0a
fc21355669653e1b3a8e20bb4561569c
fc28cf1106ebdf42f8fb22e68c69842b
fc2a9a1e3e3b12a1fb721af14f37921a
fc2d1954941091be54359547326e82f3
fc2de6fda8bb7795613a564224756972
fc2a1c6e2386d94a4e73bc74d2006fd5
fc207ecbf7bf446c5499e53c03bcbfc9
fc24c386f72f237b14e67bb79ffd4579
fc2be032434c044fe1aea6ad62a6e02d
fc22fb06070ec3e12c8ec788888c13d3
fc28fa338f65611721a558d56cd637e5
fc211ea83fb4c6ba10146cad3a15c5dd
fc2eb316ebff05cdea8cff4207da2bf1
fc22815703e112fb3c50b8c2970efd93
fc2f388ac2733e6daaf65ec1da7d7807
fc29ca6fded34e070bd611b138f6232b
fc297c90468f9cbb9c3bf12081d9fcb1
fc2b3847b106eb36bba4c6f99f3277f7
fc2e17214eea7899d42d198c9322fe87
fc2b155aa7cb8c61ea9c8cccd0235a35
fc2e99c8dc5e60d4fe154a1e57768ba2
fc2d480a0a54c1050097c18370a7eb2e
fc23dca8209db90b37bfad229e3c1e09
fc2e192288fd9e4975a093fe77edcd0d
fc23dd2c38c4ed040078b602683152b5
fc260367b7bacb6937623211327c00f5
fc211a7910c31c7e80fff3861fa2e9ba
fc24076d7357488c9d23b40be126db1f
fc21039321235beb1d97a69e530bc387
fc2b48651b7e0cd6cc7b26f7f513fb02
fc244519537cce1174abd3df27133599
fc268a19b2f8faa8023501144e7f44e6
fc2acda90f2ecb2c66fbf55a4ed8a2b4
fc2476b457c5973ce52dfc9586e619d5
fc24fcde2aac79246c5c81e3c56729c9
fc21657f1a2fd15cb8c905908c38a874
fc28076af7f98f40d0011132de63cfdc
fc2af84f97f54fd2669d74da0895e498
fc2625ca06a99d0ea0626a0014185f17
fc2a1afd3adfba2ab63863d5e0d7e15c
fc28ed407c7edf32f697177c0ea8c227
fc2f29e0febd40285c671a2bc64fac98
fc2d98e38093e3ac3ead4f9c1b51f17c
fc2738dcb6d8dce02c2142a22c5704b9
fc2c857b2d1c5cd588fdd3315e10ed3f
fc2b52be42a6265d27f5d50c96f33bdd
fc20f08ab97ed0d07ed3f7b6de6723ea
fc2154916f4eea7f7aa9abaea3eb3ee5
fc2ab23936d7fd570bd215342d7dfa89
fc28f3a96f188d77f78b4096bca91e8e
fc23a0927e108c20237866fddc83c5ad
fc2bcdcc7a379998dfaa8d7b89959270
fc2722c0f7a178c5ecccb49f83f9082d
fc2a7a1a86632e1dfbd4542166ebc74d
fc2140ce948e06c8c0d96925c2c9a2e6
fc25cef03e2210bd59adec10ae459d01
fc22e28fe3fc6b582cf38b6902386238
fc2eff06e4c51b77ea9563b98603a9a7
fc2ae600e19fd8ded14b7558c39b3821
fc23eb35ffe49f606bbe1154e8338f41
fc2954ffa47a67f9420e339bafbf6f71
fc2348f4e0a47f78446e631abbd5af49
fc2b686070f506ac7b7015cb757f446b
fc2505e151310f39cadbbeb0577c8279
fc2270bb9c79b683a327cfc299d83c1a
fc21ce1b4629a8d26970d8d9a6c884ff
fc23cab2f2f6063761b047b70e2cdd6a
fc238ccb6e0cd2448fe2ac5c5acb7364
fc2138493ce84880879090c6ec1508d7
fc2300417ed1e6cdec0ea2932be0574f
fc2eb473cda41d83453f7f9ce09c0506
fc21b479ef5922d4a76f95e64ff9fcfc
fc2e703845fac7b62829a40808b8fb21
fc2b817f7aa095dbc09b2b07e49bed9b
fc2ea7da738b1683b67874abe49685a0
fc2e734fe5d79fc06cb3d1f770e78006
fc20326cd3eedef32cab5c63b5dcbc16
fc2311076d9369eaaa4df59018d5fbc9
fc2c8ea2fbf9f95fc251422c178b8619
fc23e589c038dd2a608e80590f5241c5
fc24de389ac452bc8b56e6110647b06d
fc29a410d11ba905c284bf2f569de76d
fc2adc43699b0ceee213f2413b530854
fc2fdd7ff94e9de60ae4ab084f3579e2
fc28afd8312f30b844dc0bed3e2edf88
fc280d07fab05618c91cdf9668da2388
fc27249b195b59b06e83d702853ec0a1
fc2456f47bd448ea9c895116494a8090
fc2958cdfd028cba1cc25dde84909e2e
fc2af1d1fd32a87fa01ec0cce686c7ef
fc23fe6c59efb5cab324b78d4d121c0e
fc2cb61436beb51bf334eaf295ffbf59
fc2acdfd1cb3f1226964668fced11a16
fc2e96cca697915655eb90c223efbe16
fc23dd7f180f7bafc934af58bee622b2
fc247cfc92a97441904465dbc256e7a5
fc2bbbf81d3fd7282fd711b355b6be31
fc26ddce14e50a5da621054429ec4a9e
fc2ddd33849a362b4d4aa1431d31ff3d
fc24cc205859a13f3a5ba699840a6791
fc295a718bd0b67420a01a0287d36e9f
fc2c81d55c9503fbdb56aa2ad7514e44
fc2c9f17d38fff08e03ff261822a84ab
fc2249bbfcc799b26db01f67740bf262
fc29b34e45e4abac52b8e46a5281dd7a
fc2d1089c5f56c723e37965b49de0f05
fc224fb4fb6427ce92762b3c03584f7d
fc2265e7c8cb6cbbfe2953893c0819fc
fc24e0410117725249d92c1e99754402
fc29adb39d13f2363e332b7eb3bb79d6
fc2a85b301503ed87afee985c08a60e7
fc2bc42190b51159353d87035f9b6ae5
fc2fdfa4915bc4c4bfb632cf9543ea2b
fc2c7bcfc9e839c14bbbf183a2728de1
fc2b21883db166ec2030f5c97c1f4b11
fc2e6997c25e961c174215f1ca355dfd
fc23158977ee874bacb94d39a5a594a9
fc2a89cb85e06c4d61bae0c9287eb7fa
fc2279c964cc7d7d5264f4c8f0d81631
fc229ef25bcbb30b2ffdc190ffb461bb
fc2b7e386edda7c57912e49b01046b75
fc2f12efe9e9048ebb24fea5c4f5a1f5
fc2cc1615dd41d522129911c9e39052c
fc263ccb3a17b662a80988310c04ff7d
fc2bb61704d1b1b2d1e5f2e748d4dcda
fc2e8d5040b959048b1e877044542ec3
fc2607f7f16e2262790be97e27d651b9
fc22731a6472ce327574327a130c2370
fc22f5d913cd40c8f4a8a769f760d724
fc283cf58c669e0be95a6f275598f341
fc2374f0a6dd6e7f60809a6935c7af2a
fc21b1f4a1662a0bad293a6036036dd7
fc2cd9bc3bb0b8714b049899cea7b067
fc2c1e6b59e9ee7836ac981ed92c2226
fc2da035d4db0d6908ba576b895c0da8
fc21a5db5334c65fb799d5debe42eee5
fc255ea70bffc49d3e5c03027b662000
fc2fc66cdb586cab467732e7ffaa4353
fc25a245dc31f4a5d83d49002a84abac
fc258e88b7d8fe14e7a60447a7538858
fc2cd2a6370602c9137371c26fef2bff
fc2c28995b9b24ef9c025810af7ff80f
fc24bb7384125c683359095a2fda4128
fc21420c53c9b1c51c2462324d34550d
fc2ff67bac867530fab69c5c81c038ef
fc2382e919a4582133e3c147c81b45a2
fc2f2439df0b649b1d00797ad99e8794
fc24b07e08b42b9d922b9b627ddf69b1
fc2c60a08612ad35b198ec8bdf2323d0
fc2dc52d2cd0244125c52d6a64d4873f
fc2443f0622e2670769ccedab7b1be6f
fc28b844f0b864a4d1db60e68e89f3f2
fc23ed2813e0e3d96a2be7f4beccb3d8
fc239f7145e0a396a01c88072a856905
fc2d2da4c7a475815b91738b7ecb5b76
fc2bca77adff16fac3d8e94de37dc417
fc228991a70df4273153f7c8703a9c9e
fc261cdb4ddfa0aecfe872d244db1526
fc2fff35ddfa79788ac9d60e21cd13f9
fc2af6894885b11aaa62fe92fe2ad12d
fc2e9e14cc0fa8cc32f1c633a3a831fc
fc23cbcc33e9103b5dcbefbbb6d6cb22
fc23f14d397762a6f5f034e085ee67ef
fc208c26d606e4a3160216b778e032db
fc2dbb9c1ce4e7aa46ba51b03aba5ed5
fc2f306892049536bb001bb1cff6a237
fc2358b88c4ae14e77410ad83c4c8067
fc289ff5ffdba33a0b30feba885e05e0
fc27f4c4d674b2303c1b05079dffd384
fc2da93be419024aff312ff3f1af46b5
fc20ff06a492aec6aadb670e0d0679cb
fc236b5984d42b421366e08f668b5c14
fc20865e79cdf260d4d57c2e14f42f74
fc23af34eca9e603fa51201f67b5237c
fc2fa9b8f34b4fe846a21c88787a325e
fc23c00f967386cb06ee72b1543c3f97
fc22c34b3e7513659575105f51216a50
fc223e14df7a4083e71cba4399f7b3ae
fc23e94d6ae94ac4839755e4d8029e18
fc205ca04c11cecddc71883843ab7a9a
fc2421fc831e6cce639523e5864514a0
fc2392e8335876981a3f7ecf85408c5e
fc219dd8fec3a2d78fd0a924468c2c97
fc2cf9dda42a25a05e00ffe2475bb752
fc25eb10fc932c2e8d51b6ba3c6b490e
fc2f7368af0c6b781abdb8f6f46be293
fc2ddffd679dfc178601deaf5bc1f534
fc29a9e9a1d28316beebc681b5fd1838
fc255891ba83bb70c83bd500b2e01360
fc22a0db1ade1f6e8175e25b69b2008f
fc20225581398b629c05ad8d3a23465d
fc2591efd90afa2c19d23b2691134a73
fc2d77db2f2c3da3d5ddf36ff6038650
fc26ff06a9a8d8286843c2df8be77bbc
fc2217f24eccdbde595c688227d0f072
fc261691103596ab5178e77c4231b366
fc227f8cb634d533ee06ede1a7aa3c9f
fc2a9a6a54b3778953a8811f7e545661
fc2ca0633fcae3e40e7d47e0b74e9d8f
fc21d6d0aa67724d80a7774801c98232
fc23db813b29070dbf8db6f2226b9fc6
fc275c8fe25d6b42bd5d19985e678224
fc259ff46c4bca032969ea8142fb7de3
fc27c93e6411cc35769a5171cb91279d
fc2a329816202b6ea3149544e30b75d2
fc2a7141ec62d8977bcbc0b675cbfdfa
fc2e0f84d019eb28b2b3e9bde1504e40
fc230c01a3186e72d05b1d6ed77deb25
fc2eb67b2a62b51220cc2d11fb92ebc4
fc226c8812fccf940d99e5cc76480711
fc2c7106601c3f4dc1da7887f807ffba
fc208223671d1c495c470685935dac24
fc2c48eaa462a8e41df9d0d517ac339a
fc26ff2ff9d06e418552d8d7f202fbcd
fc2bb9f6b5045b409fc8bcfa774839f2
fc2c1e5dcaa2b4618fc73590d5d52253
fc2736a679252dd5eb2dafcb5a3c1f38
fc206d3090d1b4d4b85725487019c7cc
fc2c68df36abccc2ef0cbea2f4497739
fc2dad7357c2933035088cf662ca08f8
fc2f349c13824e19de0048d958bc652c
fc24633769f9810caee9a30b110db55b
fc298c48a2f1fb492aa2253d036d7163
fc2b46708170190c2707fd8d97650df9
fc247e9a4f422826a2c3f87a244b8a07
fc2e1ee0a9647d8d14d36f6b6a1ed586
fc280015bb356163cd8b0f641645a0c1
fc2ac87dfcb365082c98c14a6feed9eb
fc2295920221a593d50ce332588bb0a3
fc2a3b49e5cd0945a6848c3fa72da534
fc293a590548d31a4c634f02d1eed3dd
fc2bb68315c5b7c1ff31ddc3c8623d61
fc28152f0dabe1e5e5afa08570339e58
fc2d233f65f346efc4d04b75bd20f91e
fc28fce62308a1bbe92c90e370d9609d
fc26079c3c5d83dc651c4f47bfbd024f
fc20002f4d3d49de5538350324bbb002
fc20e2e3c2d4ce321b232e434508d95c
fc2a3c8c8aabe02dab367a336ecb68d6
fc218c80cac7c5c1075e370be39566ec
fc25db3455da925ac600dd7a9c407c6a
fc250bf8290a649f304ebca34dc2d7e3
fc2b2373f3edbc172dff993531016dfd
fc20df7d94cba25b9a7738a3cc54ddd5
fc2c9182529efb092c2942fe8908ab40
fc29555c06c26fbc29bc48117f027f43
fc2fd550ddf4aecef86083b8747c3cfc
fc204f10abba13a4dde7b25452600c60
fc2a443464b026bb36e4ca021bb86d46
fc256b7833729082d981582802213510
fc2d2c0ae5892179a5e58af83249ae24
fc20140962f34c88820629da655a6d65
fc235012858c73dd149ca92482093974
fc2ae48e2f4791903862457411b89932
fc283379b4f3b989f10a12dcb69ab9a2
fc204a7d70e56cbdb99af6c5603f16df
fc206786b860327de3a475b9dbaafd64
fc2579a19a5ed04e560df5e2bd32cb17
fc2f7c400b2f5a4f6f31bf6b2232901a
fc25d009ea7a05ec8b69070d5e60d28f
fc29fb5eafd915e70ab6afda52e50b27
fc24394c941c775595bbba0c527ef410
fc291195e007b7c431cd0625d393e783
fc20d032fe377d4f7bc859cb2ba758a0
fc246cc949893b47c7716b9591a689c6
fc294011d7c59f14f3bd2c5da23b2c21
fc2777e94f91b42231c0e6726d6de8dd
fc222830b9656d686d2fa716105a7744
fc29f54c7adaeb2fe87f9836ee9d9b79
fc2955ca8ef8fc7b0b9902dc74112064
fc289638c667000a5ca2669863ade841
fc2cc4a6adf39b688834e5cb6de52e19
fc2e4b974100d0d404bdfdee9853c200
fc2699a4de1a864eb7f02c935bf44457
fc28572d7fa52036680b87dd9dc6fbf7
fc261d559b0f78ac82c9392a2d1018d5
fc26b4d388f30e138b4eb80adc947c37
fc2cbf1fca7242655f3fde26677e7f57
fc23f60cbf1c07239d90ea347cb050b9
fc2ae4701a687091b80451f2dfaa1848
fc2d6260262dc40d51e853affa59d356
fc287b4a00ef961309cd529bb280287b
fc2c6c17682e52fd3674affc16b61345
fc2904171e95edaf71083f41a9716d48
fc2acda5537bd036e584b70c5b51b110
fc2c5bfd49a65e0f9e4cf00b08308a79
fc224dc43fe2e29737158109dc39a515
fc2f5c1fbcdf8ca815d840710032b528
fc26f6fa05fb67dc708e79fac2fe0b60
fc27df7c07308a1ef5e174eb74ec5b9c
fc258eea70ce1998d878d5ff9c409edc
fc2178021a470a1b047af3d3a50e1644
fc21e5651e14001eb97f615af3ee4b88
fc2b2ac59414cf6370450a891041272e
fc25a075e09fccf4acd1ca9e607c1270
fc207a52beab201020c86dd600bf917b
fc2f63c67c050bd7f3c7af33149cf0f0
fc27734305840ca8b58e111675ceca9f
fc24ad28428059d413a3d2051a0aa281
fc2d235f8ef793095bbcb8119ebb9ed0
fc20bf3034ed39b6da4cac24f5fe3a3e
fc2ebc89cea43665070c093201ce4c7c
fc24ac795843252c9dc6e2d04716076d
fc2038c75d916fb3906189151d9f090c
fc2fe7e03e15060ce42601b3f6c161e2
fc2a7eeaf0b66ad6f33c9ae502722c11
fc2ada77ed178b2b7d27ba3596a566a2
fc2b74a4eafafba6195c1920aee3bf15
fc2d608a762ff95a5d6391c97c032e75
fc2f370271a51aa05adaaefcb55b0141
fc2d082f8810cb01e6fe359005eebbb3
fc2e7b304e07667338ab7a272773dd04
fc280cd483ae4f7e6f395fa07ed76085
fc22af520b6c673fc75b238798db3e83
fc20d5d704ad79eafd74c88ee4db7886
fc27a311af978998f4e7ae55836c3afa
fc25628c41b1b11cfe368a48c7686aba
fc2661738588c6e3ddfeeda728c954cb
fc2d95309f49d0c5c9871b42ae850263
fc23477802fdf55e54b3c68cd940e4ef
fc2ba7ae346726e2b54addcf037314f4
fc2b01ca52a55374ecd07b0ba56b02a2
fc2df37ecdb78f4cd59d1c6452730428
fc2d113c2a54cd0e49e510fcd1e340da
fc21691cd0f474f08f0af03cc362604f
fc211d24f626725edb509f95edcddb17
fc2ae75a2f6944c1b0e5145bd8c4e715
fc2c17d1817a32c6786566d6372f4941
fc29786a0ed148b2b033f4a555e606f3
fc2cbdf1dae141f10b9844d540420fe1
fc2444447d75d1c51532c21cac4096a0
fc225db088a1ff4277a4fe062125635b
fc267450f5b5f283c3fea53e51c181f4
fc2d81a0d520b225fe554eb486cd9a4f
fc2691156968eaa23901e8a51bad9142
fc27254c8a87a7e9707d271d58d41cbd
fc2241f4f31a7338b184f7f3a52ea548
fc21a05a8b4d3f4c874d9b67b85ab4ed
fc2a455da14c424f82ce3a30b8e4ede9
fc25f299da243daa4e65710b0fd301e7
fc237a21d85d9b832cf6b86edabde46c
fc2d5785b6d53a30b6275d811c338ee2
fc22f4a38cd78c366f57580f99a8c86f
fc2051f3930a052f2b6ee6725c7632df
fc291c9e4e42d2bb1741517f34527573
fc2c59dc0b57e1ebda0a9ed9e3293583
fc26436b06bd886bd85e965db98521e1
fc22b1698760a61a0ca99420d4462e7c
fc2b3e255fd2b2ce3cc5a92ae9c3bc3c
fc256ba33b0db3bbf26d159dcc4117aa
fc275c664eb3336019c18e03b1a73ffa
fc2531a48f18315e86427c444d3b57ee
fc26345ddeb383218cefd0adb2e5d6ab
fc28f0bfefa067bdae72f91fa2a84c61
fc201de4d8b87a6858721afc8e401a05
fc294cd96643a91ad495d7363d078ffb
fc2946caee343b67dfcff2112dd619ce
fc2ed52a278d843e15e68f12537266e5
fc2be4678a6ebda04519d71e6e0ac484
fc24cbaa9e2a4d42d2c69e9061f885f5
fc2af6f0410aa62f8bc7a80ccab551d6
fc22bd164d6995b026db315e6c0c8e63
fc234fa8ddd2aaba884ab25545a17af0
fc2a42943c85f587be13e0638a51c7b8
fc24764e484815a0a4409affc8ba14ff
fc2b19da82eca8b1ae7a7cacbf15ac1a
fc2dc32a4edba3519debf14d2e34bede
fc2691cda485b71d509cf71eabda26f1
fc2660a9f9a59eb5312f6541c3c1d532
fc288e4c6d510624a86ec1eb89faad3a
fc2347d9e01ee3acc9805f41a1a8e1c9
fc2418f2146a83ecbd6699d1b005f6d2
fc2dab13dfeebb5dd2b7b40830ea7ea9
fc2b6a703211e61b46ab15dcef3d614f
fc21f37d35cfb038d74ae431c7629e70
fc2b1ddd819523269c05cd6f5422b90c
fc2e19be4431ebe61ddc1ff02bbde413
fc2d8cc311df0375e0a5a5b21ebdad19
fc27335324f7e452f82eff0053599c47
fc23fab484333dd01ebe5ff246db2ec0
fc2575c2a1e2b004a5298ca241b50447
fc2dc5dbbd0def3850aeeff1747ab0da
fc245271ffcaafba67078f0f8f0cbde2
fc20be8d976ef7385a46e0455fc4dd0d
fc25db0b9ed375d1b67f5cfe5dc0011d
fc2f22708019970cb2c3ef1bded2abc0
fc2fda9cc157d8c4456d01a5d6334e6a
fc28974ee0357fb8fde5ad685e05b745
fc24d7b4d92202046863a6ddcc5448d5
fc2668cf2f37aba19262d6efc77c5f0b
fc2894765f4f678365021525ea9f51f9
fc2e3e32929b565883bbc03f6067b9da
fc2df75b6fb90059b450fa90f344bcfb
fc232c0485f716c1836c96cf9bb1a836
fc206fad07b211118bd43a36265998ee
fc2277cb38b576d5d8c6d1f53117f77f
fc2becdfb99dbcb46adaf4de98afc3fb
fc2077f730a33f730ae1df9a87719d80
fc26e9410bcaf96445f9a434b3545544
fc2e15a658744c509f8f2519942e1a32
fc210c0ea23eefbcbeee4f032de85d4c
fc2ceb1a4c22f21bb72f58e20fd705e3
fc25a142db3bb8626717b6241145cdad
fc255c2a691d7bc5e977f73413e2c621
fc25ea516c83cc6fd831cd83468f4ecd
fc2196d4afc071c4595d97e4bb141e54
fc253bb68f61b952827d7b8320865279
fc2c34ff1e6316bf074507c5de54e320
fc21038bdc8b112ab537418a12cd3513
fc20fc1121420db9d02bc397492586f0
fc2c5463fbf5423f7dd784f272cc0ac4
fc2018540f43dc9dbc10322d82ff37a1
fc21f24d2315e7009d3da10a32fcd8ec
fc2f7aa3168155be1d5d6513fc9fd71b
fc28f48c20bfccc93bf7413b04833582
fc27c127cd7f82a01c5a947186d0c4e6
fc2d170a2fa4e5841149fc0a338e500d
fc296755f3aac93762a3e556105bca88
fc279f8802460c953113d1c738b787d7
fc277d4dbc2be427074e7d218763a0b7
fc20a55ce326bc44862b4906872ce1df
fc2a455f59954616e26c716b4d0b8473
fc22ca3e7b9ef25bf25cddf56f64f621
fc2bf4459b23087cd612d6736a6a70e9
fc2e16614864cb359be92bb099f1975c
fc219d87b6dc2159efe2036d5ec954d5
fc279b3de2196941bd6017c9474734b7
fc254e8365507ae6ea011b78c0b5554d
fc20bea1c59f77c4f334031d933f49cf
fc241fe7a95b283bc11a6a1fa99a2ad0
fc2b6c3bc2d81432610851127fec9c0c
fc215c2e29bc8b87425b86f0ddda9b4d
fc2bfae49ab96486df31ef7c3a33b533
fc2fab559c7e8297befdad973c346229
fc2c332701815d7759c6da2503be60d2
fc27e5fcb4eeec1e8b0ef1e39c27afa4
fc205f390b940a7ccea1b69b51567812
fc23ae896250dd184ae9cbd9a07d294c
fc2bcb7ca933fcd88d69e06c4a00d2a1
fc2049a149224b9b0fba1538438dc425
fc2312805f485d39dca87b7fa65904ea
fc28da4c6c6ba27f199ed36d445b70a5
fc2c58e01722a0d4af931adb61bff149
fc216c626b6424e2253f8747b73f30df
fc2ea5ed45b458487ffc86fef446ee14
fc243b29eb9ff03e43b52d9ecbdab123
fc240cd54370ec4580c6994b2ca45060
fc221e9c052b26bfad28b7ba6ddd75dc
fc236f1711eed460e9e39b0274b3c5c5
fc21291292908f34d8a2681a5aa82fd0
fc2a220a659566f54611ea33d91536fc
fc2677b0c4e268e3daba439bdde2e317
fc2fb48dd01c821c84703d651cc0604b
fc2ded170f2d19002f606de93aaa502b
fc2ca02333d42491a4532ce4bbd4091f
fc268feb131fb437ec6ad6e6338c26a2
fc21e91f8a3fe7ba7e423dee0a21888b
fc22f74e4a511d3e19e44d2dcb6a66ef
fc2ddae372b9dc24f827f059dd2900cf
fc23284c74c5a1cb3c80b6c81d30e665
fc22801bd2ea420c8bc6eac2d4b60371
fc22c04392c0038c6f30a9061d48dd5e
fc2aa15e96f42a4a77e8ab3aff3666c9
fc2a955071fdf9a5caee95101f1336a7
fc2c67f0a8e0d5b9914a11089f1dd272
fc20ff0460c255767d7aea1b4820ab4e
fc2e83aa4a6c55cc8e7cbbcd1e7a7089
fc2872bd0ad5a4904cb7e0a485e234e4
fc23c46d2f9ee7f7fbeae5f448205ac5
fc24ec3201c2f2f7b17a783a80eb847c
fc2aae56547398ebe5ab0010184a0371
fc27fb14f66af04af932f98f9f884795
fc2db143c69bd9c0a064bbe8bb8249b5
fc23a0203bcdd30bf606e9579170e3e4
fc23f4e12d06bccc5ee26bdd02e46683
fc2b7487990daf7f59c21c5aceb729b1
