fc31898e35784eddaa4a680830269785
fc314b31abdba5a1a84700462efaaa54
fc37e3d7a5e9e04e9fb0ac49f5d8c8d9
fc396c4769ca4c6008137caa051ad6d6
fc31a502f71e5be9c9a5fd5d41cd029b
fc31e478e0c538a360f8f2220a16547e
fc3476c49c927903bff9a6fc7a3a17f4
fc3a200d0e7eab75bf9c1b709f4f0b81
fc3977c9939beaf53ff197623a419c52
fc33fa7d274a010fa17da94d3aa36f08
fc3bf0c36b97182a374893204101e997
fc36682f7b8da875d4935e0429048841
fc393f2d127625a3e24baeadd95dedb8
fc363513ea02ed6d6c46d58c150b43d0
fc315127984e536c647aa8797bcfb246
fc3a69120a1e9fff82a46be4e6500feb
fc3bd64a8d95efcaa5cb2b02745e9244
fc3558db79d1b292696ecc8556638983
fc3e6286cc2196d99cff9cb661f56b89
fc35cb18eabb9f2f729df40325405f4b
fc3bb0800748317980474e2ab085d06f
fc346bf85a41d666a838ff1c31c171be
fc3e1aec40553a3320f1c7f751bc1014
fc3544e425ac38c9ca7169f72d1ccb2c
fc33355fa29cc52acad5ad106499346e
fc3a2ea12693b8cb32ce1a36e9b63212
fc3936f2566e74cf8a23bd4ab5164f0a
fc36b33e286ad7b78a294ed25d452293
fc303c5df421da5882dcacdab70affcf
fc34c3958bc874b198b865f5a3d6beb7
fc35545e62c592c9583acd6f127151d4
fc3a434c0b843f461cc0fc5d15390fd7
fc392ce54d9d3d7cfe99ca7037dc1b60
fc3ec0b0ff0e9070204a34967c48c0f5
fc3911f5836c6fb18a9b7db16380aacf
fc30c4d8e698b2271296a37039d29923
fc34a52f4e4be44e195a3b843a58d99c
fc3d7b59b77620660338b28c610a3c1d
fc3cc860f8399491cf7b027c89f74b2c
fc3a429bd6b3a52216400329cf74cc4d
fc3600deab8a6c1cc06fffbc9f11fd8f
fc3cd1d8f33b10b55fa1cb1b40e74f08
fc3a4ff07276a7254103b1fdc8fe3b08
fc3807032e6ad636507c77f986162492
fc388e79db9a73d74699b078c3a4d4ea
fc35066bb3cd2b27611154772113c213
fc3cd239b48ec07da5469dea97cfec20
fc36f7174ab4e5e108c31967da19a704
fc34fa45fd1c3df5df79706b57f72428
fc3261b0a0a250b7e0393ffd330e7ff3
fc36c9ff7759b45149a60ed19962818f
fc351a1da01fdfa42798c6902f369745
fc394b34f9de9c59cffc4741cca04c6c
fc367f2edd1365a8fbdbc529d18e556f
fc347db64ef05f233793849f452632df
fc3ea3a1d1ba3620b52e9fb687a35eb3
fc3826945df521f486121ef2b143cc6b
fc31a3b51c82cfbcfc47dee4f9b90baf
fc3ae9f47adc02192a86b1cfde0b4e3d
fc3444933468ee7e845e1e19758c0e3e
fc311815241955f2f2713401b0dd89b0
fc3d5a630768c44827fb4e4a038138aa
fc331618ab6c2201b071dd64372c47a8
fc32dce5e7768c1c10699e03800d614b
fc310f4a86c3945982ac74bb7df71d35
fc374587e89710481f268f18d55c8da9
fc3cb0a7d46af9c7f73aecc158c63ec9
fc308c9fce48f3ab264023ebd5c22680
fc3062912cd4991beac2c7f7ed3836a5
fc355ec4960a1008e7d676f0f19cc7c3
fc31a9558f2cef4e8156ddb4ee7a5d96
fc35c266d894833b5aae30c2730fb783
fc3ec216b269b506f35dcc0079818d4d
fc3ce673664f82850e22e8087dfdf1f9
fc3658a622784adf43be91b6d68079d3
fc3ce6466f548992802577c38eecada6
fc3ee194b5602d569b6fc85288b76669
fc3c1173e4d4686cb04b5e388a7ce2b6
fc31a33cbc4c63df67f82dd7c6eff18b
fc346303c163e1163f3715a50e3978d9
fc3ad78048fc8413b06d66ad89a1000b
fc3fa6cc36fb876755bc864d55ddd0d7
fc3244c96b357bf5389fc8e95fc9e491
fc373f4b5a0a4a44aac68bb362be71ef
fc39639569273e71c99eb74e937f6ac1
fc3aea8dc187307b0ab8c7a574a82d14
fc362866c2228f118e63f0695c07529f
fc35cfcf17388fe7e41ad2627c57a6c5
fc333ad0ce5f6b50080d8eddc320e571
fc3c477167f3fb27d882c6b3f413bbc5
fc3b787d42fd57a27ecd1bbda523548d
fc3fb55253018d9d426cec30ae5d434b
fc3e3d2bb0c90b3ec297c863d1ed8b52
fc305458ac41f5fce4a07edf68402ffb
fc31b4e83fdb945548094acfb7979974
fc39ea0061bc7b13ff5754c90102fb29
fc310b0a216452d13b4bd5da5d493261
fc38573fd66345a53ef21a65a2a10031
fc3f359989745b87b65e5332db4f21c1
fc30aec450cc265e888a556bb4665c67
fc3fb9d894e3d358ac76c194a857bf65
fc3bc154c87c2f9924fa9e9c5f859ef0
fc3b34eefc179b8223a58ec077e54e67
fc325ff96b1c75b93f175eebb90e3de4
fc3c5c7c03874ef0df44981bde8c61ab
fc350da2cfd52ed0eb3b3038d093ef01
fc39aea9c9eb3f6357c64a9c44fc0e31
fc3b1ec17444db9887fa0bf70c9d5226
fc3f5b0df7d4516d236af9af864a0525
fc3b8d248ff2c7157b1ff5c845a34cb1
fc31f25f0c7e8af6704bde7c8dc6b790
fc377fcba72dd3d0ace90fbfe1065953
fc32a08f67defc767fce103bff172305
fc351175b768ed0ac893db6f915ec221
fc35cd8dd2bc4d36be883b6f39b91a14
fc392cd1ff9b375b96b3f7fba3fa471b
fc327b6bd02a83446364ba6c31ef4038
fc3e433cc59a81e19fe7db5575d9ae43
fc395868fa5557911ebd00221d057439
fc3faf3e18f49b794f0bd28d9c27d5ca
fc37c95ff9e9c35669150e87258f27b5
fc31eff27292a0cf9293eb449bd5adc3
fc3f0aa9daf74c2faf81aac30e922780
fc31eac0cd6f0c0d04213c6054bff1f7
fc32c961064ebe37ffb5276e4110dcc6
fc3dbbc4735b3d523e83985213c93b8a
fc3251bf204e18c3fceabb9a30843f55
fc3255a94088663be791900d9151a60c
fc32053586818e839305a485a81fb712
fc3ebe0f504d80a93f35fb469cd1a8eb
fc30051a6a1956d19cf3473abb694765
fc3100544b549249ad4d253dbd8c3841
fc3e51a78b42fe61acd05d01b6001e27
fc33faf9a7c184c620df3f59912bd724
fc3a26c85ce224276179c19fda234437
fc357db61a3f1a9d9044e787c52ec08d
fc3dea56be20f2765932ba7cc14232c3
fc3cafce48038ea79a7f5fdb724507bd
fc367f7f54f43e8a316ce2bbb0347124
fc36c5ac1eadd6e6702910b258fd7bb2
fc3b37a6c8f3179e1e44278e0fe41e69
fc38406a7683fd3edf51ffed9084c71c
fc31e274e7634a48562410882235bf1f
fc3790c428e2ddd13a646c671e3c7dff
fc3283457ed6608158b3efe8bab33987
fc3c256b2898bd2b1fed0df9a1f6d735
fc3c2cc26e85d60ac04223119fb071dd
fc38dfbd7a27bbaa9f851505cb206e08
fc3320c397d28b4c31f3578eaea051c4
fc3cae1da7cece65da0e83f76abe195d
fc3d586c7c61e6246d43d84fddff7d37
fc365a28565ce55672297a36f7911d24
fc3d03d1a84dbdf1e9d4947e436cbe54
fc304ecaed1c2888c149ba5dae4adce4
fc3c517c8b967e2798a8fe3323b3660b
fc3ea1c3dea2dff6f2f631a76c1da662
fc3430d9f08d8ca6e33b31540e2a9d60
fc3249a614ac201b83d0afe61b010f81
fc3d9ac926f26b0b44daf6c2b676c418
fc32b688582bdf918a144c70eb8d13fa
fc36d49df2686cb36de638824b5cc243
fc3dac9ec405d25a22edaacd00d43db2
fc3ccafccad60f6cb278eac9bed8b642
fc369eade32bbcf904a96ca1644ff8a0
fc3e87690f37c76533c911dbf79927d9
fc3105edada88a75ca062d3fa6b4bff0
fc30c9f9d5e7baa6c1b3e4b1cd762498
fc30d75ae5a4374611643d5d80d5ddd6
fc355d2a553c0be440efe2cfb193f85f
fc3e309df0b212c589ca71c4c89bedce
fc39fefa8490a6720b96cfba53214b4c
fc31d7c707ab1720e26940691b8ead39
fc3d53b6cec76709b2ffeede0709500c
fc3416df46134acf502f600ab90ec2d7
fc3140b128346977eddc76f84962c4ee
fc36ecddcd5bb3030187a359b25f1840
fc37bcc539cd53795eeed4e3ab2e762c
fc36d9e58b3eabcfdccd4bacf5ba8ee0
fc3558a9d2608a650cddbbd4b07616ab
fc3ab634fc8c0594536f533c4fd09443
fc33874c95f9b40b1fa5c58e88d2f245
fc38317ffd78dcbe16f5e468a81c9745
fc332add9766efaf7b5526d60a7102f7
fc38f3b155ba08746e63e0d7ae85d58b
fc33a638d77304b7a670a839bb3c5024
fc3feb89239585f223db6e7003c6fce3
fc38be051112cacf64fc5b4d8b6498ed
fc34a6b7c1adbc35aafe4fcff686c2b6
fc3788aad68f8866fa8f42d0d6bf3ec4
fc303e4f5c45fdeeee89df2ca9800246
fc3b5eededfafcae61058c1f75246e7d
fc3053028f64d2a5adcee3fc4f625994
fc396d38697fdba1b1decfc035aa77e5
fc37c0d871219ed11e5008253e7f5cbe
fc3159669a2c8151a5c522e49b319f25
fc3df11de7355ae9549d84d0f1c2807b
fc3ab307c4a499b5dbb841e9923c2cc9
fc30fa7a74eb565433fd4fa15dad8b4a
fc3ee153ae9910fc27f91b1c7fb6fbc5
fc386b17c74f271c802e233b2d274f42
fc324b196614b055ee678acd517945e4
fc3fb2dad59d24c9389afa723a178986
fc3d415b25b8f3ed8719251d542beb0b
fc389409b6edfb08c72f6efcd99e6be9
fc37f9b3e7df6701bf503a3b460cb516
fc3f57435d958c9e1cc8dff0ed9ad54c
fc3854aec4a4b3b02b0496c1b3d3027a
fc34015d7f1ded202e2967a08283cb90
fc36d71f8ec82e9782330ae2856bd10a
fc3567cc36424bcab186ecabad887164
fc3bda064bd9f126b7a120f00e4d8f95
fc3ff15a295ecd8bb62d2a4fd4dbd43e
fc382641d5e16d754f286c9b3dcb4413
fc30cff504faab8df0e3d4bd63b74365
fc3caa689069211e293b5ab93e6e481c
fc38d1eb904cc661e5dc368d9e96ed76
fc3bdcf8c134eab621347282f0d17931
fc39b849787dc307f724a7f10edcd1d9
fc38186960aae3e915944262cb54e514
fc398ae4ff9051249aec7f1978c1dc28
fc3ae52953157a3f09a964e82cebca5b
fc3fcb331c46bd1c0916a1e15705fdd1
fc304454df18b97459bd02fdd5793c4a
fc3fd33b889ef1033bc8b0272469d686
fc355bb957e9ac6672ffbab0f89b8e16
fc3d2cd79c18fd2b023df8aa0e2a46ec
fc3590837994a7f41142c875cc6df29e
fc3ee626357c86670684bb7b5cebc54d
fc3dbb2ba1385c05bb077160363b4e1d
fc3ddcb0fa9c7521d6c36de6caa63a95
fc323c5ed79ff062584d09a9dd7b62db
fc32c8e11feb4773fb9a32547b88c009
fc38a291e12a9b6fa0d827a07125f817
fc361d9959fb95ac5dbc7ba357966ff5
fc3f42edb3b2b8b9e98acb13961633ab
fc3f43d0947377d03b1a61acecd36d90
fc3d169860d0c05cd932f10200143cc3
fc3bd672fbfd087b3e76455a6897bd8d
fc327294b48392dc0e5f857e1b1dbb81
fc3330531ce77604c98c2f8863f49800
fc332b782bb0057faa179d37941cc42b
fc339f150fb6448b33a77679927c1e6f
fc30c05da72e825cff7d88610a4b08a9
fc3c3cdefccef0e7222370c8c05af786
fc3d423873d01ff0d6e3fb8af0497c82
fc32d298658e8240646e8b4d178e433b
fc39f695b83dec5547b0d77a7792a4c8
fc33486b68a697a4c4d32add1cb27395
fc37707fe9d1ce4974ecb58635525a93
fc3df5fef70cb29fbcdaa22c710be157
fc35bea60231a2a2a6ee69c2d24fba4c
fc36557b085ce07dd520e68ddfc1d855
fc383dc1b74b65102e079b22da2798a8
fc3a7171899f5729ae540abaa0308ce1
fc311fb40cbf8516360e31df15b40f1c
fc3cb1c95fc4ba554eecacaf558988d3
fc342fefccf8939dbd1d1c9444c3d8ef
fc31b912c3153153c676357c06e54563
fc3330f3bc141d986238fee4cc33fed3
fc3e8dd0a28140c907e6917127feac78
fc36cd086ca20b8c1dc1673e8d3a4f46
fc37cd58bda432a390af63798336be3d
fc3d1c6c47a66d7e6256052a164449f0
fc3b545bf58a98da825cef810b79b019
fc3b314ad6b2dba77240675332c2b6bd
fc3bb954325765a53363ae4b23b14e1b
fc3eef5fd695cc520469a600d15668bf
fc37cead765695134e0cc04c12c68da1
fc337dcaa13cf2bdc1bf70e6a743887c
fc3f6eb02dc69b62034adf0a493cf4f7
fc34db6e6d49b7b8e3db4a47a225e959
fc3a97fb791a25209645cf8f5a174e4d
fc3440c569668a183a075b23343a15f2
fc38a36e5b440fea09dfab77a13cba2a
fc36721a56d1008e20832298494daba3
fc316448bf38017dc8a4f2694a685297
fc3cb03561788b3a19cd43b4689e1857
fc358fa27ca503e511b43b56e7d51b00
fc3c7e8b23a48fb839cf7652ee4efba7
fc35e3d8b9e8b29f92b142ee02c7d240
fc37129d445efe0b0c7b938c0f5c5c70
fc345a6221e9f96c543891a0d83aaa3c
fc330bd81d2f4f22ee6a9482e2872b60
fc3c2a5250b7d41b68c0b93cc4d4b584
fc3fbb42a64156931b6a11f2623b0449
fc3af585ad22f55aaa8ab0f00af53c3f
fc3b509e458a2ac4b4d36f3721527202
fc34d3bf7e586464fde30ad2bfed0ed1
fc3f3d3bdce8270e597fed3268d550e2
fc3ea61a6be396bdbf192293f50c79f5
fc3a507f7edb1031601c21f064d86ea9
fc340d1005f7db0586472a05d72bddfc
fc3b468220840678d4b76788c37f0940
fc3242f7781fdad7f7268dfc09522f02
fc38724f39e18d8ddfb5688738f4a524
fc3d4dd39f95c191d086c526c59d6209
fc3dadf32cbe79e92f61960bc8633802
fc35edca7a714986f6b319edd506c747
fc3249b7fd7fa0d659132c6e52357787
fc321c6d0d1c7a39e1049903301af706
fc30fcc567b2da14cf2be151f5763084
fc303d5492986cae79bba135b1116f1d
fc399ae19577080640ebc510e5d2df65
fc3eaa1ff6a808dae012839902c482f2
fc3ce02ecec5a065fc565f094783de1b
fc34dee9842bc3167b1be60a51a1aead
fc368d227c4b0e07f24821a5ea3ee56d
fc3a3f807538bb0876acb9a8b294a923
fc36a0d7cec0cb4621fdf89691d74c86
fc363aaa05b3d36b95aa92bfc6f750a2
fc3cd6e9304de499acad9a02d9842e9c
fc3287e595cd56615d67ac03c1fca144
fc3ac4c3600db7060ede1d26c5815a67
fc35cec244c579a5886b202591ffa0a9
fc3279a4bb656a7f2c391f72fd2b259b
fc396e3cc5c8e8de45ed253b4fd61bf7
fc32e72bd6a6720ca429f5747ecb7357
fc318d01d3a89d3d8bf8dcf8eb897cff
fc365c1fcfd18c18d7fcb22615037526
fc3ea13be55675757c8f870b80f476b5
fc3647d6861ee25fa0bb03c41caa0e70
fc373fae6eaa2d1afa14655cff680566
fc3270e62dd58eaaa01e9452cbba47df
fc32181034d7a6b8f9ed4decc7a0c396
fc302d0c42751771a67d295ab4fb834e
fc35f1c4e0ab387bf1f6a360c0c05307
fc3bbb9c8f0803d65f20e597b6eb2a7d
fc362f7633d6b62336f5cb3dec3db2e4
fc3d9845f96de6bd38e899d80b4d2561
fc32e168f246de3fcfe37dde650cfc85
fc39398d38b6f60646d23490138c91e3
fc3210634e1a677ac9e6d0b3b3168f4d
fc361561ca6508289bbb9be0a6cac751
fc30dd57fdbd829c83c7a6ecf5ed10bb
fc38df7ff2b1c7aac16b8d299a43ff49
fc37bc2b927987ecf3aadcabd5abfd02
fc3198aab9c6bcd2d86738391d16c5bf
fc37abaa08967e9f586a236386944ff6
fc39662c0ada2c34a2a5be1d64f48ba6
fc3ed80e42dc154fa57671f687538ef5
fc3fd602f78fd8dbdfdf50045a5685f4
fc377d5dd6d09426d0df1c6a4072b853
fc32801097c8af4ad8d19d0ce38f780f
fc356c0e57a08c8f72ecab733929aabe
fc3d4c97aa91477c1614b7fe275628c8
fc3598bd3f7059ee5eb2cdbac4b5322e
fc35ebd38a901b79dd21aeacda884d9b
fc3a3a3fc2e5a44acb49b920e5cf185d
fc3205fcb304f7da537fe29a1ede89b6
fc3247d795e8a5f9272101aa9df673aa
fc3fd750f5380842253a2534a7f940cf
fc3451597300b9ca2d8b1ffe10a280b5
fc3bc4da61b0dd6b90cf54e44a1895f8
fc37b9b1a29bda3e5286cdf27234b7f4
fc37f89bf0362e534e8bce21e1225d63
fc346d371904a81ef420d3cfadf29d2a
fc374b54258378ffd31c880941d67eae
fc32deef6059cedfece87fcdc5451c1b
fc30a48a5a9499bfa569d48d0d799ecd
fc38da64ab9793dded9c7b9174658603
fc3a230bc6f93395c0c8eeaf21e30f8a
fc309def7a8f39bcbc6f9b40d071b4c8
fc371152bb52a277cf65bedfa45b137e
fc362d24b3ad5d639b1cb423e44c46fe
fc3d42c6e88d018692f064e0944bab46
fc39e270f967de118440f263259c5385
fc39a9d861ec0abe29f44088fc30b040
fc3555cc80c6391e569244a4bb458fdb
fc33885c05ece3e63e77919df4f535f4
fc398301f24ff375258f8726e0e385f4
fc3ea01c294e6fdca08a5a5864c466ba
fc365553dd3b2c421541e43d8608c3e2
fc37dc8f9c71fd74cc44914812689e55
fc32c6f3f9fd25b6633b8598570f5921
fc3bb90c7fe2de8e9bd78060b89379af
fc35d3a7a5648f97ccf5b440dcbbb032
fc3dc4343f2a10e19b9859883f970b81
fc33876d5d886fa27b92d756fb2a672b
fc302f0238403eb5546c7219c54cb217
fc356c8e82ff633116161d6d7ecd58f8
fc321f1783355976d000c2795479e71a
fc378c7786741eaded875aa5ff9fef8c
fc34ca0ca9b9a74be8f59dac0eb7ac76
fc372322f509670307e6f4c74ad364ce
fc34d02ba37ab3a493cb8504411fc4d3
fc3a3006a1792778bfac628150f81650
fc3f4e0bd1a25b50eca7dd3266398b3e
fc31b96d71c9dd304ac4acde44cfb1fb
fc391e5a6f186f8aeb68d85a353a2f6f
fc3a97777518304c18ea688c50a6cb22
fc3d963cafde22418f87af4d7981660d
fc3367a1f19447fef19d6a2a0d8f94c4
fc368eb9f0c879dad47093fc76055784
fc33a15ac7faf2c93311a4e5b9646a72
fc396418015170711bbda9bb8daddd92
fc366c5218126ce8d86d866496ec4b35
fc3dac5c0912603268a02d4f8aa858a8
fc35b395f4e0d0ebf7ac59e4a3a9e460
fc3e68de4207400cf6d0b3e7b82facdd
fc336a9068231a29f21fbf1a653c6cb9
fc3c422abaf450e47cbb8cf0e49ebc83
fc389eadfe8c7a27833f7521fe1b3fc7
fc3d56451d4e4d2effec54f6eadae458
fc35a7c8c35fbae48397f0838cc2c599
fc3c1a8ddfb1c2662eaf9626f0d109cb
fc320e9cb947849993da203088765a6c
fc3600047ef1a219e460d3fb8482331b
fc39db8247150282e49982a67212123f
fc3a3ef2102471a7c713d84795173704
fc3584df04c21ab1bf2db34fff9cbd1d
fc3b98d449afd25539986aa959d7704e
fc359d525185781498e02b28b170bcbd
fc3409a03b8f46c2c28d5ad24a7f8ab4
fc3b52329263c2d708b48de7ded657d9
fc3e0d623da50af41feee0ae2e8a0f63
fc3e46e67af23c0b69f9a96c4d878893
fc324d372e9cfa659db4716b6c3204a5
fc3997ae04bfb5f0ec08e5520b3217f9
fc31ea6aa13a3b7b2f7493b466a2cb66
fc392d7d4fefd7eba59d51b7e1a2c050
fc31b16c935a5359800b174c3a47b2d4
fc34859a196b0e0ef71c233ee6a2f845
fc3bd500ea4300ea4e2194f98fa00758
fc32a6a16421f4a2d3ed3d0c1e3de6cb
fc31fc6315bc2b94d66e8b68ccf673a2
fc3cab6c9f05582d16e73d2142912314
fc33d02727f18a6e5317bf86f3193d77
fc32598798e01b3453300790bafa26c2
fc35e14364fc1fb85078ac5519f4885b
fc35a3a8638a574503baa8e61df734b1
fc3e490337fa1d0a104d14858b6baa61
fc3126406c4ae97fa455deca50795bc9
fc3f8e3f6720c18b9b5e2ec6221c6467
fc3134ee6dbb925822af8a1bde717a91
fc32b7b1bef59c21d623aca6b8039c64
fc3d39ab83562338966a8d00d791bff6
fc3e73d17e92cc3b76b62920cdc5c0be
fc36af769b7bfde078ba3dcd96cb715e
fc3b0efa6d3b9e13c6b1ce0faacc4ff1
fc336b612046ae8d2a3f5d9a25982814
fc3c2996d623625a8403f41e791d82ce
fc339e4b254ffaff2d47779d8b58b427
fc33746bfaac5b32d3240528faf230cb
fc3cfc52794632ae0bcbc4149c4021fd
fc354dfb3ca72bdc3d7857c524c72209
fc3885b4b7c952158d33708ea4df5362
fc3eabbc2385a514534ad45cf7b2d688
fc32949b80316e61c2e31f486fd22ed6
fc34af1445dcfc618b65c9c5433ce756
fc369b99057919913737838572dc9fd4
fc3f4753d5cab61198d869e28f5a0548
fc3434697ab32d8d4ac088134049a4b0
fc37f975b11921177b86fcebac166861
fc3e272790d20c3fb2522da32e1531f7
fc373b34e48198721baa03db2ccd0f91
fc33c5b9a9975ab3c3504cb00a98cf0f
fc3ac971e0b931e6dae85a3f3110ab65
fc350d094382095c2479873b26c02307
fc39282059e769102e7c82dff3163205
fc3f221f28105941cbce9341a170712d
fc3d58bd5ea02f4d1468a067529ef4e7
fc3aa2de8a6333e43293d2485772b3a5
fc301ac53637e4ab7e140651c31aea5f
fc34f06c1eab1aced09672cbc619cb11
fc3bfa9fe7422d63ba35bb74ab1fdda0
fc336301617250eee03a84792bada510
fc30f3eb04070bd9d51723dc8030c155
fc31e7c11afd28be7760bfe8a2d50de5
fc3d20c9642c2118d4cb590dd3b5c235
fc390f2772ca88363e79a676cfd70f86
fc304cce861893c3a5ca2998b4a921b5
fc30be34a93bd6afbf49ccfbfd84c4da
fc3aa9e4874d94f356bba8fb7c3120ab
fc3586e6b90713321c943d46269e6ca8
fc3d30a438921bae34190f25d5c6dd53
fc3bdc579048c21b431454a46643bba8
fc3bb95439e9780c241e77fa8018f611
fc3e14856ccdb2d4d47140912390bdf3
fc304833489c6465b34006b7a254b988
fc3d9b00dc8ab305e0823fb463e193f1
fc395d0df983032d8a5bf758fb4c1e86
fc36be2fe49053c1aa42bcfd33423dc6
fc3a9eb639c65a851c1ea6f6a1abfd21
fc36ccebef8a85339365704777f64c0b
fc344607e0ee7956aab046e4013cb510
fc35adb50922a35f32fc9283f0fad2be
fc39df893e85a4eed8022372de53df3e
fc3f1eb045c90c32214d9a7b8a17cf6e
fc3a36307f0abfe4aef9ae62d937380b
fc3c6a255d0d46175ba51f63ad9a4715
fc3ac4fe485ab3a3f48d8a952c10182a
fc364f87f033993e5026ed33586b8bb6
fc3d456813810a45e1adac2d04a63688
fc37f2d1da7d56642fd9915e205ec8d7
fc3ba764a1f6a6c06f5215bc5cf21094
fc3fda50f241bcaee1082b3ab4e3c1f1
fc3fd912ad47ebae4502e3719e2d3183
fc320326b8e626f41635055cff242036
fc37d0c5d844dae46d275e832033bb10
fc3c124be1275c6f5e024279ec92bb3c
fc38f83eda97333400694667db27a399
fc3d93e789b9a4c21286855a468c2ba0
fc3d83b772dd436a18b8af278ce3efee
fc3378e4cd5d834c1964d1e5199a36e3
fc31a7598b775b91b6791efd83caf379
fc3ee8a1364fb6eea850214d236f9f3b
fc3650c8f24d13d19353cf3e6b352e14
fc3f7191be3d27c4a0d73d3a7c21ce8f
fc3cb8619bdd883271df57baf48a7a3b
fc349a7978eb18f11cc7e81dd94661e8
fc330ccf7e0c7cd6052724a1c4e9eadc
fc302cf1d76dcc96a6eb6f77f327e744
fc31f7173940f29e520e301d023dc501
fc34e44d6176fb0c6b64f9e8f3fa08eb
fc316748e25d2b09c5fb2d3e0026dc4f
fc32e13111d94d79370f75d18be4c76d
fc3d2de27f778f66e194a83dc9523cc2
fc39b6d1fd8d83137b006015f4dc063c
fc3725f5fb3fc213fd84e12464f4ab13
fc34712c341afb46052ab6adffdce0ba
fc3a175e9331cc534f2fe101aecde38c
fc3e3d11966e22634eee6d05921b6cf7
fc3cdaf01f8b6c31afcd5c0d307e3165
fc387dd8fe9aac19829dc0f9dae7d373
fc3215f9c0080406be7b921221fac303
fc3b318d8a113607a7e87377fd5272ce
fc318477d041c97e03e54aedc0516de2
fc3fa3bfd1e84df6c074343e5568a33e
fc3983fc1786ee006f8b89507ca9ceba
fc3c6ad406c59d0a0c867bed2b8a1797
fc355e76dc94bee232ad529a792f53bb
fc362bb0fadd51f7fa70241a4c6b629a
fc390bb42e1a36306cfe73810cd48807
fc3f5b1e8a833157cc710f94e9a15df8
fc3ec0152d46dbad7da8782e04da54b2
fc337ac1a95e1b51332a21f5e18e8bae
fc39347899b6fed02d1eea58205b21da
fc3d980db8d713413e6246aae56ba2e7
fc32812c202ec01dacb62e08f5defb3a
fc343d81f2e3ae06c74a1fbc13a5b934
fc373e36353aedea11146fa692ab4ac2
fc3703a85bcb5627131a0fbee3a8582e
fc3e6169f44bd44f67b8c69183bf890e
fc34ab5846988305219b9e02255f2742
fc3e1b03a17edf9109f2ec4e1d27e956
fc377a086966eeba958fc07906678634
fc39a0c66e78319ab8ad15334923bcad
fc3e39da912b563a9e93231f443ece94
fc3a2ff3711ac2c65f31fa267ba5a5c8
fc36ab5c9214c121a33bed404413b1a6
fc330dee08dd125cbc61a221145318fd
fc39d6dd6614426f88d6996e1345676b
fc3de4b6366ac7115e8d38f4174b7cd2
fc35a42348544b851da4db2a428660b8
fc35bbdafa6b43089ca959c2e9455de2
fc33dbe07c422ebd56f9f896bdffd3be
fc3789afc8cf78fb4eec134859bfa3ab
fc391e6412bf771dbf1eb02191a5f724
fc3e7ae49e1655acc4de81f2af69a86d
fc35090f9c8556ffa4f322acca93ed2b
fc3f293a1b4a90314bd7c95bfa1ca205
fc3b05aaffe0cf908d652f40fd561446
fc3a97b545a0f9a473a580bac7595c67
fc38ceeba1e1c296fb7b090b9396052d
fc3dd130c0468f38294c29260558b897
fc3030cd7a09fbdf8c6595d726b5297a
fc3086abcd16e8198dcba047403166c8
fc3339c00bbcbee12c60409be64fe895
fc354f26da4fa12f0257333c6cf8fc2c
fc3ba6b3ae7366c24dbc2803df65a08c
fc304eb44d756e28b2f9637e9727b0ed
fc33bfc2c3d751534dbbeec49eddbd1b
fc3ff452317683073f3e2c9be66f2cc3
fc336369ed5ad15567d657a50c86c0b6
fc346bdc58df74697a2b310040862bc5
fc37c0a3b6e012b6f3e26432dd28a808
fc3e1218624a603ee9678ca2ee15fd19
fc31f6ad2af9cf026b3bcfe455e5001b
fc371944dcd883e82ed70eb1a332603a
fc3adbddb2e6533b1c12bb1614c7f45e
fc3f09ae59bac9cc4cfafb1c8aae34f3
fc3a458e014a30d17b79ec8f6cac1fe4
fc353e0b8bf1e4c813ecea5c81572157
fc377931df7c6bf0da7ca4ac975d94d6
fc316d8af55d96c6968b7ed1e3113170
fc389fe0b2421b522d89a46b570f86f0
fc3ffe6e9f71d29447c3e8e0f1f76504
fc38aba887f3212bb6bed5f8c2f7214d
fc39077223ce2190578943f3132c7cd9
fc3589de2f83ce47008e455147761bdb
fc300948e4dd611193ac02943b9ab85b
fc38307d4f31cfacc5699d68ea1d7198
fc33aa637c3587a548d6332f78c066f8
fc3498c316f3591dffa230f2d9d8decc
fc3ee22a404bc740dc2fbbefe07fb0d5
fc394e4caa31c202bb2c51e49fc359b0
fc3bc55516c249731d87533cdbb45480
fc33dcbc11dfd9a813ac1f2b870f0d73
fc3dbb354f4508cc6f83929181221f64
fc3837fd4bf799b8e68011edb7ea0c6b
fc3741616cb980627308ea3859d87184
fc315187dad0fbc85bdfffaf5e2fc317
fc3977db9cd23c5f7d8d98ce7137f259
fc390f5296ce1d2feea2334fd7419b61
fc3f583764de97a17a49b2f90097dcc4
fc36382a13349575e8d1450af92e9fce
fc34edced744c288242bcf2d14d0c0bd
fc33e5591d126dc80e89e68373b5f81f
fc3c1e1b90666e482b69ce6e0108a570
fc336a8b5b2ac8c050c0e78f748ef8a5
fc36a675f267f8380101cda3aecfbfcc
fc30aa4f47af57d5c8a3a2c4b2d03969
fc3425b3ad42c41ac75e722e7c82c346
fc3b5df3368a5914a5c73f124b0e5d05
fc3c96b75aa4ea04be0e9328f6dcf55c
fc3a0f8bc9d8a8095866d8d1ce3d3a13
fc337d9b02a76b9fb1690056bff75f27
fc311c8acdff5879cd3c31afb2a80e83
fc3a4ab0224c3a7a02c545474cd6854f
fc30cd8a691d1d0cd776218e2366e718
fc3a70c9a1dd46dbe9514d0a52b35458
fc31334c8b4cffac74e039bf82a8fd04
fc38350460309ffb2c8b4e1a5bae5545
fc37619239948ee7c1d2143bc5f4e4c6
fc3f86fa22e5bc7afe27895fda950d48
fc3aa80df88c28953ba8a468ff838094
fc385200bfa374b550c94122e7839b39
fc3359b3bd083a96a71b9907d608e618
fc37b4725060e962957d4577bcae7bb2
fc33007a4bd272dda5b5ebe87268b29b
fc383c9db5044b36e0fee29c2b4e90c0
fc307355191e9bea30fa262dcf27984f
fc311b35268fe8a9437b028220dc2093
fc34552a5fdf659e86c81ca5e89e6ffd
fc31ce36618e8a68d3a992dc13ea5f36
fc39787a93b7b414882817bfe9be8478
fc322e583521c813ed7aca36abfbdbc4
fc30cd8dd45813f70b4e5c7bbcb394a2
fc3e2588860b2dfb1215ad3ddbdd7a68
fc3eeed58b452145b68dfce5dd5b37fe
fc3d5ac082d69992c2eff473a7fe2c1e
fc33502ddef2fd29d4e5db99de680a15
fc33582fd487f354ae3c869154e87320
fc35606b1f8208c02471fd7ded68ab35
fc347ff3d7e1d6b4b56728db97b71390
fc387d3ca38bd29827b9b37d092c7e55
fc3a57ea4a0ca582e02c6f273ec9702b
fc33c9b3bda99025fef823a81dd58b4c
fc35e975009b7df2fca5b8f741def2c8
fc33730dc025be801be1a2eca9a22b20
fc3f00e941ac7809ed202e8c562ce720
fc37b3854f16aa2da1b8d326e3e09755
fc3f33c19ac6236e4e44a890ac2e2d9a
fc39c862f299b2397a119d5c26bef65a
fc3158d3620e2ed6ab8e2a019addd635
fc3c00c7e4f4624b0e01bbe5289e7b81
fc3fd8986953b465645bae1d56745b2f
fc33154faf4092c6e6860323b9dd1ccb
fc3a1d38feca2309ce6ae5db36120ec9
fc3a7ccd51c63d134baae7ab0733c0e7
fc32ff096c171c570f81995b0c69391f
fc3eb5726e2c2ad100e030ff8cf30a65
fc3f5a8e8ed1807b490f7fd97ab2dd00
fc3947ad64017606b521f62c7b75950a
fc3a208e917d3669d22e7196150788f9
fc31c973358be05a66760bad85ee1dc9
fc3334a1c128165d8912c2ded798f402
fc3e088718d00abd2c1ceaa535ebb4f9
fc3bd9286809a8a8b91aea36858f1147
fc3b7c158b27b2c01309633e29343d3c
fc3b88f747039303b6220928f18a6dea
fc3d3a22ffaceb194699af10bc2d55be
fc3ff07514f0933643c74516d3719290
fc3c036b31ea278e7042fb81881ffa87
fc36f58dfa87db1cdaeff1169cd93361
fc372a07fc7affaf3b888f2d5a7844af
fc301654447fe05e3c01ef6ec2ddb8ab
fc3dbd4ad881679bc7ed181a65536d7c
fc3807dfdd7d97d3f07d3c56357d8613
fc3cd55dd5608d2167c5a7744a3a676b
fc3a9c7ad544e04fe653a239959d4332
fc3003cb988141a6846d9e78623e5fa1
fc3b1bec38bf66cc95514e64277a2524
fc3707f46a20a73ef819dd7008fc3ad7
fc33279eca5cbd4d13ea05b5ca2e7ea0
fc3d5fe4d710086d332b2971d6cbc4a5
fc3ffeafdbc72ad500700c01ff306347
fc3e9e1f7841a0d24db5994d3e36eada
fc33462f2fc9f6c86cd543cdb74f897c
fc3f51425a3bddfb935b0df00d63e5c0
fc36b9ed07ec445feff80b8948269c11
fc37eef0ca40834622a9c12d9edecb3c
fc3e1f83d545c189d97050ed00c60540
fc374e70d77f58e5a24059658bcac39a
fc3f704e776275b9632cf453610e2007
fc3d10439a35e44cdc3d82b2b190d558
fc3ef121f220ba9ee7ca824244f5df7b
fc39a1c52d4454a8eb9e7d81edc56e55
fc377dbf7c153788438448cb66238ecb
fc39f3b3f2b726904db28ea349e20735
fc3d3ea6fe7becd99dedeb0fce181eec
fc3fc56414bdaf7e4860119c26c25704
fc3922cbfdba418e5c11e76f0f0e41fc
fc3358c88f9f6b943b62c293ed56b051
fc355ab5f78b98091d3ecadc902877d8
fc3cd1c3fd1b9b2f39a1e859cd23a04d
fc3825a969c07b867f6899931108cfbe
fc3e0d561877669724db56e5c6550905
fc3cffddf62a86ce5ea0d2a2e91f0a75
fc3a57a4895d33bf4ab67363babed29e
fc3aaf0a0e6b8bb89d555344b369b4e0
fc32ff30224f2807e8c29fa39099e08c
fc3074700755d40e4d858f8acb48753e
fc312542df47d7d72d1aadbd4f3945a6
fc3f293e8b03bb51707e7731b3f997ef
fc34a208e681667a2a0f698cfca1df61
fc3fe9c11dc0cb033d04b55b34b957ab
fc3db6aa81e6f6b9d3e99f441e8d4897
fc340dcc76e7e281f6ce63024257995a
fc3b52cf326bd1983df1d247777d9024
fc3dfb1ffed036aa114a7ac436fcf62e
fc3d5c6f764bc5b9c844c18abb5ea373
fc357e6f156d0d2097d9f2c3e5add6ab
fc3f30b017eeb0f919eb59bc2d7d072e
fc3bfbbf0f7b9ac760104967a3bfba6c
fc33fc3cebf67e248261ffcd54520cbd
fc3a13d057dfec357f9e4102f71502b3
fc32b48e1895d9558b81df0e7f93508b
fc3960892db36120d9af54f0f684f271
fc3d8965d1aae0d1261fb533d84092ab
fc33f13268be4d4170df744231047ea5
fc3f593d6f4586622ee6ccd0a998cae3
fc3a5db3014500501274ded78fb6efbd
fc327340db43ab24c51a889c8527bf08
fc3d83a65d83bd8a335b307303af5d16
fc32238d752fe343a253d6dabe50c228
fc3cff70f76f70ad6bb60ce7d904c186
fc33254860de5166b373a4a501ed1409
fc300f0a6aff0883b19b7da807fa2cde
fc3a49b03b479ebc955bc89619a8c27b
fc36fc85641b394f73b95d8cc8201a28
fc3c779f9f999c73cdf6ba45b439149c
fc3f7f3fbe96f95e1b3b29adfd139aad
fc38efb70222b696ccfda8631a915552
fc308aa5574e400b9af9e529df171733
fc381dcdb65ec7a35a1d3e25c3080c5e
fc3181f59a9cac4290ce2e51b5fa836c
fc374a5fc5aeead7619a4148b8d55f5d
fc3803c59a3e8e0477a72a392ae029e2
fc366ebad4e37a12e093c120fb2513a7
fc3b948d6d40fffcd699620c6d93dcbf
fc33cd168a3e35df68b496df6b0e0294
fc3b959ec46378f1b857cb5d1ed6e73c
fc37964aa59ccd413747207610522c34
fc3f101927d2ddd1f734beb7b8e3cdbe
fc3a2a744b4c47e1df409ab098b4da26
fc361ec59918e7a96fb64b032cbcb23d
fc37a128267cc4d8bb3c76771cf31080
fc3ad3f949e19ec81357f673d724f267
fc30871024fbb7e228d75b1a41a05f1a
fc3792c82b4c5cc488d14407c04ce9e2
fc387e7171e87d814e425e0f5cb0531c
fc3b264630915a7bdf7b43887b8ffc18
fc39ffa609dacc641e1c7ceecd626aa3
fc39c2eed6594b6720707f2deca36e4b
fc374811a67604f7e1854423329e93c0
fc3905580f85871334bbb1764b7273f1
fc3ae53e7a97bd68c473b538f074c318
fc35e61c08a2fb508d53844140a90754
fc34b975148762f2a3fde445af8527f9
fc3ce2e293336e21b8c7226cf543558b
fc3f956f578c0d252e11205dd2415f81
fc3fc731c7a8c8bc3a81b8338df2ab59
fc3ddfdf9c5ef6280db224ab72b3f1be
fc33256c4fd5d49705b864b5663446d1
fc367a5eb6a6aa643304b639dc5552f5
fc39248d5d5007c2f10827c0ee2aa088
fc35f04b8def11ff7a6cd2d3660460ba
fc35392151986aadaea01314b9253208
fc37f3fd147c4bd533af0195ef5d7ca9
fc37b9867bc77368e6f63d38ad80a9fe
fc3a9fb0e1f9d8d92d961e5e29cba064
fc35e262e8a2d89a5f6e51a6940aa5d9
fc313236860453f38843d86b98d10596
fc307041fb7303e79b8fc766d9f0d6f9
fc32a45f44445dbf02ddfd71de95122a
fc3862375088b93da5d876e97db3fd59
fc3ad014c96f04143a7843c46232da6d
fc3bd9cbd468fcf07bf29a77165778c6
fc394ab4a96de941f0021adbc48a380a
fc3ffea6d612dbcad0eee9bc80ffdb70
fc3d3fcae9d396e210debae4b2c56f8a
fc36d93af1f0d9bbe12e92612c5d5ca6
fc341099f3e727d862f8b1f521e3b129
fc336c07236325ad518b1d58bc058029
fc3304cc1ce82436b7206110381e4b71
fc3eaae9349b2998227b9a8f25fa3769
fc3239cd46909aa3daad5f89fb355a1e
fc3be74c8bdaf639a8a65ef08b8a629f
fc3ce8890e2c8a5170cf01ff458c54bd
fc34314015dc88f350273131ab296be1
fc396161c73156c0ce30fcf8ad68f996
fc38913789eeb11d6bd10b28a0f470a8
fc39326882f9867cecd66af542c62a2c
fc313cde01a40edaf1a63623dbfd58d5
fc3119724bcdea7b2071bec7d49f6582
fc3313be75538ca796dde1255477af52
fc3b6b19f7937641d5370e7e034fe60a
fc3bb83e2c0e04ba34c961df5cb7d8f0
fc3509df2f4f19d5401072414dc4bd2b
fc35dd1d10475013baf4dbe5d698e25a
fc3f63c016f98de39d462de5b2805b0b
fc355fe0d5d96c3a4a9b05321e63ddfb
fc3348403d040a202ed566c84b3b9209
fc30d60d091fef10fcc9bcad9fee8917
fc31d59cdd4f9e4777315b09848caab6
fc3ab81b6821f0875503414b1fda5e3f
fc3e638eb0a717591c069f2a05d77b7d
fc3bd9ed2a6e5a3501190565206e351c
fc3f46751a3efc8179d7ce2e6322bca3
fc3ba3a895e0a81bead267022f12b06a
fc3c989b1ef4ddb8fe4718e02d6328a3
fc39f75afdaf190a1901d3c2b190da0e
fc3fadf1fb132450db8f84723d10795c
fc309be3eaa520a129c4d251e2b9ba46
fc36590fe73331ca5ec7c2ded1328387
fc368cde847cd6bb6f5bf4d870b0638d
fc3236a25913648d18091ad97914b34e
fc307182c2d5b2431987ca62eb350aae
fc3df67386fd16c90784a1cfc41f79da
fc382c552b654bde7c3839d892f20dac
fc34839ee2792c7f26ecb76ffb2eef10
fc3c6cf927c0fb62b146d81e528f7ee3
fc3f18f8f70b7d4a17567ff4fbe81b9d
fc35563732738ad5afc7579712831bbf
fc382bc233793976e2457f215bae3a60
fc34ea2157ade7c545f28e28571373ae
fc36083f281954de6b62238e586e98ea
fc3045d7d6d3d8f9c9b7e903e7a07d42
fc3592c1d89f0f940184cf277ee0a65f
fc344fed5c61b77e30fe6eb596649656
fc3ccffa39f87f257c91b1bb475563a2
fc3d518807f9e37f39c1d363a59db4cd
fc3c28d543883843078329c803cb107b
fc34fce61757ac1690bad880b849c981
fc3d42dfdb21bc9dfefca0b17d6aee59
fc391c2b9c73032a0edc49eb52ff65a5
fc3a3a6bf5e21b8d36c632536450c932
fc3b222891f66d9652b5eed3c2e38a70
fc3a56d8c353b8bc2b92b6829ccffe3c
fc3d6e4213c9ce565239e909e3df80d4
fc3774cf5d0c624d1d805106a2e799c6
fc3f9de1c9bd734163ef6097a3d3932b
fc38d19d25f78ac4ee2a27bd5d9267bd
fc3de209856e8d2c4e7a6edfb669b51e
fc3e552f63e7a682954443adb345ed7c
fc3555046227395a43b3396096a4ebc3
fc3a6c9b0d9d3275b3968f9be5dd8e5a
fc3937a98de1148b59e8d53ce2fd49ae
fc3c991ca7c2fb9740f493dc10b326dc
fc30a51b92dd3a3dc36bd594e507bd83
fc3305eaf0dbea6433753da8777c75e4
fc30a527b5f94bec9c845e40c442d480
fc3e92d5751ee81f8e38840129eefbe5
fc3324fa87a4288542c8ba79a358a9d3
fc3c9bf38a7cbfdc114b7a0d1bba11ca
fc39f85bb47a35118cc675412492b286
fc384ad16a35253c0e90c61262d50592
fc3c2edf3d9eef0cb1be9e893eb66cdc
fc33a3161fb379a643c45880d5e9cd26
fc3649724c247bd39394cb82371cc4b7
fc3a692a6b25f0e68646878aa14445e3
fc3f356de5f11144e1e3444548f056c8
fc399a042bbf29878e4229fa83d8dd76
fc3f8f2bb7448a3450c013b6a677c1e9
fc3a4acb155866279f5c5a2d6142ca04
fc3f596e2d2e7b13c1a168922ef37820
fc324dac96701670bb718fd8a05c7027
fc36834b056861aaae81387e4bf22b07
fc36f5ecd098fe3698ab98bd2750495e
fc3e54085ac9b58a66ea251cd5226898
fc3fe039e732551df08cf31a7d911186
fc3e54c3d7a8446270ae749b6e5a652f
fc350e0d6c96e43045d50ea4fe568f25
fc3cd17321af50c794c615015f41e43c
fc3f714b19b8cf011a27ec39ab495f6e
fc39d14f1972acf8598f36ec052c56a6
fc3eadc746938c655f614f4a45f743ef
fc3c47cda3296791f7662dace677b75e
fc36f5377f5871dc7ba1a50cb1d00bc2
fc31937e37e951fdb2a00e03d1bf4ad4
fc33d5ccd7586abaa50add3ee5b22f51
fc3535ef2eb146c44d7cbdc73ad140da
fc302455a92a4fa2e618a265a8bedc03
fc362630b004667001fb23a2b52d3386
fc3d0bf52a01e3522a2b25c14bd0e3ac
fc34c73c3e371ddcb83f253b6397489c
fc3627d052f851294f700f5422b50813
fc31514e4c64fc0dfcc0de500e319345
fc3c2428e0f8ee87e54ffad13acae5c7
fc33504880e9ae1ddc3d2c0ccef129e8
fc3f19e68b70a266992001409e221fc0
fc3f16d5da90c0fec068d5a0e971427d
fc3529f5db9727d231469edb4d2b717c
fc3ca69b41194041a022f8f5f1d56480
fc33bc9f2263837d56527ab7c66dde23
fc311d1dfc4d70c29345069f7d92e52e
fc39ff5b10323672b0f3b1130b5fddfe
fc3ec22c0a678cd203b1795a13fa0e97
fc35064bc6f7beb6e6a09dc12899d3e1
fc3d72c99f9b76a31095460c5cede376
fc373e11fd7c0ad30f3d53edbc100dc2
fc3eb693c495d6ef270949eb604d6a10
fc366809a9abdbe620343839f8ed3fe9
fc3d14fd6cef399b469f39a86f3cdbea
fc39f7e2d18a9b50f811895cd1a208cf
fc309e95519ea64fcb3b0fc309ec0347
fc39a3cd6a6a1e46e92019ac07388b13
fc33c8576995df06ceb6d1d6fb71c154
fc32054b1cbdb55ab8668fa08cfafb49
fc34aee7417336b98446fb5ecd54c905
fc341461e521eb5a87d3bdb4ddfca145
fc3e9a49401503055dca3f4b3937a413
fc3bb9d3d0b43e6eb352016fac1f7d63
fc3444bb1a99cbb8cf2d59f8f80ab9a9
fc397668ffc326ea3e1a4930324c5177
fc3c18a99ea56e02c483d3e74e4cfa4c
fc3d44ff694628f4ed9d40585ee2e81b
fc395b5b850892ba43e3e098cfed2c36
fc3b679923dedba188e11b2a9efc47c1
fc3161af98687e418c0fdc4ec254786a
fc36963b2ade8490ad392e2705abc7b4
fc3ce4b424b06977f8d06471c5aee869
fc36f3a87e38f31c30a3152bbd56018a
fc3db9961cda4d0642a38d1ad3f85a9c
fc3d0cd05c3a01a0a156ba2dcb1b04f1
fc347f59173a741ac250ca1bd3d5c241
fc388cbf86da3480db30f64dd172d5a5
fc3639d1974c16b6e3f2117cf6620c07
fc3dc09aef47ad405c44d251c26e30a5
fc302a503b6332028f79e7f23f2e4535
fc3e95de2b45eea752c78a7d2ce32a15
fc39f3102cbd55d31ba13a0526cd330b
fc384709e85e55db1244cd84b4bba2e7
fc3bf84be21ddd8b49c6b3ca33e9c3c6
fc3ddbe09952ed017e14841e57dcc4f5
fc3771487ca81a89d24b4939be7e3d97
fc32adcea318dcdd83c7e8756785fc82
fc3a237c11fe825d730bc834afb90a61
fc3960e0f19de1e43f2f5caee4c0112c
fc3248955c48d869aaaa7462ffcb144a
fc3480cec2a49439a35b3eeecbac98d8
fc3549ba647ddac25758cca52ce24579
fc33cb22674b4cecea567e296f76d34c
fc3fea73d602c7a7e466560eed5b5645
fc3637ca6ffbe1e9f555cf672498bf32
fc3e2a3a22543be20b9455835f56c9d4
fc32d2131d63ef693891280c17c94cc9
fc35600ebdc5d05532b1a5eab447835f
fc3aaee5c283a9148c0f7b511a419814
fc3997f87c1a7561e87395d96a3a91e7
fc318c11162177906e91c7ac37235526
fc3e446693f15c43227d3d968a3897ab
fc361b091d0f24b0696c8993ce4b968b
fc3376ef49be52b7a4b64329176144b5
fc3c0cd25c1332b7629086d623f0ad30
fc31701ae7f53fc3b24bc6695317346f
fc32b147c8f0caad19b860b911f90117
fc31f9091ffce9ed75d5965f83df44bd
fc312e78e000541f466d9b691f9b1e7c
fc3f043398162aab5ada1f4fae4cee65
fc3df5c5420f2849f90a5dc23367a68d
fc3ae7f8578b752b69133b4dde548bf3
fc3f7b4e06d88f78229e1957c323b466
fc3a2898079d2fc12198922d5bc5ae56
fc3492ad749cba4ac801795f14f8db00
fc356714806bbb4c8dbfdd3205319025
fc34d0bd983ca337c3466382e3d7d796
fc3aaedbe8e158db9a3e2c540f744ead
fc3008900b451f3ca416834196da43c9
fc3689e45ca5226d7916b52760380930
fc334c37cbc11158606516da1415003f
fc3a34ce9f14bbb85eb4aa3191afaf05
fc31e2b46575f25f1fa9cd4b4ad3d99d
fc352c55b2ec404c91c6d7425dc63ef8
fc3457d1ca72d054ecd86337f8d2afd6
fc309a92104917d0c1326f0f5ce55ec0
fc30dbcc79cf1de7e7bcd2a40f34b7ce
fc391ceab9653d6d6910a039d7ee0c58
fc355c47eb2c0a2db1515dcc145cd18f
fc3673a786bb89d0e86a2284a710c672
fc368d0b08843937c8018443acc1f0f5
fc3e581f64784a3405a4ad543c33c7d9
fc3a62bbac927b1707472296018b6370
fc32caf9e74ee4f9d9c7d0bf415e33e2
fc33aa9e92ca6d9b0184e8ac1df760f7
fc3485fc86670800cb92c34beef10387
fc3bc0465661e344bed05a8a9403a401
fc3584df8051a0ccedc3e1c341e71447
fc33f63a41bd0baf6b524a2efa00936f
fc3fd34864f9bb37d7727cb8e954d714
fc3da8c7d4f7504a5ac6d9548907e6e9
fc334d0b348ebeaf0d52993d3f18bb09
fc3a9efabefabff906af2db184eb04f2
fc33ab0ca6501ba44b2d4f4d85be92f3
fc38546355ea462bd4ad3a59660a7090
fc3b37832a9708d0e4144de0e8d352fe
fc36b0edda637ba65ea659a26765d43a
fc3ea13feac971d38af8a44152be91f9
fc3bf422c3d2593478421ad8c2906cf9
fc32259d9117c30dec619c5b7d1ce48c
fc31884b1e4523fcc93c36fcbbe50985
fc34c6ebe36faf760d2200ecdea9f8f0
fc377f4034eb28ac1212e42dcfb086f0
fc36173cdbdc486ffa54837fc2498cde
fc3bd4028bdd1d32a14197786600233b
fc3fb3adbd75ca16ee39c91a7aa4a997
fc3da580fe34c87ce2b38611f8ab2a4b
fc3d5f6c2645612f75c31cb412050ea7
fc3da911f5191a766cdac647c7a365a5
fc3151488a2694605a0e1f4e719db901
fc33a7f2516c5aa0838f970578502957
fc301b9fe079df38467201319cb2c501
fc3f7200a8ff1f7d785dd6a38b0f01d0
fc31fb45235890d66345cc55f94f4353
fc3077b2cf3247274084617d777319ff
fc3a1760cb9a1a7e501c46ee6bf881d4
fc3fbf25bc409f2137f9021a383955f6
fc360e21688a42f7632b492105d5570f
fc3b7425b41cc383941ad6d73891de20
fc3214597290b517894c550d3c645295
fc3066b32a26478e917a03a795987776
fc357716da534ec936423a66864194cb
fc348c1fbcc6ef07590f7068071583ac
fc341f0f89184a5770db0f084c6040ac
fc315b36f0b3d0474a818c16f021e59a
fc389f80b832f06523445e1d68e29b69
fc353819f550657ca1a00f134bde1c78
fc39229fac7f3ce3a3bb18c40d391efe
fc39275d1f8736e6d7fcaf2f1deb259d
fc377d681ec6de26383e0f065a765825
fc3393bd957dda676ef578ec12d88fa8
fc303f2b5a8edddbf3663f5525101cf3
fc36a5036529e4711c3998e574784f3b
fc3543d8f93274b758fd5fcd20c661cd
fc3b4ed2d52ca27e7d7d426494cec118
fc380ba2b163b06118d6de4c300de799
fc388a2a7d96604d3b4ee10ec1f8465c
fc3abbce6624a5931a5958e6189380ea
fc334cca280786295d259ce5879fd03c
fc3e4c512aac952747871bad595ae605
fc3b945bff03a017091449d0312710a9
fc3ac7d8e8b6fee3357ac8f391f9b62d
fc33dc22a9399e50c35e55f5bb4469c6
fc3719a086bb17b1dde094cd4ae9ccc4
fc3d8e3f23b6ff1447d938f19a57e809
fc3e166c19e6cc71ec042043c0b780fc
fc3b12222905e68a7070a0484d253a8f
fc38227747eac962344f655b961297e8
fc3bbb7cd5c86caa22d9ed5f8b39fad9
fc3cea2dc038601e84e62b3da26a0abf
fc349636dbde1df60d90e2cb473f2e9b
fc3e10772ac8cc319eb3c2fb0869c6ab
fc3035fabc08cd90ca7a6f2af84e9dd3
fc3241a206d675b39a0bfd88ed086ba0
fc3eee074f4e7402a6d6ceffd4273375
fc32cf4dd3fc2fba8c05ce4ad59f1f70
fc3a82e7e72b59da7ba27447306bb6ce
fc36374612f35dd908ac6f7db6ff2d51
fc3498e47d1486e0479836af5c7413d5
fc3adcc8126588e7ee81439af07fc0f3
fc39792793ddd36b1515c2431db64577
fc39ef104d32a791d4d60079f5cb60fe
fc331f503d9db4d96c1a64966fbbc0b6
fc384f588f211c892a2e6c9de565d93c
fc3cd859ecc2507f748a96577e869770
fc30a7c65dbcba12b572fb072e0964e7
fc3ee90ac69f6d45e7725a2454eb46c9
fc3fb0d2a25df84f98a6dd097f872b0d
fc3c1ed21c13de56d1dbe78e6feb8533
fc341c2e2aff53d3e37299586eed9c48
fc3a5cb06bd85e6b2d551a14f2d6dfd1
fc38fec85eef4533a1cd09c536233bd2
fc3ca2514fadbf70cec0afa279237213
fc3d335b3f846f6e6108d116d1759117
fc381512421c95092db91dd968148110
fc3d624dd787258dfc70dcc9444f05ce
fc3d02004f0df7aecaaa2664a4e8ed46
fc3bbb57f9aa9284ff82392c9c6243f4
fc38981da96749ae62ec6423f454bf15
fc3a5ae267d958dfdbd1f0c6a53a201d
fc3b8c7808a52324a5a86561fe8886ec
fc33172ef797bc15c85719f70f668ee0
fc30f4820cff3801626b9aecd031fdca
fc36c07fb7a85d37116ff5002894447a
fc32a4f426528f5d36aba29b2f3dffd9
fc3d5ca5402cb3f7be0f0b323dee1976
fc3ebd31096172c20fe03d646417e4f8
fc38c996a1018f3b5f1da1a8f1b32321
fc3a240a918184d311ab7d6bf67f68f5
fc34c24ef788abf4f2ba706d7e6a98e9
fc342bed31e9d47b403dfd862e9b39f6
fc3461f4ae8b236d49b51852fa48c5c1
fc3e14645f72803b96ca7717bedaad7e
fc38d358be9e9a1b79d96832a4e38403
fc35ec94a3f0b77f1cc1fff3f9ef29b8
fc36598efc7ffe81b485deb47cfcd7f4
fc3050ef976b97606168e22d3ac13d1d
fc3f8b04a0817e01b75d69001deeafc1
fc38445076921df8ed9917a1106da5cd
fc3c0e4dad252ed0d46b51f958661336
fc30cde5c71a607907eb847b153b23d5
fc3f3b517ec21d246cfafc7a5e550ba6
fc3a3cbba8609a54f8cc68bff1952ed4
fc33fa9155eff2511190c673e07f10bc
fc3e30ad6b73a88650c519a74493d0fe
fc3de1dfd41002f35e6b24a35db84360
fc3346387366c62c8077faaea498ae6a
fc3a4c346deadcf5d580fb31f9088a9c
fc34d52a2e73b84b0ce4c8192409c1de
fc34a0232dc106a25d8c8f8edca637ef
fc3fa0b7d1711c2eea31ff38c2cb4114
fc377e9887aad3252efc1a3d352323ef
fc3c0931a8575b6918075f6f595638b6
fc3088728f6dec82b788a282f5c6d0ae
fc3ce2a5caf1046595a24b6b29e3d481
fc3dba0d2ad4c6e7b290a692cca71715
fc3aa3b7d8ff0060b195fc53e3a1c0c5
fc36f84d17f90eb76c35663cf931d412
fc3a9b9165a3fe3ff594c16b942b2f6d
fc34ff601f64b0a9a21db82d0e56c283
fc393017f35db95012589f430a0659aa
fc3229f9a8452fe9c1545e53eee56fcf
fc3592236cad508d3243513431adf3a8
fc3a923b3748270d3be68a588abf3bb0
fc395319697b5d39b8ea62b6ab3df949
fc301c19b0f927ba1eeba2e0db01ca02
fc3d3b2c331a7612368f7c4828d0374d
fc3500b806ad1be8e1f21d3472c5c962
fc3c901068225fc3ee9623d8aa48e605
fc3a092278e4a82566394bee6d356d83
fc30a31a2a4315c1dbfd123162c59e05
fc34b47a734ac2b8c0f5916d7fc11a0a
fc3e4c0401bbaff71e26731f3569480e
fc324cb81fb8f8d2c6a42003cb746bcb
fc3c4fa838b1baef94d427b7b7d71fb7
fc3967a17a78eabea1c23bca57ade5c8
fc383b67383cc7ee10f5620f3df13089
fc31e909cb72be4eb289bb6b83c0a77c
fc33b78297dd1b168b2874e21f428e31
fc3c60a49ca842b8df93a1d73179659b
fc3d76998d41e5da23b59e15b1086776
fc3c302724322bb80b1071e85199921b
fc35d695e3d2d70f6236e73f5b78cbcc
fc36baad8dda6439f763b3d409a8c421
fc38e249482d34d06e8111b79ea1de72
fc39d7f6aedc015899094124e4947f04
fc36614b0bc99ba194007ddff920e796
fc331058d55ec89563f039dccd1edfa3
fc372ee2ff76a725c516ce55e8dc7384
fc3c709c12f22f2c1f88b3fc49bff340
fc3077e2c5fe837282c21bd0c6ad3c94
fc3f039dd7240e102fbdc8741e9e4c3d
fc316ca7aa29e1ba935726e4ad9e505e
fc37f65d0ff305667d1e611e3e485996
fc3191d120971c1704908acdc2f2e772
fc3c5329f7a1d308b3748573ec78ef2f
fc3039f171bf50cf6b94df0bafd68e25
fc327977899575669cdb310912f8a188
fc3ff95c190818cc9e32a4e03c5d0cb1
fc3a3e82315c2a712b8c0e40b4253b9d
fc33aa51f4c0d395f50d49892fa028f6
fc3dfe41be51b4bbe4580c4040f47d23
fc3776a37221dcbbd50dbaf6242498b5
fc33cb8aca994275f25cb628ed67cd8c
fc388de49d58321c1f81c5e34ef88325
fc33fc65e5a35481e0165157c43b0b70
fc3ce9f12751c73ec6da55a4fc3765eb
fc387801380cabc43a789e32df6fe4d1
fc39362a0bdd9f7fddce58872afb5c4b
fc356076b2502d1ee53f8ceb856d305e
fc36cda7c10af16a0e7fe4d978ed665e
fc3d08b838e6f2eaf115580f7f0a561c
fc36bff1fa0b99a82b3f3bfd5ef1858b
fc3a3ee2bf193c2bc3c9de9b127f3bfb
fc34d62a86c9380b46a36e99349f9006
fc30f0cef3b900249f623a508835ca6c
fc3243a21d4948e13b2b91af2f114f14
fc368ed30ed82be3d8d2cc087a2542bb
fc31b9500518309866d3bf5ba6decc60
fc3e2f497b1ddeaf6f61d4b0dc734b16
fc35c5cbc8a3b8cf52b29cec0ade3544
fc395574ccffb9bb30e590456049cb5d
fc31dd361a1642f9a5779c42a87233f1
fc30b3de85f2430d4d859b2ff8248bd6
fc3587639c3dec633b5dd1c20677a999
fc3d709e5b88efd1f1bf8ffdefa23ddf
fc398c01b8e1e32ec6a2846737b504ef
fc3c9e8d61899d080d08129359865791
fc336eb4fe85fe496697c4e97a15c3d9
fc3ffea28b31268ccb0cc29698ec5ad9
fc37c75151e1528ed9f4cb21b03b643f
fc393e2f047f44090db12e725a1e1cd6
fc3a07622ed6b4b202f3f82396a37fc5
fc3bafc64286b6de202ff674b28f1012
fc3a59a95c61c95e8df242e9831217d7
fc3fad7c4d65844ea243eef2b2674a4a
fc344bde85f73192e855e67b7fbad4c4
fc3db72b5eed2e10d875f50f6bcb952e
fc372f926a2f7bc0717edc5f993d7ef3
fc388b65f156b10aa0c412559989b330
fc389b409ce43a0902d82256bf57c893
fc305081240b62d2144ce5f09965bf5c
fc303aaeb13413e0fa8b195f045b94bc
fc3f861b067edc4eb783ff1cea8ddbc4
fc339c047b8ff1b7064383999850adf4
fc3cf5312d43a93f7c79162aa0aa1b90
fc3a4a09ac2ecf6c764aa085cf2f2156
fc3171c8b5f61e73e28805f1cce02bc9
fc30aa9036bab0c08bc7fb74d37ad5dd
fc36ba6846fdc1efec601a55f6addb85
fc351db375f244cce12df954326c36b3
fc36511aacca86048a9e870c63ace49b
fc3269f45cb6110bb479b877a6902276
fc30b53820a9e33e0dcaf31a307a2550
fc3e63204dc6a4fad4d94d646a66c448
fc37bed224c98b8a7092df81b978886a
fc38b833c44dcfbf52a3dbd73cd9b758
fc33a41fa448126a748acefe40bfe225
fc3a5e6cbabb75694d9812954ff2c37d
fc3be61bd68c00e0e0de267451bde8de
fc3e608d0644ce2e2531b75107db2698
fc3772444f50ba18df23424a2027b47d
fc3417be061c51ae1fc7c80699e58b9f
fc3ca6858d0196d2a29e949e74a4e37b
fc361cab06e95841d0afb339f9fe922d
fc373c6d0b731cf21bf3fe96c365e31a
fc3b15c995a1b1bd5abe5b3e4d61a09d
fc30d1fef7327dbab955ff46925c0a16
fc363e4b6a7564395249c10540386fab
fc31d5fda6c79a72088c51864bca3929
fc34ffc4ebec806e612698b6e4eadd93
fc3302636396b024a008a9a1f385d75f
fc3cdc5d6970e8338c556acae3c954f4
fc3722c63fb6435d088c95a799df9663
fc353035a3e0b5049bb608c59b52c4b4
fc30d800c196000b8da824a216d833d0
fc358ece2096d6645cdb8c79e88ef946
fc372971ebadd2b7e5d21df3f498d6fc
fc38bed580a27cf572d87085c88b1c00
fc358c2ce6ecc5930941e0e74269482e
fc3adb201dcc4581946243bac7631cb0
fc3f983a0ef817c2d0a3539611c83f26
fc3980dcd906333171ce19edc814c479
fc3f8387ca4779c965be666554c0ebac
fc33cb2f0fc139e6e26f1f5df642547f
fc3c70d944b2f5d5946125c08b86d623
fc32a40ca614c612a0f3aba4575446d3
fc3a1db82863d88578edd100fbe03d7d
fc3cb9dc847ac81dcd4fe3f183e8e992
fc340ca1be5bfaeda3051d8fef34bca7
fc3c3a19618552340a50214600828d2d
fc3cd2e9f3bf467da6cb359b2a02db0f
fc3954add084f98ec297860e2ffdcc36
fc3607bc8e59d740aeb4c4bd393adfd2
fc3a606a2cc3e573d4cc68647f4ed306
fc3967aa3f5d442898a20a953bd9bb4b
fc36c17e9f4e1c8ea8704544ee5c2fa9
fc34c56bab03295b4247243c75dbaeba
fc30094ca261c0be5d8b188a6f835685
fc32b8f8a43b664fb7b94442a8db3791
fc39e36789571ac45284e227ccf7d11a
fc304b79cc0949928f6ab3ee7c9b0f2f
fc37e1b1ca68ed7b7eb531092101def8
fc36aa6eeb9935142b8a3b51bfeeca26
fc36a2a185aba1d4738e8bb4ccfa7996
fc324a3ea3aa320d0898eb8667daef5d
fc3574c4e8e174a43d02a1683f4d7135
fc3b0b9cd37b2630219ea34e5c125c88
fc36ed65bbd2ca0d84e3d61c175e1126
fc3737469b040b8251277c0bf9a934a7
fc37d46fb1943bcbb40bf57f282bd2f9
fc3dec5ac85c57d1b27efefd047deca9
fc31ba08298759c628a8900ab3b50b54
fc37daaadd36d0a7cf305a61d714ecf2
fc376457a5f929431802101ae30f1890
fc38b82360a31a373649a3409c25b5b5
fc380a8dec7dcbde3445df3588c50f9e
fc3e50e3c182575a633e96c42e764c72
fc35fb8f87da65d805414143356408f7
fc3d60bcbf48b76ef893a5cc284bbfef
fc35680035220945710f143596df86a7
fc3102766110093f20736f6335bfe04f
fc3a5a5b1122e4a6cd9263493ee2759b
fc3894b0d8d6008b63358c7cc22bfdfc
fc3c279361118699ac1cbbf50e056ec2
fc33070b270f9c3b9a23c0e5dc800829
fc3a353c97012c50863ec830df6d255a
fc3b9f91b5e8ef3dfb8e38014fa0c690
fc31e88e5f153df87356265da7c17c49
fc3b10722b963d3184373ba6794af8cc
fc3cc7af27ca89964a464ff07a27f4cb
fc398bf49900a638af4228ad85df4df9
fc38623fd1b5d78e1a6cf36652576dea
fc333d5c4950964195278bcd4c8d4707
fc307b577fb38891d1db039d8b14599e
fc3839d56777fefba5b1a769d35852e0
fc30bb1d6ff8ff56b5cd4447e6b62136
fc3d3ebd44588ebda0c20900890064d8
fc38b533d5293a9a1609de4732c4ff49
fc39095c79e0489db3688da19fd0b192
fc37570701cd1c7e30defb49e029ca0a
fc3f8ed4d93240ffc67508ef6e134b58
fc3ad6cf41ef609dbde9ec1d99ece6d8
fc377692623803aeb039e2625fa6557b
fc3bd8c11cab9ed14f8d9a5994591b88
fc3d3534a9c80b9c5d5890fbc43b3640
fc3a4f9d62fa7f0c4e49e071d1893853
fc3b9d809e55f0a6ab736e890664251d
fc3eb1baade386cb7939fe59716e289d
fc3550af423ac66cbf312e0532902daf
fc38676a08384f56898fb7a2f178001d
fc384fe553c9acf4689404b99cfd6359
fc3a9d794fc71f8ad17b902885ca7416
fc303be6844d287e2e92b44cb6a54317
fc3c97d85ace298d5f22dda028a91ad4
fc39573f925e2da562276c17b5f9f287
fc3f7def7733aac288d97dcf00dc7ce5
fc3ff611957ee9c53b45576abe52b32c
fc309b7e6368916de6b27e54693a9949
fc3bb5e1c16bb2c10152b92bf08cbbf9
fc333502a2703ee3a7760042711e2bc4
fc33db90fe55f9d1f9ff17b68e03b4c4
fc33b094e27ce32d3242d4bd72b06445
fc3f24c74a51fb79f1c2ee4b9a188585
fc389ec7a98ff72bc5286382207c4040
fc3cd8798963693a7425c0693af5c0e0
fc3e728e8197f975e08783647e89aff6
fc3afcb8be471a896a264b5ffd00fd81
fc32ada7c96ef89e4d47b3eef795b202
fc31d7aea550b59a2fe20785514270ec
fc351ffd31ca2a342bd30c4e67d125fd
fc37db29a49d46f85dea966a42350874
fc3ab11e979fc7525afc150cfbbf582c
fc372e032d7a69ce051381d7d1873144
fc32f8f78f63eabf6e89d6b832934da1
fc3c784cac62b9d3a7ce220134d7424c
fc3318ff88db56a840bdb632e0169a9c
fc378e0dd671c9b9c0af66cb176c7b60
fc3cd55e59b0569093dd75283df80869
fc3caf6c6667335c2f0443a703045207
fc3e9d0527c0597ef2aeb813b8a9dbfc
fc3044afe8fbdd818fd375a029088f0f
fc350aef84b8193ddf324d406678028c
fc33303f5876c3f2c5eb3dae959c7726
fc31b51b7feb5ea1ee7f0a90d9e2ee0a
fc399feb3407bff8cd8c6ffc253d395b
fc391988fb8650ca14ccd2648447d681
fc33ab6ad6f1ac87a666a59060569ed3
fc3f19aca347514cc1133ea3d3b6bff9
fc3ef2f44c1e498f38aef3b62e22403a
fc3eddce674179932f137dee80f58ebf
fc3a12e54b3d50a6aa9a6b605be3431b
fc316809f160e27b19262257e561636d
fc3aaaed2e177930c8240c936b2bff90
fc393a3b8b978f2faafa45fe3ae47f64
fc30ab569849d8cb13302185312421cf
fc3465845eee342c55ce14a59b797e5a
fc3c4efeeda2cb0316ade7f6a654fa55
fc3dd921331a0d6975a83e404fc391e1
fc3d2a1fbe5bfb3b6e2ec13f0139a734
fc31f6d36413b03859e3bb850f1ba239
fc37a8f9c5283f219cc24ce4001fd5e8
fc31a3189e864a64280d8e8175f34b53
fc3fa85137358aa67864bdb009b815fd
fc319efdaf90aae074d18b38476ebbec
fc3dffa9db75f22610bcada3f41b6651
fc320ecebd4a885099fa8eae778cf7b8
fc326c8bc7283d87fb41ffd819198746
fc321029004cbdb884fd90691b532921
fc311fd11cd62c72c0f10b77c2a66a58
fc33048a39e486ef788e472b952850f2
fc398dbb806592c3da518f8959991e6f
fc32badcab3530d4d6256802697b38b5
fc3b863f350b1767b3d6bca15aa79323
fc389e0a4c4a0649f2259c195163c9ac
fc3629f6c2362d013ea7902797062bd9
fc36c9d17a1ca6cae23da228b7fddd9e
fc30a904c418cb1c7dbf81145acfeece
fc358d3831198349a5bc2db0cc1fc840
fc3206026ab4d58445c8d8def6a25cef
fc367ed6500216e2f16956647a2f5c15
fc3f51b0bb369124854a509ddcaac521
fc373e82e89c963959b411470dc40247
fc3a753d38ef04764070bfb0eeb1f9f2
fc337da6a75bae71524f0c60601b533a
fc315bb3b0818a125efb5c969feadcb9
fc30357054e2273291bd0b3f7dc2fae2
fc3bc794c8313b073e70e541ee496d58
fc3e4e4030d1e3b73c942dbaf65c11de
fc3703b621035011799ea4689a65635f
fc392582b249cadc842ee8587adac0f2
fc30dc7daece1993c2326da986c7413d
fc33ed979371fef90a3eeac9061a29c8
fc3e824c983c55236fadcff6d1712f76
fc3fac5ecf81286d24bfc0c3df3a51b6
fc35a271fcee07234c40a4f0e7448272
fc355f2545933e546a279151e8763521
fc363c2159d6a5e483216165ce675070
fc30b0b6fc80478d877233babcaa5e78
fc361c855c403713f20ecb9343e4fff8
fc30d0f111515b57ebbe18d50afbfb40
fc31d6ad5b04aea2db27ac010130b203
fc385ad737edcdbb5ec68533d9fd1d0a
fc3f0fa4340612ea9e052ec3662ca692
fc3c4254c7ae90617f006e27f1d7e4ef
fc334a1ad8f7ec70cd8d8f5ed57d6052
fc393161a27a020e38d5c8010f0962ed
fc3e3d6d4a09a648831e97d51b478b54
fc357ce6ce12e58345a2384e2de50fbb
fc35d93109310ba5e36f901a7e930fb9
fc3d679af4454bb159cbe12400cc778d
fc31b4be4a5c8cbfa72600430968a886
fc3dbd44a6c560cb6f11733bfcba939a
fc314b5d80d3d01bddbe0330b0669342
fc355bdcd6ad3268f3d63239aaae795d
fc3216d3128ecc11e2357e05605d058a
fc37f89ed77b8edddf8ee2920a059bf3
fc3563e9cb9b9a6103e14bd5e64e1520
fc3954a54cdf4f64dc6da3aa05f4d262
fc32d81da0fdd9b627823e32fc52e095
fc3e153027face5d874dd01954f993a5
fc3bb66e4defe98a8afa391c4a0403fb
fc34bfbaa460467713da6b7fcf95c1ed
fc39cb252f49f65075480bc40bf7fd45
fc34a7fd3bc0bf5085f4195920a4dc73
fc39c8f427008c52d77d1853889cb342
fc3e6aa8c374ba804c9ab7798d134314
fc3c3ba323ff47fb2705f52454e70bc5
