fc44fbadfa667bd8129f9cb84675b55b
fc46f61c34d70fb2c9c5c513113892f2
fc4f55a624be809ab78bed72158c4fba
fc45a57e96962b57eff30d180be94c86
fc4c18c83c44a3adb43f9546036aa8ec
fc41af3337bcaba3d1adb3e337cb5178
fc4948f0c58c8f368c011dc95b699d24
fc4d537150c010f172584ec823550b9f
fc4fe6cfba34df18484aa50a86365a9a
fc4f817eebdca26056ba71948fa38800
fc45774e16bd4ebae173599299b81986
fc4b7cce7425ae639b5a89e9400eea33
fc483ebfd619dfc61e20ef2eb370e2e0
fc4f311001b2646a1bd801bcd0c54c6f
fc4a9e803b18674f5375244d61259f0b
fc4768ddd2dfacdc75297a00873b5dc8
fc443eceb479d576856fa479650532d2
fc4410b51bfc637284c04d13f1759d4d
fc4cd0b38d5ec32251972da5f948986d
fc451584342ba8f963f09728c630777b
fc4a27f6149daf5199821bb56695fe0b
fc443ebb31118d1cec40cefdcbdb741e
fc416badb5b8c6c7a3b956e8c7e4c5df
fc42d9924aa66681b2aadbb8fa65c260
fc44c4170e06e9c71ae3d2ae827d1932
fc40cc70cf5e87b98b25e14e61981a9c
fc476ae321ef05a6b1949943b1a4a3c8
fc4868434fa6471484715fab667246d2
fc408dfa02cdb2ed869ff6929a05ef60
fc4492ab4b2c31d8e36a67025ada0ed9
fc4cb3d23d39c784ebd26c3746ca2a44
fc4b685bece03207b46dbc26d0cef823
fc4c8863858b31726a8dd72650ffedc9
fc4b7197a734557ab89e8134b071a46e
fc4ee52794333a73e8e4cb618dad4dc0
fc4743ae07526e35f2438d8bb1063846
fc4f4b4470566c6eabef2e6d762b3847
fc43e6b90237898b4d2a73e1a58b61cf
fc40f4050d6bd473da09af0f151293fa
fc4cc46decba27af05c6c05fde7be6d1
fc4f95e9f71ee169969ae75035e9dbe9
fc4af98dd58e9131b25f9c128e703a11
fc463ac690f81ddaf9af4ff585fdc581
fc491bff88b1f135d85b1821f3aa81c5
fc46a01b8cf15d9e0be07d3e58b918ad
fc42e1b1152993766f5dba9231a7e7b9
fc4d0ee12f6b4047ab7c19928b051128
fc4369e9ed242cb7db73af9da02406e7
fc4657a2783990615f580440fc66d4e4
fc4f0a1aead86534fc62585d594bd1f0
fc4dfb120ce41ac3b4df70522456541b
fc4b516280de59c1aa3686297c76ce25
fc45addef79acd97a7d9241bad9adced
fc4c79466ba999a3a6124edd613ab27f
fc4829e7f467e51ee2de41bff6393159
fc46248c9ac32101ec259b481271b3c9
fc4b2de6fc723d88fcf21ad8e774290c
fc4d00b84942ab287c029c6159a61b67
fc456f331fe940a99d6151938cbadf39
fc4d9d2b404371454fbd68a896528f94
fc43d84c7acb6bb710f3423cc57441fe
fc4620a0710a46aec7f638ba01d9d35a
fc4ebcf284efd40170dbcc15222af476
fc48f64feefdffac4ad3947ed8caa6be
fc4c9891570e017dbfd578649fb34084
fc46fcd2995843aa8249b59ba59cb233
fc40bba6c4d470aae47a298ede0dcbfb
fc42a213963a97c78e434caeb3e92fdc
fc437461ee36d3da36593f475cb25ecc
fc4aa89b07ca1be4f5264ba04f3738d8
fc475f7d8cd7125c6d15368941572eb1
fc4d8f5d39dacc696ee90a70ba3fa25a
fc4ab32492fa43762d69fc1992a6b825
fc43e87439ba6295de68307336918317
fc4ce32aced0edeac3f19bb5ce88f805
fc42ca5c8b002452f260dc3dd33b1e08
fc44c1b77347d0654c0d1b525fa1be2b
fc41ef37fc17c337a210515fb6daacad
fc47223b3e6cb5fa76183c0f22e26f05
fc4b2c453336cbf61754617f102a06df
fc416e9daf84b0085de976b5888f9705
fc4bf7fc5b15689f9d05e74b0a1e0569
fc481e199e0d4889da2cbf14a45050ed
fc4326cf0d268df3a049f310153992d8
fc4fc1a4b27f45d17a9021b949e3ffb0
fc40d2954a1cf37d07cd512081e4e593
fc41292aae9b3549aa44fbc1885bc237
fc4446ffbb157de07e423bc68409951a
fc48a2b15fc9d1330693ada82bb714b3
fc40ef00888e3bdb9e4f424f53ab2b10
fc42a80f5655cbe231a7966fd9e35090
fc42c4c3e6512b9ab05f4ba6adb95ef3
fc4178324db8c639b8430236981ba9bd
fc48bc04036ea0fc4001fd91cc3a2757
fc4fe14856659905dc1c7c194243c939
fc40ec16c9dc71d9b7ddd7d84b210f58
fc4ff9cc43803e03576941d3d284e698
fc49cff34489509eb17dfd1b95cf2e6a
fc457887b15bc0acb4624bda8255389d
fc4b958c96f25e1cf60e3eb751f89900
fc4dc703929047b30fa8e55b8e9cafb5
fc4b7ae503f9a66d58f259d837cc653b
fc4ef243a54e1c025bc87bbce8c4b6f5
fc4422b665922f3d7ff7a8423ea983cf
fc495f589b1683d0cc1846fe4fc8158c
fc456f6fbfef9799483623705c1d3028
fc45d792561f8b0995b653bf8b930d3f
fc4852851e3a0e0de1d04d55574ec1ac
fc4431356ab8bd6af18c93defd18302d
fc46ff5e2bdce678ac1b8a6de4d27099
fc4435f7544aa1053944c102a02f847f
fc40216781a3872d46752652d97973ca
fc4920f17144e4372c208532ef326d04
fc45165dfde28d2e67af49ff9dd52489
fc4c67a06ba2450cc160b1e445f870bc
fc4fe3ffd7213bb7492af7a3b16a67e4
fc4dcb862d22c979985936194d1de019
fc476cf1e3a1c0e279ad83db2dbf51dd
fc42ebdc662d1a9ceba5d288e94ba77c
fc4a6aca40a1dd61258845f332a3b1f0
fc41cdb5cfd2b03202447e8fdf00912c
fc402f5abcdc322e352a89c8138c4b42
fc4a8e1cacef481fc098871483b41e01
fc4c04036f33db52f6a1dc211090188d
fc4e7c34c839ad42deeaecc7c09fd954
fc4f0f111be3b53dd586e2b2043fe987
fc4f5ed8c5df8817b00053d71e88307f
fc455669e548c9afe1cbf41f6a57df8f
fc4f3158592b9fd0c13f1162134f1915
fc4ebfdb74f32ad5f85f5546f02b756d
fc419bddbf6d2811a79d752f7e4a2c8f
fc44200d1abfb9c41be8c5eab02c40ff
fc49cc99205072044315444b3d27b185
fc45f49dee92317a82159416ec5bab9f
fc4e7f37b105c81478c087e8b3634b1a
fc4b05eccd9807ae322e5f365b7e017e
fc4ba25bba16d652bb08507eadc8193e
fc443a416103179a3b420fe22724783f
fc4553ea475e819da147020cc0479ad8
fc4996578ae78f8669af675dd7b9d31a
fc4344548766f3111808b78cc2d3c213
fc4bbcc843f569c294b7be77c0e31575
fc4b2a64a1a918154a776efd3febb90e
fc46553bf0756eacdcb942c5d5a6310f
fc413273dd65c416754f2b6e8102ea47
fc423b32dfc759030eda0ae29940944e
fc4f1edd4eae8cf4d1760009bc5d73fc
fc46c97196cea2a869170b1676fab076
fc4d1c9528c4d036b571614de1b5faa3
fc4a606ad7921ee7946b3dee78d5910d
fc4eb5422a535fdac387a8e13427b97f
fc413e21def5b07c6fe81ca76754e560
fc41fef18cf6f3ed580c0a45909a6c32
fc44396f46d00d59e8c915176f0d01dc
fc4ed177b950bd88d17d89fd39eee8fc
fc4f0be0d269118f0fa4d6c4d882b81e
fc4364f51cb526dc8e1b56b60c940870
fc4868ba8ce6a9726ec2e3ed48ace34f
fc40956f07316802535fc751c7efd881
fc4c4a8e23b6ca1befbfeba8f005fb2c
fc4ad62591bae8ec533e7b123675cb6b
fc45f04dfc00836c97ecbbca59d3faa8
fc4f6b742ab76245d7530a0918557bfc
fc466627ac53981de05affc95d9b356b
fc4e3c541cf9120078129e0e7692b7e9
fc48f3316787e31b0903f0221a02c5b6
fc41183e920ea77621c0df83103774a5
fc4e89da1273cd583df5cd78e6dc3f32
fc4e55239538d7aaf61dd073fa8bf0f2
fc4e8917f63a19eb7492f78e39a59aad
fc405476b05c523328703e84d1a48ead
fc447c207c472ce6781d6f44d7907dc4
fc4f7422ae26ea0dba7ed9e88e674c2b
fc4971c37cb5760cf5a5d0ceaafc82b6
fc4cffc4ad8600700567426f9b5bacd7
fc497cb38318ec1977e7d3c461d384ee
fc4e3b0aeffd870a5da962f486d2f035
fc45ef5e88eb88b15c67fda5fe0412a6
fc4c81a6c4d5ddf49fe2412c087e29f3
fc47f900e962981809d6838b282ec392
fc456eaf02d33dd43b2d2143780be226
fc4f5147c9d2ac84504d29b58bb6cb0d
fc4591951f3d448409be519887187da8
fc40cec7395c2e010ebc820f25e05435
fc46c0b250905f77ad2c4b16329644c8
fc46205dbb784611125cf8996ba89794
fc44d47f77a3c7b5568df9944a40f50a
fc47307cc380fd90daa62f70fd288e32
fc4603d0eb585ada9dac9a1a410f4583
fc42d265f2e64fd33d2fca98291af961
fc4d77790f71099a97fbe9056ca95c8e
fc4f0e3b9d63fcdfd4faad198da7e1e5
fc4f52fc38459f61b23fd0bee51e99e5
fc4a6613c56fbcc99353497f52bbb1dc
fc48309037332929402c4b601feb5647
fc4dc7c2a873c5fee41f500f14259dcf
fc400f863b39be7f451c86594f9ffd6f
fc44d9bb1127751eaa3cf85964fb6dac
fc4cc9b3fca0375d6236bfcb7728853b
fc46411ff9c81a47a321bfdb32c8f32f
fc4bce00715076664067e1f660d665f3
fc4cf426acae5cbc09764fd1c085eee2
fc4a1d8065e48e2d77d3122a250d84b8
fc4feb56b7affb376108741534b93906
fc4433b43735ae40b6dfd53ca25af788
fc40c91f4b39ea003f7aba14a0759fc3
fc4fe0ea965d0847515daeda3fbc7213
fc4bb0d6a5cd81ba0afd0e35f01b81ae
fc4db8711b447b7e9aaa5d52ec653901
fc476dfe1db00fa48d377eba3575755a
fc424bf6487a7510932f6e9dcf73cd57
fc4ed81fa79d8e0f4988fc8ab0209f3a
fc4b8d077dc22519e740850c4af1f194
fc4b27a0d797de11910249b9fca88367
fc40009dd020d74fccdc846d7869df9e
fc4a4c90d6551d674de9adcc49a107d9
fc45275e9c120f8ff09230cb307b5550
fc46f9743adc7f59537d4d56be3a3490
fc4ffc03e26c56dae256e0a331c9219b
fc466b922c4afb26f1b72ecfb779ed4b
fc41358e17a1ce0d450c8b3abb31ec51
fc422c309f0750b720bd25bdc8f087cd
fc4744f4d73464216b49ee5c68ef5879
fc4c4a092dde3b42966a6bc8fe82d122
fc453bef06b8f310a5b2d4fe1159b74b
fc412957ec9bef155db83083a1d16e87
fc4d3d8650140738c42cfb6bc5646042
fc4965578b0bc34d744c0b73069da98d
fc40ebf27efe2b3980e278bf5f865b76
fc4b22a03fd21ecc961620f43d6cc2a0
fc48e01ea9994bd70710e2b801fd49a3
fc451e08a584db8b55fc57b31ba2bd88
fc48e1ea3beca643fbe3ec4980dae204
fc41bcd61438e53bbf61434527aba0f0
fc415e511dab503b5169b48fd3a5c5db
fc437bbe80f8f138f9ab0cc74b07f0f1
fc4d6903e755ae6cd1cbe98762c42e6a
fc4d92932ba73a4769564911ae4a7401
fc464437bb13d145c3756f9e88df663f
fc43c36a00961a5250ad7abd38ad2453
fc44a40a8d496b8fa30f82abb9699a32
fc43c4bb587e71b1009295bf0a00d26c
fc41185eb1dbb2c2f40284b29ab60b0c
fc4ff0746ff5fb5b6228fcdb659c3016
fc4c67a8d3e97e171964e7684db8bd66
fc4ccd414c944b100d73eb936bbce318
fc4c882c6daf3eec4138b144af5f28ec
fc4b608ebbf06efe9d532406e3612168
fc446aa327ae2e197167cef55858b836
fc442124c3d9bb7bf581f8ae4814036b
fc491b3409ba56d38b0966bffe503c91
fc4d3699d22afb10e7db784b7cf8b788
fc4877eda4e3c7915ecf5eeceaf8bb42
fc4184d8fc9483c81ee05c7ab3de391c
fc4454a3bd83151f47e89ed9fd713343
fc465ff5e63c9fb2ed2e66337da0a38d
fc4f6f1c08ade182553de40083e5f134
fc4d8bfc4925a8329f12d8a75482bbda
fc4729c7e04a7d6eed22947f58df0fc2
fc4e1fa958b91604809496391dbf1e1c
fc402c544eea733ee46c396bd2e39b0c
fc46d5fb44ab4b8cc17c462bb1d5c5f0
fc443ff84a46c48be7286c0e03d3e4b5
fc45ce16991c441f1a770715bba3d11e
fc4faa78547515f4e982bd2475950211
fc497f70453d1a77e7895f5b35c93b3e
fc420b04f1a9cd8e58e137caa6289a9b
fc4fa957c20e2d7bc6020fee356b9b28
fc4dfc317f6f0de19266970894ccb8cb
fc47a41060025c4044ccfcee7e3484a9
fc4145c8ad27c41887ee1720e49dc73d
fc4b7a7fa7a3276767360a43e6518f6b
fc4b0786f866952f1049cebbcefa1784
fc4fb1ab044a8625a2e6649daa9c1087
fc44b05dd74a7e1ce491b5b8bcce824a
fc427b6d788de1de57ccb26c8f4a5932
fc42e05a25ebf5de528e9e4e61c5e550
fc47e89281b1a1088425b503e73d9880
fc464c84535dfea665a85dbd25f20c24
fc4f8fc6b6ee44508b7caef236a03c28
fc490a4e97153f4de58dd310f5495332
fc4202d864f6cf896598f6c786740222
fc428583c9ee4ca679a3c9d8d1e1ae29
fc49cd358ab92fbb8fe55fc1af0d00ab
fc4cccf66ca623e06d796e40b5c63840
fc4881089a72bbab3099e9505f62c5c4
fc4a086e2a9e7ad23f3874794f27a781
fc463b7aa256e4fcce868cd42fa12789
fc43e7c0f0f7003e9b8e5175c8480fb0
fc41802ee4a7d385c739317cf8ecbb4e
fc4228fe315e7b94252ec2a4ecf00aec
fc4b66d618c3aded45f8692807597e41
fc413a341cd57ce4a460b8115c837281
fc424aeeff047db35ef71bed03de70f6
fc4c048d3329ba6f38048e9ddcf017c5
fc47125bf8d4467f4f2a84bab7645582
fc4277c5555b60a7b3003eeca85b1dba
fc48d1f50e4f92feeca1f1698751d9ff
fc4d6028c1e1274b0c965d579ebfa502
fc4c808bbf773157494b3ee5eabe0ed7
fc4649bc27ca778eb6b76d5945482b04
fc4fa6c70f5e10939f74623e6f8f4454
fc45cbd8d7be437c8186e6c8fc50dfbd
fc40beba3ab162054e7381f1b4dc192e
fc48b37788a186635a45d6dd5092df22
fc40aa0dbbcbae48a9b3a52dadef50c3
fc4e79da3908a6e605e06457f7bb6796
fc42db1b8b6d5fd3c768a275e238772f
fc412a0e0731a1abc2927082d343837f
fc447465d547693e72a9d979893a133d
fc47a892c31a20769e97571e12109048
fc47c5ba9b16a61cd23f7664cfc70185
fc4b4d47cd32f76314c9de772cea52bd
fc4c9e13c98236ac01bc70cfbf66910f
fc41edaade00bfafbe0a81afc145b2f2
fc4c5d8f1aacded2aa55aba279717915
fc4e3d37626b1adb0dd51247af2760e7
fc4cf2d3630afcfb9c34e25f4bd273d5
fc4e91cb0d2a676279d1df2cb245c066
fc41aa5a66227bd19707ba114311de26
fc4b7f1ca6b72cebab2285fd9d4db985
fc46f5cb0b824762f369d60cdeb94a68
fc43108a3259e26639c4ff61f9098d60
fc43283a3bfeea7102e59e5b06b7d611
fc4d50f1b665d606549115ae96b2fd3b
fc4449bbfdb1033052aacd6d4c7d5f08
fc4abe1a6db38f26bca2eeebd6bba135
fc4ca7474d872b0b487d8c034738ea10
fc44977c1bcbbaddeab55355fe10d0a2
fc4ee1da2ca331340db0c40523dd8596
fc4142ac7af7ab5590f6862cc1a406d9
fc4b6e79218cd42d06fc16cbffd5ef0e
fc4a2a9339d7f4aea8967f123ddd31cc
fc413a1ec5acad10df6d1918c4d3ef71
fc4ebaa2f3fdd1ba0988f0354e582e1f
fc4ffc79be3ecde898e5d3f271675a95
fc4167afb95ef071186bae0c8857637c
fc46db92704acc2b30d897273fb564c3
fc407d6f094f0291267ad3a9b685ae56
fc4ef1b99d3d0aa9efb3c28734677d86
fc461d4f2b7e7db1c21feb09ef8a84e0
fc43487d7ce7b18fdcbdd75711c2b3ac
fc46cd0b46fd6bdc3698bce3e4089e84
fc408496a99e968857075a4590873496
fc4bcd61cf6951079c25577505a3b3d2
fc4a4cb9b313f6759ff344ffaca67070
fc4ad1ca3034a52e62740ac65293739d
fc425905a0ad9eafddc7605d8ee37eac
fc49c593208e6ec041ce0332322b7271
fc4d8c1188da2b5540b558112ab9f8aa
fc4c09ca010b7c4e4d355b00a88044a2
fc4933f9f927695905f553d125e7589d
fc4f53566d0256b53d3999c43600b6de
fc4069ea46208ac18b398c85fa99a99e
fc4340c0872c8b77fdbf2fdb6b8f0dd1
fc4bbdfdfaa25a6c799ef56adf0db8b3
fc403c8de8a2ed0ecf63045d1318690c
fc4770fb9e6d2eaf636a803f9e70b746
fc485065f4bacb7dc2641c5521519f01
fc4d738e0e116e5d37933d7a941d6a5f
fc49a4347a8a283ac5d00c96613b072c
fc4f3496ae2d8a4495588712814e6846
fc4dca87aa97c6ed7e76cf7e20378967
fc412272932fcd1d568e1604528964ce
fc4523767da969f81ad1977996e17d0b
fc41bde86cbead75e3e6638609813878
fc42c0bc0f14ee9f02bb5b163392cc72
fc4fefd31d794dfb7e54743362f5f88e
fc44351388e925d5343f2e34d3ffb801
fc4626edce9d4677cb1b0c0689accab9
fc4efa1090c90c70ee8d8e3bf0cdda4d
fc44bd742cfd5e42f49876266685ad0c
fc41577c1ece8a012b2375e1a1d868d7
fc47c04e925cc0febf6d408470bb26c6
fc40093b76234a063fde7087974b2d5c
fc4d67ba30f083654359896585f87a51
fc4d3b6738fc476fb47c0e70c13c3fa2
fc48c4b251ee26990f6ced65be21a92d
fc4408ce5885c9f12596d7feed964cc7
fc4f095579b728331b0851ab8034d3c3
fc4fff9e12a253b85f731a275a4ba885
fc4de2447276acdc91cb4cd728483054
fc4821d4812ca17a7c83c2d0740883fe
fc459d2c5b2ca6e7e4174ee3cce1b6a8
fc438014f9c6457d147d91c02532aa68
fc43fb6ae605ab83cc4ca5e37ae63883
fc41c83bcafabab52dbb3417531e51ea
fc4dcd23f4dcb57eecdb6ce85d70c499
fc4a9e22035ff089e1f87f77109e552e
fc4c57306f8b3e3ef2488298c43ac432
fc48f9132c0d95e2d392d55fd5199f5a
fc4aa19ee379dcf71e11215318a018be
fc4a6532db294ab1d16f980e0405de28
fc4abf845917cb68e1d942e5dece9807
fc49d56a214bf1838afd7af1fb5304c0
fc47c101646ea214231d76b491929f06
fc4839537d78aac644f0c17155581e95
fc4e3042321da9940fcf24f41111d67b
fc40ff7091aa0952f8ed1e3df66a462e
fc483ba49cfaa9eadf0ed016e7db383c
fc40cffd938b660f80c69b690d0f785d
fc4e3f83c97c09a4df95c5c9778b8fb2
fc4649e219fecf6b779b46e57b04f1ba
fc415091de9da92aa28a744971ff7109
fc4f31f6f09187cc98c9ebb4d39cc3e6
fc4e0a12bf8cfecd03acbcca1f0e7bc3
fc46f333028a7092e30f878a43ec0ad2
fc48bcd4ccf8bca48f8763dd0eea0bad
fc44e3e4ee265ff8989840aba3fe2336
fc480629f1fb5777e03efd605ee03d8f
fc4869bd12a2e0170a15aa93ad913579
fc447021512880f833107aa25f61a195
fc4ca544b13dcf1050a13c4755b14713
fc48a0355eec0ba75dec231ca8847cc8
fc4cea73adffdaad819d16e8acebedc9
fc48901cce58ac6da4988b6121f6975b
fc4b050443ba759436e9a696db1a93d7
fc4aed16adf4689c9b6d433d97e1b18d
fc4618248499a48f3246ef1a3b6315a4
fc4f5f08529bddc0c947f466ae752c86
fc4deea28e05c4bd3fa68b8880753f90
fc48e6577a3f149fd2ad894f37476141
fc42a9943fb74e09b2c4856f0b1f0f23
fc44987da961fe4d3e82888f079655d8
fc4b14dbc6d3de92e0b8ac50afa64d1c
fc47eeb14bc39eb1002ae854e4e79d0c
fc48b43afb7e680dafb4a4da33d29745
fc4d67c15493ad50dc1a59923606d47e
fc484cf91a6d61239193a119b831497d
fc484fab5b875c091a23409228c4dfe4
fc4100b27eb9907d40159fc04d45ad37
fc41d50b30354380984bc52f31015599
fc4b80b877612053e28ebfad4042efc5
fc4f8d5eb46f404dc37df3e285389954
fc4c030691bffa8846ef11daae8f0d2a
fc4ce75e15b74780f5323e513303352e
fc435f6d97433ed36ebd417845fdb1d1
fc49efba47799367d58c85c2b0be61b9
fc4f39fbc44f94a2a2fd3ee46d58b8be
fc4a8ac29361cf7022cbd333ad961b12
fc47bb8b83a24f2748a4f0ebe763432d
fc443df494ddd48c623ea0396de341c3
fc46329e8a90bfd61b499c40f9388001
fc4a70c2ae5af95e5657cc74d89f79a3
fc424f30d70c3375982379424087ad39
fc4d2e77ee34a22379f5ef6adb78d863
fc4f466ad252f15465e290014fe6d6aa
fc40c67e38834c9c96c48ffa3fef4cde
fc403c381c565ba4cd2dbf83d72ad8af
fc4f627fddc8184eb37b3864895472ee
fc4fea3aa9afe4f3b90bf6e76941164d
fc42c87c4f338fbe769f008c90175958
fc46d21bb2790417bfb106ed42e11629
fc436af88790eac2d7b558841ff4a1f4
fc4e3aad39bb1ab79935d896aea107ab
fc463c918fb63ab35c61fc2fd0669b9f
fc47f6a2fb3cad6aab9277991ac67ea3
fc46bfa761f94aad0548c994b83eeda2
fc4e9d3a7ca832ccb02b0650d517883b
fc4959bac8f2a81f364d01a2941b0b63
fc4a2e7ab3776eb2eeaac5496cb41423
fc4da083fe5353709e6fd20465fbe918
fc4a50da95eb1388c9449e4f5a112072
fc4f805341399a358d67227a346254db
fc4055dac512cf4d0da7985d668f3fb0
fc49e5cd5221f6664cf4e57be9b01855
fc45dc678fab00adba2af1e991a335eb
fc46c27e18d509ca6d86e74922745c55
fc43966ca419a2fe963797ba24d252ed
fc46b5c45e21a87dcf521ce01d8f153d
fc4ec8c2751609975a1345ea31efcd7d
fc4641e6607dd4ccb1245422a3ee0de0
fc4978d10e6b3cb40a4cac4396d7ded7
fc46f2e89137a61df2fae9370036f332
fc40a8701fea8c14f895113553302536
fc4ad458412792d02087325f37c907f0
fc4fb7cc1949ce83ae140400294ca178
fc484691d86ef2a7b999eff6ca59ee0b
fc44f61906f66bdd0fec5175baa612be
fc4972a8ab694c06397b0194b0d95de5
fc4ea49adbf3abce3b9f08b21c0ae945
fc4e9231efc02ece657c2e51fe7ce2e2
fc4e1e8410ce0fd3cfc85147a32fbc9c
fc4fe7bc6e33e7182609a9ab9bd0ff6a
fc4ff15fc72b962aae0a339f8169f902
fc4d336d2a736c8c2b67488b6ceafd0e
fc4e25f0a16bb5808fd2d31b40d4a20e
fc4f1caea279863b429bb809d8918039
fc41bd323436896311cb311b777e7f58
fc4f09d6202eb77607a2328fdc6aa8e5
fc409fed5b1e44af3b380da23efd28a5
fc4ae53b85d72bc5e0c1d7a90cc62a1d
fc40363e982920958bc0a95947908494
fc4d73f6c0ae094a86f57c67576e72df
fc4652e410aeb921c57ecb38362b63d2
fc43a5d3d87c2dec4cd7ba431d0c7f1f
fc46317e77588a147ae78d652663aad1
fc480e8df3877dc4a0223beef9b69fa7
fc4f8b1f439a32071c508c2443c7cf6e
fc422ed5041bad722cdb48476e3722ba
fc461d4d21347f2e374149739a4bfd56
fc4ebc39cdd11d2522ba55979dd41eff
fc4d1490df3f5e094041baee39e87259
fc41fc27f4b4e8ebbf90efe15c9702da
fc4c4f564e342b084fcafdbd058ba456
fc4d965724f8f26313eb893ca89dee3d
fc4c5718307245890a6a1e317e851ee1
fc4b12af8035c4cef607c1564e5f75e1
fc4cd825838f59dd00036cf7615a294d
fc4e030c489478cfcbabf96ca3b61869
fc4b638278771f072b4d77d86b09f77e
fc48e74afa19066ee92193d15bc6f4af
fc4f406beeee31f6fbf283c40c9cb3e2
fc4bdf2edeb368f9dbf786321f3d64dd
fc4b754ce5650f2747857be5d26fc394
fc4f71756beb569f1b0a6127c39c42c6
fc41c0f3ddd291da370f35a75b6c1926
fc435f7b50c37b282956417efdefa2fe
fc4c6b15945c99ea52f41d8d982f58ae
fc4fa40c2ee179065511a376ae40178e
fc43c5416b948f7df7471ba97344003e
fc4254ea904dd945c6593b22124ad16a
fc4c7f25baaef1f7e6dd4d6ed84645c7
fc44a1b045a03a6eb090d0b0a0d40003
fc49e0d8f013bb63857800e52830deef
fc481e9577c692964d546c606b36d50e
fc4c53be35e82dd4535c96151f174d59
fc4beda0164a483ba54029026484bc6c
fc4c50b0550c5f8dd87c1d1636650cfe
fc4133452a2582422351aa6647f11d95
fc478212b5eb9e0de950317e26d5b965
fc409101c6729ef54c66b7461b1f67ce
fc42c4702a7375bca6386153f46592f7
fc47b03a2117b57479f33add1198ab84
fc41eb9deae739cb4df18b15d09fc7a9
fc47424d11e23a02c8e65301bfd4a71c
fc476f3516edc12b00acd80fa79183ef
fc4654b9cea5cabc03e8c003124bc00a
fc415ee2d2cbb3235a1d532ad4ccfaa2
fc42c42382ed23fba1a935182aa5d040
fc4f438fa16d87cae3c94d1feec6c255
fc4b1ae6247e9ff9eb38015cd449d3e2
fc420e6202a471a3d7f97cad1bc5ccf8
fc475f08caf797a6db5384aaadd9defd
fc498af2caffbea16aa998fcd5dc030d
fc49fa5a2f84b8eb75607030ba0565bf
fc40a6f54914f977f8b1c2fdba31e318
fc4a8bd222403630a84925313d0bf5de
fc4465c05b65ebc8691d51e94e3bd36f
fc425f57658896c4c17efb7e09277d88
fc4fc568a6d2253f979e990e0e451773
fc43636e897a32d49701522e766cce54
fc485bb168bdb122863c75f9d5978ddb
fc4e93046cf455862b41cdcb0f6669cf
fc4bbda2effdd7803969b9b38c42fac5
fc46173074595d5b26b6b65d4311bc14
fc4487fed37264e7e29383cf4a0b9531
fc4274f0830647893c86f51e36c4b765
fc46673129508bc03f6020c147dcd0f0
fc43e6c75ddd2d2133521cc047e97747
fc4f11e1cf4cee09aecb93dd00b50b95
fc4d87239a1f5280374f8c0625e80c02
fc428c974c3bfa8a7ec3bb0ee1d46598
fc486e47b4a00b8d97c61c8fe41f2500
fc401d2e77e0d02f177091ae485b381b
fc4fe37e6cca470d0dda5569c41f80b7
fc43c508e51ca7d7963f9d48bfc11231
fc44df4b2be342a6101fb74adac64950
fc44b498e5e9c009bee13fab70b577bf
fc4fc3e712c69f35d045f39da07127b4
fc4a4e8a2227fc175aa8ed6c80e9aa07
fc446fce15390947d0444de7f5f6559e
fc4d24fea6b98c2549b0d7f4a2b6e62f
fc44b06c02e4cdd467358ff69f8a2282
fc44942be511e0718a63be70bacf9f19
fc476bb1ef882c7f0333669b0acbaac8
fc476cf86eb7997ff95cf89942d71158
fc4e6aa49603aed43d8f4104f44dc03e
fc4f5156ee323c706567a12ffcc1d982
fc489fd64ba5b25df06f1693505aacab
fc4ae0c1a1c784e9ffd69d9d98dabe0a
fc4c35fe2acd44291b112c92f19f69e4
fc44c8f066af1d985973da4d163c7c7c
fc438c949437d5f1f1b57018ce4bbca6
fc43be68e375368103c75d703569175b
fc488cbd4cd9d0dfb0b240d800daddc9
fc49fbc0d613131b09ef0a5a1b205775
fc45d81c8e85f3114220a4549c3f17b3
fc4a138932eb58a52e74a8e7f853c32e
fc4bbc1de28be29c97b300ebeb6d26bf
fc44b68964db2220b654176d35b394b9
fc4542619da926d1a26d97c964ff752d
fc4f2169b9ce0468dda1a59060c14dbb
fc4b098de180f1c8788bb5f0462f2a5e
fc4e528b94d5e44b276eaf3655473e25
fc4b7f7f346831e04e5d47c45f1647ec
fc4d0d58472cd6395c548a82f73aac27
fc451c734a87e2492077d3c3e89d0a52
fc44104abaa12535984c4ddafd5d5334
fc467d7ea827d84d9df4394eb303c765
fc4abf43a85dcfc7ad50124682623ac3
fc44e782ae5b3f0af076d4dc90fd6f03
fc45845a546b6ee85ee8bb2b407b4d53
fc4869247a3d91b1a79ba350ba30aa6e
fc4ff24b0dd427a4d57e63a61e92a8b4
fc4ff7aeebc1cd5584008dd93002ab7b
fc4abb8dadfe55ee43195c853cbadf7a
fc4380f0c9c71540f7c4e8797b864c77
fc42a36d2faf5f750198eba61371bd5c
fc42f0542bf9d1297c2d1c9b0c692388
fc4781d9fef88c8d358e3e393d93654c
fc4b48025ee977f543d12e5041660d0d
fc45791b94cf19b70c40f8d2c20a81f7
fc4b2868a16b4b5ccaf9edc2c5f66663
fc467994374317f018541fb3de26324b
fc4b1dc92eb3a125f93bd7ac098df3ec
fc4cdffcb679d78b3ed7dadd155a3738
fc4d0909194ac3b1ee063e8ad9b1fe39
fc4bce0c305cae94aed64da178886b89
fc4fe334e7fefcee6e3d5e1cd5b99b71
fc46f11af2c63d518a8e6952a4f0f659
fc492a893b91f1b5ebc2628b321ad937
fc4bf76393ad0d8065d8114a928c0ba4
fc402a6c2b86bc59c02d92a193d64279
fc402a55b61370b7fa83f47d15985cd1
fc43fde5fe3ab3ea25a9a5634c49df96
fc43e6db43db76d1be72b7b5c32d05fc
fc4bf5ed0df32023ecf8adb947369a71
fc4c9bfb8ea478c27a6d8cc0e09a7148
fc4ee3458b3b62c58ea7496dd7657ad0
fc455ce6e5a82142abda1e1c2e0c680b
fc4948ba661fd6572d096aafd7a94ba1
fc45e5c03e9e6d3a720bb0ae680074e1
fc4324bfcd7a9433b82e169ea496ff8d
fc4920a6a119657c3535979056ce1a11
fc400188dd091877411ed97a7bffe9d3
fc4b7a01500c089361d3f6193d42a9fa
fc417e195658e2db5dec9dfb5c7ef1ac
fc4b611a34b41e7366e6ec3893246dd4
fc4a800705563515d85fc1c9e6d07212
fc42462f5f4eb308ead5be3454c6b526
fc4ad7cb34628c57faf6a20004690a3d
fc4319628efa5b5db08df6e4a8aa120c
fc426242b58e28619427299d6e666944
fc4b317663187ea4a0897bcea331fdfc
fc448780548c95fd58f48ef605bd9300
fc4d0b52f16a79b5f9e902cf3dc640d6
fc451198740941a8bb9931452baa8167
fc4ac964234f1e948aa2a2c62eb2a8bf
fc4527c6da9a14d3ee08e30109d52ef5
fc402db9ca64617d0c2db4ec39a9ea9f
fc415b71a7f495c660d7c9d96fc8bf87
fc41999aec88708489849f6fe1cb5290
fc4125949494e81904f5b0d819867ed8
fc40a3ee2a6aa83218ff4e6f80e4e914
fc42058805c37141064b389021bc08ed
fc4e37dc1e4185459c12833eee2efa73
fc47e16b231bf1a7be21ff39f5875155
fc4405da2f88453ef98916e568a9a6b7
fc4023e50de668a0217860c2261ac0e1
fc41397465704c4a05bf6733275adf5b
fc4c0c8a7babc5613e08d23c4be45538
fc4837ace36cdb3e34dcb14b9708b32a
fc42675cfda8605693ec994b3053f0cd
fc49eab3638b0cd09f7d894e9fd3c785
fc491ebf904218e578f10531e596f649
fc496ccff529678569a29c5be9c0b88a
fc43b918361ccd515c365d792f4538e1
fc47ea9c245732e2d587ea02da1817b3
fc4767387d7a0aa4ff49adac00b3a73c
fc499c24ade0b29c0cc7435d94018eac
fc4a5c3f2c1694d04a293ae69b98524d
fc4eb294ce0a16f6e7b020d0abd92ea2
fc4728e1857a1cefc6f0f490df630556
fc498fcd12cd49fd0dac3024a693c808
fc4309f515446d588dfd1663a311f8cc
fc4bcbfb2ab18e54a8faf9eb459cdc7f
fc4f2b803b73c46865276455755d792c
fc45d8e9c8f229e0eb4f1acfd84db939
fc48de2aa10af9399adeea1ded849a09
fc41ff63aaa8577a0efb1cc5cf929af9
fc41972f4d9ad6e7f7c7d1fd74ce4906
fc4b5b0e7727e704e2a3e5dbb4770edf
fc48f8d6669c33510573dfbec0cca370
fc41da068a57805b03f32647e203d3c4
fc42e255c0ad2daf7695423b57214a2d
fc42827b056ec26cb4216f69c23f73a2
fc4f19b5aeddde98861360963fe36fea
fc4b4a7e13a446c07a1696a54b743f83
fc406574d52e54352cff17a4c7868e9a
fc43ab182c807c58b323f6c01f047812
fc49db08a9555eb93a91a5b33f990bb1
fc4a8e4716700abb12fbafa48bc7501f
fc4b20a96084a0fc130de9116ea477ac
fc4dd0af2b171626111cc597327a1b25
fc4cfad9b191a50c0deb99d3b0a540b6
fc49c850aecaa11eb57498d78a37f6a9
fc44427bfccd100def82c2877eea0d3e
fc4a1ed142e1acb0a2ed048ede6d2b77
fc47a62c3e43fb06fd5a545940fb6195
fc42bd3935902ed84690dee36a500eb2
fc46e382e43abd2ecc9172961d28476a
fc4a059a2d9bb4fad5c9f558f5d6a1db
fc4fc21cfcea14ec26ae3d832da8ec15
fc417728c468e8754ce709cc295c8750
fc4a0a11fb512b3ccc8f13a488f83f5a
fc476599f2cbfa44aa692aa0d076bee8
fc45a24cf4e9ac3dbee708f52ef1c0be
fc4d3346361855ca9737c69d7a06ab70
fc42a6de1018bf8f248d637cedcd218f
fc487a1d7994def354ca648663148291
fc475b2f85657f03d8278a03e677b18a
fc4f730c36c51578fa62b86ac7fd4918
fc4040e3d6961b1b94712707a7dc2c7f
fc4974bfa26ba3b1cc1b2bceedc8b6fc
fc445eca3994ecdb8270aba1ead06829
fc40307705653c89063a3b476a04a2cc
fc40b3fef207a7bfd58da30ed029dcea
fc4ada089b95fd1863e102ca9a2b48b6
fc4ce3798dfe65097129ebce9dcda609
fc448291fd5a15894bb9ceb28847da0b
fc414bf1b7511b685ffea655b47a72cd
fc44d72d6b0bacd18c3aa79a41772fef
fc4603887a84bcc6534ccc75e4449e96
fc40b00c3b4046e0035a101981c006b7
fc4a830cab0a51721ac577a630daa844
fc4bd7323100f2ee9ba14f0ab9c878ba
fc43e249557d66e4f41a8f9d89720306
fc41ea7748d21f7a89d06aa89474f97b
fc455a8d76da4ef8c3b4966f196b2942
fc40c1dfe1257a8e4de854ed9d478e78
fc4cfe312b9fb15454a45a5cffe71ae7
fc4072e2986e7d513dacedc3625e143c
fc40e67bc9aae2962b609400dec417ef
fc4414695db58562ffd82f880e4e3629
fc431ca3c295e215d76d59b1f18dec77
fc4422f68f0f36d7caef31583f54f123
fc448b93d9edc596271d52897ee32a8f
fc451ac58b8e713439007b3330cf08a0
fc4313154d8cc99893116d3cc5076926
fc407a08637a2f4799f45fc572a92873
fc4a5d8253a5a70a6bfdb7ff9a38bb72
fc4f601b78e2851cd3c493b18ff62335
fc446cc67182ef4228ed5978966a01d1
fc4a568885b93bfbdf307b7a8dde109b
fc4c1dcabc5cf3f85648d87d48db9f56
fc49ef25f226eaafe07931d7bb3ecee2
fc4902be0cbc4d1a0afe44085fc962de
fc48e8bee2993d8a4f3384ccdf807882
fc49c3076a3dff1918188668e09ce03b
fc4277d755b9398c94bb15555e63f07e
fc4a654df00bad05b1cecb337a61e20f
fc4bcc399dea952895aeb12e5c6ee3af
fc423fcac6ce5ea57f56472fe582d801
fc43f619991607f6875f430775e146c8
fc47b6618befa035bf17713d358c1974
fc40a0eabfd43c53b5f4687ea82b99cd
fc455c67ef92cbc8134a9ad5a04ae65b
fc4babff015d5aa3495646d831d0fa56
fc46a10493ad4491dea4deba55553071
fc48a0a9e3c23c9141d8d14a8795452f
fc4109bb0f7aa038f3313a8339ade2fa
fc4db36d2efcaa4d47217a4d8c6a27fd
fc48c94883f6c10691c3c71ed6ea173c
fc4fbbe5ef0a9d2161228ef794a95037
fc4e65429ee538db34d0835de70cc5e8
fc4b7778d14629dbff0985892d3efdbf
fc43856e501fb74a8c8e830e2884c842
fc4b46c511ad7a9f78f4f3c85cb3d81a
fc4ddf32fb5884dc5f3ab41494309b6f
fc45859519bda17c7642564376a0c7a5
fc4f8dc80b066704c49d0fceb4b46e78
fc46298785c1039a971c0d62f042b353
fc47b42f58b2111caa98f0430302eb86
fc4a471642aa5c967bbdcb3480b244f1
fc49fcc0fce664168e2f18659e091adc
fc477d5ef274cf25daae04297df39dfa
fc405ac1eceb16eba7ca66c2d4faef49
fc41ffee0fe18f8ed93a311a19e38753
fc4cfd146ec20a6166a77943f341ce53
fc41957d1b6f06eaf6b31c8db7d231df
fc4e2e0d7340f3d09184f4d98e17aa3a
fc474750ce8967d42311b5978fbee180
fc401c20045380b07c5d87bacbe24c7f
fc4191a2a6296f7ee113d8404db7d7d5
fc48e0986b94a35a549ba1b145a7e60f
fc47f3b0704ec1265b88c97cb0737358
fc473060e5e2f6d75c0b717b7a7e1f92
fc469294f83600427552a62cb377478c
fc4116ab65083fe648d5c7b07952b746
fc4f1255bea39440a1ee8c417e09aa73
fc4f1b760ecaebabfffbe7ff7a80dbc1
fc48f05e3ccb7de79be1dcf08e72474e
fc44e512219f5c0d80d136612be61a0b
fc452b1e7dc3178261d514922edcf178
fc41f4a670cc9edbf53f41da34111c3a
fc49033e6a732ff21287e49d18eed233
fc49ae0a3a9f7a905624b12085c84f8c
fc4e67f3b907f098cb17c3e2e05c1f5d
fc49d35759d3ee8718a28717e6dff0e0
fc4671196399dd45e739e77f2680b3fb
fc419d4775a0fb1ff7636d9cba0e3605
fc4a7ac99e4b58fb6ed7f2691bce9460
fc4f8c549927ac233a21780023093875
fc4d143c14de8e8831ec753ddce279a9
fc4b4f7f9bcf369d18e151b63569feb7
fc4cb81cf99ecd101a6ad83363bb1adb
fc47f69868bf722c1c55194ff53bdea5
fc4bb6fb209588537af1e80ae70ea9e8
fc40905b2dffa39d562e1a5ae099619f
fc42ada1faf5d73af9f0435473e28e65
fc456c85f162f1ef7a30c6bf7e0d65bf
fc45693a8439f08afb1b0043579012a5
fc4d134002143b04f91aa3f205708488
fc49df8f28d828cb73874ff7c9e36189
fc4e8e2e3a596070f971f6a737f3b570
fc4a99d1014a6e59d137099f7399842c
fc452901fe23c6a4f377754473db78f9
fc4d17affc04eaeb5c44abbc4381739c
fc44ea49ca9a32f33301b369b66ab4b8
fc4116249184828723997591af0fe435
fc47bade60d22ad07e6ea15e620015de
fc49e7a9fcf19576878949b39205bc25
fc4a5f82e2dd29bd94473f4cb3ea889f
fc43876989cb2620481907060f41ade1
fc439eccd81e041708f3936cb0366d6a
fc40a012d2383f0190178090005b17a1
fc4cb75588d7b36ca01000b9114d3c25
fc4444870a1695911765fd68c5ff7c2b
fc4f199feb07d58d7107f898df09da2b
fc4c216178a2605ad4c9daf186c98768
fc4f68df007fbd1c7ac116445fa85558
fc471eb37d84fcfeb18031260a083e74
fc49a9ced4ca24b36e4d74cae0566ee8
fc4ea7f8aebcbd5425b24f2b4f57b5eb
fc4c9bf002576b6bd9a5451b5dfa6646
fc41230dc049bf5dded1ac6243df6db3
fc45869db57b33666ff6ea422aa5db02
fc4b33b36582c31c9710033fc0b36976
fc4ec65ac869714cd8175e47204ab7f5
fc4f868293556307ce9a80fe5746f9b3
fc4bb9c68fb69d6cbac8da1b6ee55e92
fc4efb19fd85cd57551e441bccd0ed9b
fc455e9c37f149eabe73726f90c574bb
fc4e9ec0be1871ec439051cccf89eed1
fc4e8226486ad08a4d3756ff313b5cbd
fc4006157771cae5e9e57c39eeb83bd7
fc4df67b25c6048160aa7c1580c42b4e
fc44f6217141a140bc1a808bcaa0f524
fc43e626af148d4513c8ee48341eb2dc
fc43e6dd5276daf9dc72ea935e5875b2
fc4ced240ac3d1b5c043fdf9fe9fb862
fc487c5791ca53f4ac263033eb4f38dc
fc490a7bc99c1e750331bc5e4868a006
fc494d51d990206d088cd47843cf6f8e
fc44533888c1fc98c73b6df3aeab3388
fc411fcbe8c0bfa960f09c9cfdacee9a
fc4923c52556c7fc7df09670ddc0e9bb
fc4d5befa002790d4680290c0ecd5b0e
fc4b3d132790fb2d2d12f35c8fd6f004
fc46127fbc26f012f77cb2ee5c4b5591
fc4e83b1dd90fbdff81c5bd43db3dfae
fc4bf20707873fcdfc83482e49086d7e
fc4a91a836f5d0c789ef63c63b55ee28
fc4007620d389832675f21699fbc9dd6
fc4390157e7b64f873763f4517282c33
fc4cc2f29468df0c7021241c19407431
fc44270df58781d97fafa0da586cf12c
fc42cedb842e9e0a2711851703a531a5
fc4a7a0176750f44fe0bccb6823ffff4
fc46269dae5be0ab314efa8182db247b
fc4ac2f3b6c7ccd9288e12cbfce3ba6c
fc4befd32986c8eda9b1864e7289ee5f
fc4209e4f119ab7f490227bfb6e3a54f
fc4abda2e4b9f85d688d08a7d501b28e
fc48306de6fe62653112fac99ff2763a
fc4d7cec2a0ea35d8d2a23ba23d42cb3
fc445069cc11bddde3b861a0239637f1
fc49febde339e54e161c65a4ec22b891
fc408d8026ea10322f6a1333842ba023
fc4e05c81edbd3fc778e51ca9cb3ca67
fc463b40c41112dff3a834f7057559ec
fc44ab08006cdb5d9a13c04aba944943
fc4891c09a5eb7767ac90a4bd5c15e1b
fc4f4e5096d4b30b898ec744c385b563
fc4fb8e53f28f2ea0a42367a3258a69c
fc47d84ea209bbc1927482ebb7d1e41a
fc4f7d0a0566820ae1798f2a98899fe9
fc4215b482c739269ef73800ef9fffd1
fc43d72d40398a222a2642548768e7d9
fc4f7ac86f47e3a26b47cf5f413899d0
fc48a49121e7328caf609a07b1d74340
fc4a68e60dd0817f998cc297ef359dda
fc409f792040ebd04b85be7647284a82
fc41242a15a883f666b9d264d0d42bff
fc4292d3bfbff49e4752828ea85d513d
fc494f86c1e9d801d4604c30940e9d67
fc4818405cce058f3d70247101f62f9c
fc4651434e277d187402e57ffdb8cb8e
fc463f01b15c3d5a199481116dec9f11
fc46c5fae6c4470424fab55ae2bca426
fc4683fd6e2ed8ab2dc050df5b8f18df
fc45f210fd8861335b74ee25f6fab8a5
fc4a0137466c1cc5f0e8153423c5b103
fc400ff602f640738e737f516247f22f
fc4249e02f1fb703cbc62d8ec6f4a07f
fc4495b9aed42361045df7729d4b720c
fc4dc6a4020f152054374e7efd679322
fc487c3fc212510b3fe8492d250d33f8
fc4f443808981e7065af1b9ef6cc538d
fc418ab3d402aa4d68372343a897f96d
fc486f8f1221e6da009c9064fae06031
fc43441cac83010cf74705998a36cd73
fc4ae3e72122a5e72ea0c2c02f81288c
fc4c2cd495c5f6fec776b90c0e8a2b93
fc484746b831329c18459ec07809a7d1
fc4d88aaabbecc97c3e38aa2c6672ed6
fc4e9d2e6543ee6c6ce6e3c0bf7845ff
fc49e1c557ea4fd33f67a8fada5a124e
fc4c99dbe8ccf6ad54bf7363f993ddf7
fc4a8e253ec757c6e4c230c7f20bbdfd
fc4af5d5381702f23d67fa9bca7b8a05
fc44f6c986f8b55ccfd2c2388680972c
fc41a0790b3590f1ab00ad91d99b7feb
fc459b00e6cdf36aaa6e21413d67822d
fc47b89edf5c7fdca82209ba7338b1af
fc420f3c22f48612f92c22b25b4fbc1a
fc4648053d2fa0a477d7022fb88fcfde
fc4ee523162827d66c62e2dc17cb5b35
fc4c69cd2c7163ef064bf487e9cf5829
fc49e6586cdc59b5beb7f0b539291a92
fc4909a9d092f306a1e1e1f13a0ed116
fc4bb575e39d304373d3f5d638a7a8b2
fc4502e80200fccf91a90f997ff6e4d6
fc4192df1e1edba6afb4f8159e61c738
fc4a0d10456342546cd53cfa8d844d60
fc4850fc8cb12c314f4b1ce3cc488e13
fc4922d63bae95f04c56fb7507e58ea0
fc46068c04e421b15f54b10f24615f05
fc439e5ee53450b280fe0d03ada0bf84
fc42e85e43f59eb6aa537988a0904a1d
fc4edf74b1651bd1bf09104df66ca21a
fc4d88c6b4ef42100106b23a216a326c
fc4b5b6811156479a3d6c66390636e4a
fc478b35ed469349224601a969d97f95
fc488eb20839077d178850e103075348
fc449d5ca552888b759a8e30c9a80c10
fc4bed4960501849ad419d8d347c2755
fc4aa5f4346769cbc54a35e64f953271
fc4f7f252dfad69b3f9cf613c2b93783
fc4900cf42dd81253725621d8c3d8509
fc472406f7858498b8ee6b31cd149b71
fc4566dcc9c9c858f31c030499a52385
fc47dfc1889317a9acd7be406ab35a16
fc4486eff81b8f083bf71a29dc5a52ec
fc4cbe9dd821388cbd087a535d95aa89
fc4350a78c19e59e09ab0ff746485d71
fc47381cd8909ca07d46e86a4c028725
fc486b8c343956b36ac9bc27943ad084
fc4568f768fd26418435fbcd35566786
fc4e8acddbf19c5356c23f62f97a5735
fc4b792966d9c3aea2ef63735dd89d8d
fc4fed5a6b3b18354856c9d8aff59ef5
fc4e8ccf985bbe7e54e0baab761ff182
fc4b7e612247da67f492658ea8c9fa34
fc4da8638d5dc1e342b17bfe0b283082
fc449f0f0cde16d39ba8c04083d46b01
fc4b962c5f3467a241fc8cc011434044
fc441a5fc764defd7144e29a7c7250d5
fc4869caf8db7e74517dee1308197be3
fc4eeab395794069e9f97f5d91e67fe1
fc4b2e29f03d597d001cb756ac07788a
fc415b6eea5da8df20071d8ebeef2cc7
fc426a2aae69d5f8c9eaaf781493bbeb
fc430be084e648203f345c91c029e10b
fc47009ce9ddcbe0787434f9622b17dc
fc44df8dd974b9ae0f15eb68c69b1340
fc4f44e6da60ced0726f1e29a1b348bd
fc4f5429e498a8ed073c7d0e41ce4303
fc44211defacfc5c3755a197178702a5
fc411a657bb0209207909afa82b11a40
fc4ddb80930a2a1edda7c7bad9f628f9
fc4164e0a56104ee945d72a5c44c78c4
fc4aa50227016ff86eda8a25c6e6b597
fc4341be1fc56e70d5ce6001d95e4c77
fc4045cc9033afe2738319964733aaeb
fc4b1eec41009705581cb4d59e7ebe1e
fc4e7fbaf5f7fc0d5a07a671e135a85f
fc4e21c17d5d5f41d44273dc5ce77707
fc4646f907668dd53da249545385942f
fc41e3a9a810c0e2df87c83740e6ec7b
fc4b1767ad5271cb5b525794fe5f5b2b
fc455ff5ba0059c062304a3f31302386
fc4e50a2eb2345158184d0295004f29b
fc451d2c38d1c0c9295cbc7df9ad05c4
fc48563b2836f386fe2a729576019741
fc4e86f4b39ce40a8f15cd1680bd55b1
fc4cad660b5b97b5d51f2a976e29a5e1
fc4f8cc2d6d5ca0147968dac1531ea94
fc4017a081f3ba753ac4cbce2f240e6b
fc497715139e3e69b52b5b2b5e07fbcc
fc4f0ff31f5da92a76dafd25638be567
fc479958e0a33fddf350d1867b177636
fc41a1f2fb29af282f6581a26a49fcab
fc41e1f44e4c78d85d79411a1aed9dd7
fc4609075b65ef602cfaaea662620d5f
fc4969e6fc6ce7ffb9b0a45bbbb80187
fc47083b0dda5243643753dd333bf6ca
fc4a537feab1bc5d2b21323e6ad67dba
fc49b2dcf47c5036ebb680c19ab5e687
fc47564a244826fcb96593d6f1666ec9
fc44fc47216c9b5e92d89b7e3f8d471a
fc483a52baff3b6ff359fdd2a2510d37
fc4b7a93b0bdc99f7d3e5cfe150bfcd1
fc4f0624d646cabcffae5c42f4b0a771
fc45757f713eec0b5a956b21b039c230
fc4f16fddd506911d082d54a9feae122
fc401a2644f9f8073348f7cc46376166
fc45cc2b028eda9a8a4da0b50351a617
fc43e751fff8accfebe1232d250b8e3e
fc4445b969c07b41f3e148d736051621
fc49d56d0780d221e15288d4abfb5b01
fc420d0cfe11a709b4cb82ae378dc5d6
fc47d426abdca4c145284e214b1c143e
fc4fc757b113eaef60982c01e4402588
fc4bfed684a81160b3333153cd8efc6e
fc4fa34aebdafa76dce60c452be15be1
fc4796ac1a430aec45d8dd98214d6df7
fc455524a6e94363e748caca57da6461
fc4c3068a5c05270f00f66b372436d0b
fc41cad35f88338904189a2fe37fdb7c
fc4bcdc9462e7f2f84e83f7fd73f5db1
fc432780e5d7fd0c0d015e97f700105a
fc42ee54165eacb9204a905a95e2a018
fc44ac00008579052df2d41d5542e503
fc4342247a5382418e5f3d727dbdbbbf
fc49f896d17bbdd53987dd866a5e409b
fc4e3f2f31806d5608b53f382bc648a7
fc4195b68ce0b981cc2d8184a690a1ff
fc4486d23371daa277b834217635bd86
fc46e54a29e7553007af62b3ac786255
fc44d109449f41396996a4e6b503371a
fc44f30b283fe3f6155cd5b6f8a4ffd3
fc498c3dd644ab86a215ec35eb25ba6f
fc4c542e11a648af4b775222ce84b02e
fc4306166ca89ab813ebf8c35fdc1d79
fc4ed7ad7da74ac17d921de54685b57b
fc47e8c11a7a82c0558010ec106ad267
fc455815a530d42b75c7ca55916a335f
fc4d2078ad6533260fe7d079c8cd0414
fc478b5b4094abc66260b1401239f9bb
fc4219fe78f5bf6105eee088c5b58d6d
fc4b734ab7e760e577864645a15340ad
fc41d1e2559f3590ac9e31ad24f48393
fc44a297bdeb8b9acefe757d0e2049eb
fc4117dc1324c1d8a07d9e30b00d3522
fc4a359c1a0e3ed5c3e0f3fbeb8c3ec2
fc468ebe264330d77100fb8d536cec45
fc41224f7ffb741348611cff299cb780
fc4fe0df3b8fe9f8526a5715f7e5394f
fc46b9d308f459ef030047d887fd4b92
fc4a71788f0a56cce798c2f6e847122d
fc4239f2c195904b026b15cf46e82748
fc451982a8187aace77dd2d375dd2e4d
fc48b3cc77d892eed137489811e656ed
fc44f98d7e10e5965b9411b1e3c7b62e
fc4d60f799f3f8bcd07a05b06b81a699
fc455b8302b8eac7b964054c452121c3
fc4e9bcca8009820f9a4bea08635ffcf
fc4fda9dc7083f9f7b3184176581d8a2
fc445cd8535b628dd11cb05bd07355fa
fc411a0d39ff918ab3039a77a95b9fb3
fc48eada43fb58c4590866a48974deff
fc497c68944bb02aa65cac3d6ef798b5
fc47549f854690555803dca55a70d477
fc4ac71bcdc1b04b41a679824d976c7b
fc4e8a7d94ee655b0acb16786b3e1b39
fc458fee2697bbcf74bc16c440f01c8d
fc41586031758a10792cb92b85ba9538
fc48278f414dcd99d66ff13543115ea1
fc48bfb9ad98182dbe3378c19f55b36b
fc4d131c2128aebc4489150eeb4f3647
fc4729661d5e4d0b8542984653858244
fc4512a1eaae5ee2bc259527ff20e473
fc4f97275daa2f2ccd0d8cb885618b4d
fc43d2acd7376ecf3140eaf2d2c6c717
fc45fadcf6d271c7bf13e6ca38285d00
fc43088cacbd71d2a5256161d8386aba
fc4f1e6871cbeb34d8701946663d064f
fc4d2883a4320411a6ac8c5f142e2a08
fc45d0fe7baf602cedce3d1eb57c0147
fc487d0b5f468ee7750ed512f5a48010
fc4e715bc08ec9dffa4ccd149ada130b
fc439b5d3696fd58d6588afd834696a5
fc44439699e63cd5842028a212c0214a
fc430a2939ebcf7aedf380c8503e8922
fc4dc74a5074ed5f01d94cc64f838f73
fc4f6cd003e600e509d2d791f7982630
fc404dedef76833f3ca11df6709d10ca
fc4d48be21220a8ad504f284cc6305c1
fc46a78412cbdcb82a7f60ea46dbb027
fc4c4ae36876ed5eac1de828ac5e5c94
fc42015c3e1c64adcc59a2e2a6c54363
fc46de66cfbffb77c345072a20e8c83d
fc4827f3572e9d20bf0b2934c684abcf
fc470f68a7693794e8a561128a902c74
fc4cd5b490190e07a26cdd1bf734ff24
fc48677cbf078ac5bb64dc73c5b2701b
fc4c42e035e8a2ffde3016d72a272d52
fc4bc6b61be82640cea7b37cc2ac698e
fc4888b7f5c6afa70950952174531096
fc478f8ccc023c196a487495c205d4f1
fc4a108596af21b2168ba57268e7e656
fc486ef7ad99d580edf081664d08637c
fc45deec44d846371be79370a717618e
fc432e943568354a20f3750105941d17
fc4f7d119c3c3aa93962a8a38ba6873f
fc42d0f46c8a3e7b74db80a0df72d76a
fc46bdd6a158b2e9ed80f35b8f39ba10
fc4df5e6b99c44154ffd050759e76f45
fc45a8cae32310cd43bdef06db9e853d
fc4b0ed9d3b6a1542333508944ee3d17
fc42d0bd0e03b347d0d4b0ab068ee727
fc4214a3635877e1f212cfc788247019
fc49cd76a38d1de607d32bfbf18cf6f1
fc4dd155391d038f7d8a851b3f2b4dcf
fc4d59264de63f10fa567d3963520e99
fc4bfd78acb3ebcdce2c7806ad0702ce
fc4cc2633dccc28f7ff90732f035fc26
fc45279b654d2c7fd8afeac3af0b673a
fc42e28549d7de79a1d9b564d40b45cc
fc4e2379dcdc6625c72d86cdcf3f1efb
fc49c38617605cd8c1200d383230110f
fc4f24fd5e1726390ddaa7b3a914eefe
fc4fa6e68b038eb4077f2f6a35ae7528
fc4d5959ba3b38ec8dba03a730de7fe6
fc45b86ceacb8b069da6273c5e31ebbb
fc42d76bb7928652514f4638fc73180a
fc4b59d48f7282e6bd417415605492fa
fc416ef30b12bb329cc91b17d202795e
fc4d97efeddf7a97677da8f6346dc6c9
fc4f2f84b9940a7ab1c435ded2eeb011
fc477f0593d78fea6dae640282cd95f9
fc42292fc73c086b9f549180d953d1f6
fc4a6e316de27ca1d9e432acd8b299de
fc4ddd4c2e152ffe65eef2efa696935d
fc40660e16d041bd7f303062b321b78e
fc4addfa117743d830ad05190455c4f9
fc4a4712df5c76c1a15ac6620f191bee
fc4a579e42a436a5e9d92f0781a2c1a9
fc46ae74297d91ba3325c8c1594849d7
fc45f75630e56b6d23dcd01221ee720f
fc4526a1813a0062ee1ec5891584b720
fc4bc66f88a1256ccde8a612ac942e01
fc4617ae9e5d19fc056a247456aac867
fc4b7287a97744616f4ee5ceefbed76d
fc4cefe641c0816f90db2560debf8e0e
fc4128a87472cfcb4a59ccd5775d1816
fc4b754f2051159e8c044a01a2276717
fc4be35a58c79d03a7a26513b3356158
fc4ebd601d3d926d6e49c4b8ab875f73
fc468577f698dc7938e762f371c94d09
fc47d81afca26890cf07df9a78cf3c04
fc4b74a049b0cba7b274761f9ad7d39a
fc4159159a45debd57f273ffc7536d42
fc438109a6d6d16a6eff66c565fb47fc
fc42f1950f90157c5d2207387360e003
fc457dcdfc02db358b851db7ba68dcfa
fc4f621789261ac50c0c3e211f98f41d
fc49fbbeac89d4a87a5c623721df5633
fc4fc52374f4e07b3548154f3aa8eaf5
fc40849780e54751c357daa589cc9a1e
fc43832469bf980c6cfec583473d15f2
fc4518da0703a8ee42bf3c616340f441
fc4eb36a0e766386e7197a47615d1e18
fc4a902106c613a9e45603c321a1a0e0
fc4d174bda6e2e473a7c2da29f10295e
fc490e64deb0758784d4d281a1a62cb0
fc41072dd656ac6142a373104dfe34dc
fc4323fb8d6965ee41a1f959986d558f
fc470c1c7df8f5016c3efd9b523ed3d6
fc436766ef832f7d64655bba760c4a10
fc42cca2b3b584014ac43f2231659c8a
fc4ad4b3177e76c2fefa74d9bcd6555c
fc437a102453ff0c53960f6a34553088
fc4c8bcfb89113a946220ece174eee76
fc47b72b51d946471c401248e524db0d
fc47a014825891d31cf81a3eca4c2fb8
fc4493e0f82ac100d8cf15e2d07d7d27
fc4c3387e0dfba2816f90599214537ae
fc4010aeb5bd80f6f30d9f457c259e2e
fc4eed27780dc7f65141a03e7346c1ff
fc4cb15a2fbc70cc3f6e68e8804cd8ca
fc4ba27512350679ead9fa9292409352
fc4039d28f01f87ce4faf5cb89dc01f0
fc4024629a8c196a71abe33c77e35ab2
fc49da997d76899e18c84d1f9a798019
fc4f7dd8b0b545fe2cb0e0234ae340dc
fc4fc8efbd64312d99ce4c82a1bf155a
fc46fef5e957e96745f1da26d178fe01
fc4197edcc6c5fde9cb3f7d8200dae19
fc47c5590c1eed611ec8a336361ec16a
fc43e39d2655d992229a7854e208b5a1
fc4a1de444ec6dc709e73520b15471fc
fc4d093a05e622a173be7d617084daa9
fc4768351598f5e76f3508e6b5d8a8af
fc4185c3dec3788a03c3b5c3c8d7f0de
fc45a3543eb9123b04057c6908c8f93d
fc40099deb570880d4603a09bb56a3bb
fc4b41bea756ecb5c285801cc82c248c
fc4ac2e430a57aae06df36fab3090b9d
fc44ead0a210f7084f09cb592e4c5e91
fc461a08d1994c3a5c10219c82094258
fc4a658f9ac44682b5ab5966b5b92235
fc40424c1fdfb02118207ca3f61c7ab9
fc497575df5f806a785340ab52f3c71b
fc474aa47b196d5d157a2a89ccdaa055
fc44b07bf082337295e177d3f532f11f
fc4c1708f732b9acaab27d701659494c
fc45dc8124ee6226bdb494191691bf4a
fc419c1d4a18f9d9fe937a996fe2b079
fc45f02291dadd01972a87cb1bc2ab5e
fc44add372693dff2dc2f0af672189c6
fc43a73b74392a661e6666981a1dd27f
fc41e7898cb4b1865da85c791b0350a0
fc46af678eb9ef75663a28dbfd76ef01
fc4b204c4de3f2211c67bec0c1d91a7f
fc4b094363393188877104138ca5910f
fc441e8368dc080100259797a11ed36e
fc470b5851ae4e69de1484e0ef008f66
fc4c550fdff188c98f51d15f0c37d841
fc432bd5a0563559e46e53682f43ae55
fc49dc2256f38debd016e22770177e24
fc42efce7fb77a42d501fe5e4893a0d6
fc4b3bfef47360f43bb692242978b09d
fc4b19b86140413f850f6d5b96fa4d69
fc4c7467a11ab8686138a31138faf438
fc4883edfcea8912f9123b3915150295
fc46024f4b283feca6e0864385d33ad1
fc4373562f35aa5ceb692b464000aa2e
fc4f2279e4be94f5cf139e662cfffd2e
fc4a46de67b291b0d32fda7f4d608c0a
fc410a768fb4ce4a9a29c4de02d4b285
fc4d025b8297617ae3fd939d802d0914
fc4b73d069efa334982933474b63fda4
fc4947d07673ecd39eef2de37a2edd18
fc4bd9e32b87ea37918aa84284f08330
fc41d73c1c56fb52dfea766159a34b70
fc4ce2e43719fefece9033ad268456fd
fc4822241cce8834a5ff0728d5949502
fc4624d8223a790ed883cc6f0b5cad41
fc41602eb91a4b3637280ad5e85cc947
fc446008c910783f0e7c6aac140e5470
fc4bdb224d4222888dc79e433baee56a
fc44bff994fd2e4ebda2280680e6899b
fc419e45da4a20dc3fabf7e7a5e62e9e
fc45e335777b8acde424aa26ac64e607
fc46b7db102d8a89b73d1b4d586025e9
fc410aecfb6acb54b16ca2bf8eb4ebfe
fc4e7df6d4154ae2cc6664275067501d
fc4358ee0f64029dd8be503102b01511
fc4f2f02537fb0ba27b2872d2f32e0fe
fc45dc5f9fafd89f39fb0678ab30c638
fc4d0b8da3c771dea745e3bc09259a00
fc4193450d67aa73635d636a0d649b92
fc491f76a589dc3fb426299d748a5c46
fc4406597da4529bc682aa68f51df21b
fc4b80ff6199b6d735ab926a6e259052
fc4e918a87a6e1c150379018edc2bcd0
fc420833b43370092d4750f1386f1b2f
fc447baa5c55b219b763b1ad6538f8d6
fc4f36ce39ad532e2e6de7276f8238f1
fc4da422c45afe334e21fb9ac1893ef0
fc41a66b2216d2ce9ee3aac32c56ad4a
fc4965c9b92025934b2171ab2b37966d
fc4094109d7ac35bcd1c600f5919f73b
fc42d1cad680703d8e17f3141770f8e8
fc4673ba43dec232ec33c2415c2f802e
fc4398e5e9401a936cece4f89aa189ce
fc41b0f3f254419b8e13b320600cc665
fc475e417625746c0e6a461818d7c740
fc4def0dd47a938efd09fd0bb51c3ec2
fc4f72e393e70127c0be8c7e46dcbec3
fc4608fb144beadd98ccca0ad3a772c8
fc43cd33afcbdf55fa9060efa464693f
fc44c2b53151a47e8fbbc5bb070228b9
fc4c28275063a8643380317dfada70e9
fc4ffd381f04befe06f5d3363f386f1d
fc49fe25b919151aca372cad287b8d98
fc4b94d90c6564b3bed8973695a10743
fc4fe9e78a208c5c3f732eedd85ba488
fc4ee1a41bcb5acb1545f18e4c985a93
fc4d38cea968dc3d09518a3913978bec
fc4861aa8adfa2c251cc92735189376b
fc4cf7281925c61d86a00d43b359539d
fc4e60ce912132391a658b324d476f8c
fc442c46e8fc3cb789a4dbd8228d5a3c
fc4e6f6f233d7cd242712afec9882d61
fc4b272e149b159444e8eb6014adedba
fc44595586be830c15f93f0f1a54a88a
fc4ac21e2899d7dd27fe57fe2118f4fc
fc4f648bbe15bdd11094cbc550716c75
fc45dd31c1b2e796e387aa7eb198464b
fc450faf357e1aaeacc6dd58361791bb
fc4053480eaf7f59ae4c17ec98afc3b2
fc4d7933d0b7e24a01c53319837ad6b2
fc492936467307fde3d63216bbac6bea
fc4af78e37bcf3236c766edae05c8fd6
fc4f3b59d17200696c6942ceda285747
fc4fd512c724bf0cfa81b22c55863acd
fc4779b07dd757b7ef422b9954bd4b04
fc4614e93dc3ae55c26da3da7ba844d8
fc4a47659d37bfa3fc45954dc3efdc1b
fc4b96320275a2e9b5d2c6005d9ead21
fc4ffe6fcafa1df414d06db11a680176
fc4f49b67b697079009cd9e0d3a8ccb3
fc4cbd8b147d471e6aa0f8576c85095f
fc41a6a24e61634014367d4e3931e9b2
fc4b6f11f2308cf7af2643ccd2fb5429
fc462c9b36b2e75c7cbcfbcd1cbe1bcd
fc41acc7a5f34df2c71769752c614ca1
fc47bcd5da9cfe5eeb129b078b78c17a
fc49df0fad4941f3679be9df2f1e6861
fc4b3a529614fc268e33e245868afb2e
fc44016aa6e47ef8083d83e2c0e0fcec
fc42637625a76ffddde7dbf52e93e153
fc4250ad49e8bcf025599be588ebd46b
fc4cf243151f0403c654fce0fa6e4050
fc49048eff316f8b96179a5173909106
fc4d9cbca5228be6ab3d8e2cc48eb184
fc43ee14edc00a31be46e4907039212b
fc42879ca5c5f47b1800b0f5db079411
fc4f5ccc98dd3a81a105f2d76892da7d
fc41cf45c47dc8f51d101f77cdd9c2d3
fc4847f0d505109d4ed6b8da8626657e
fc44c4292b392292b5cab2785d44b032
fc4d8b237081fbeaab9b75fcf50fc7d9
fc4fd0adb034efdf6627bc4cb7e00d4b
fc4a002231d4d5a38ba6c77d2797ddb5
fc46b8ffc91edc6889b3695fbd29490e
fc4195da5c571de821be47f03f5e65a5
fc483d38a259a442feba9304f49ce0b4
fc4c8e72c3b5e9ce91d2e74644c176e8
fc46a22a4bc591b84384576ff70940e9
fc4b723c454d9eec0c7b2190308ef3ab
