fc5e2e3e4a0cb62c2e400e28387b9d6c
fc51508dcc4dcb337263b5c2d466db78
fc5f00c63b749256fa79249b78ede09d
fc5f5b48d350911e41bbd86353c5645d
fc5a7d92d21db5a4b136f28647cf85b0
fc5fb35a7cc7aa4fd5b8643ebfac7358
fc52703da977f03d55e461ff38ea6531
fc528287c22acd146e114e8944a38d98
fc5ec09681d748fe8d19936a17dfdb42
fc51c891d805290ce3dc52a2c8f8437a
fc5e263902be3ebd2db8af0453001757
fc507ff6e8ad2474ef39a9836277fd65
fc559bdc908a27752266bc8d45c56646
fc5821e263039c88452c5b8f4e977cbe
fc506e412dc22cade4b2227959cd103d
fc5daaee3909b6dc4939f0cf82a214fd
fc5a667bbb958f762fca080a08893b09
fc5f407c4d813924e6a367fca2896528
fc58c818cb6a71afa3b62dfa92c9b07c
fc50c84c9139243d857cbf4d29d133eb
fc59a0c558291ee5f6639c878d776af8
fc5fc4f9d9edc7829cc170b2ed9542c9
fc584d0252ab64416658ba1616b04873
fc55edc6db2478dc9b44c8a1a4a5e975
fc5efd8cc98e3f414a0778497dd2a0d3
fc59b0ace67b70ae306cdeaac9dc2ecd
fc5d42111434dd50ef5026a459d08a92
fc5ee91cd7ee9fb57a6da87e74b71c9e
fc56ce3d58a3f7456e5798603373fe79
fc50e33498a6c32a54aad17214415d57
fc568d957337665fb37f0a28e64879c8
fc5afe9f1a50bda2b8c09d7bd985cf58
fc51c23b5313243e24b357a9d28ddb31
fc5c9b0efbf9c4ad25fe99cedfb81f43
fc596f2441bab644758a400807d4d83d
fc5b9b9da1232156ce91e5000dbaae4d
fc522251395976a6157718157ddf8358
fc5f534f8c1d043f2170544d2367a490
fc507948b5089145c38daf089bd445b3
fc55e42a67c5a005afb09033b5a5c38e
fc5a78511af88414c495f0a62ec917f2
fc51048a6cb64050ed74c648b73f0fa5
fc54cd8797676ef842f74fb88a667a02
fc50a7cfb5649819576e9800e33bea5b
fc5d1cb251fb019e65e0a7f1b19a3d47
fc52582e29b4e37785676dc9c4959f6a
fc52c2e60cd2589d62a94374430cd9e0
fc5a9d5395d63fa2ef6558152c905419
fc549d16838beeb0e0fd7e38063bb1a9
fc5e5c2cc959f7e8a4218873af22f83c
fc5af11509507eafb4f83d26a8d27e9c
fc5760acf6e165f59a49a5de34f09192
fc5bca8843dee1b1718ae4f2557d323b
fc5af61347a8c607dfe2356aba7aecdb
fc59d7064ef23e6a9d05c60900a58e7a
fc579b2e5fc4b63bf3d29c7b7f706c58
fc597b9c2c39b0cb2e74947f4f431164
fc5ea97bdc6c6e6cfe6b68ffa0d4e0d6
fc565a5ae138954fd4522c31085cb6d0
fc53e550febfce7b84f1e0a1a2ff8be7
fc5181b4a2fdb52ad53a0d0cb3f2ae02
fc52db25a1502763ae92a2a631a8a971
fc520648fb5b2af9dad0a1e54501d9e9
fc5fcfc1a9487d2869d7296677947e2a
fc5a98fedc327b9e00977c3d046d6e65
fc5ec69281e48b83adc78c2759053204
fc58ce7ceffab6f3ffb8c3f8f23f5c6e
fc5b80024b7ac5619ec76083f32a018d
fc572fa2f972c88bda042bafd2333fb0
fc5a5b548d3f40fc4bf9181f65df83b1
fc5e4a606f159c2c3154db078cc0b1e3
fc544a558160efff35e8e541477c3cc4
fc5baeb631091691d438d56422a45c59
fc5785e9368797e21c7007b234976157
fc597eacd7d3f52223b7b57aad0ce23d
fc5677b30e0f3997b5c8bbcd4dd0bee5
fc57740df83d1d4c80f8e0b3065f42bc
fc500962e450141f473e8b5fad85f6bd
fc5b54ad24433f06cf9b3a9aa72d449c
fc5975ec5f5f3b4ae5f43c5cfe0ae3ea
fc54ede7bbc8cb83eb94a1376d67db5a
fc53b06e1ba0408b93ee519db6e6f5b9
fc546053f6b8d81ae89a2646bad0a8bc
fc5f1e7de6b5d061609f82d9cac96ad3
fc5fbefdfb2a1fb6079bd874355d5ce0
fc5982724e3b80e64d0205d817821c78
fc554c86ba394776745207dbd8c26777
fc5f7ff9faec95cf19deefa508119c3d
fc5c536e7ecde57edb23cd121a311d87
fc5803a59bd7f3241d9a92738a0c9470
fc502f3a23013a269e45547a37aceff8
fc5712649c8d5faf8e18c54268cd2bd6
fc53a4ccc760450b355796fe012848e8
fc549fdf2dfbc3b3cf7695004c96ad6d
fc50f7bb2b58d9240b81aeb986367429
fc53ed16eb7e6947522b7e73fb949557
fc5defc834afce86dab7b5fba8a41b82
fc5ce261b7b5727d4dd5dfbfa1a58cfd
fc55508bbaebcfca14c63788f4a3aa81
fc5cf25f256b1b48282a54f3c86e3610
fc5a24c0a1a68f0a859d0c020fd0460d
fc543753aa0ddf07631012cd0acb7ab6
fc57aa0f368544fa072baec8ef5ae5d1
fc50e63a36d31358e072d24e543a7b08
fc59ccc4f76627dbb1e8aa9c942f2e6e
fc5cdc11e64eea9bd004d3fc400cef63
fc542efcde6c39834de576d9605d8a47
fc58a4521c8fbeaacbf93054e5632cd2
fc55717636012bd66cfbbc94426b32af
fc56410250b34d13f99102e14a27567b
fc572a8c22a507df46052d7151a41382
fc57ce9a1ee6968a67d4ef11838c2a2e
fc5866ace89c24a0246eb1d25e208411
fc5670fe9ab5da40f43400a0da90f0f5
fc52ec79637b8b2c34510388e877cb7f
fc53a0f95b1ebf2a834400a9c6e52f99
fc5adcc743835889f4a7981af9b98e71
fc57516237ef3259ba84da7477464d84
fc5337be03187ca52ab135fb5f622ba8
fc5f13ae1710148e71a6e1d0e0b72df1
fc59c24d6fec2cf472325bf88226d01a
fc5c66850356fe3a04defc5f8b182e2f
fc51324b6d9765ff16bfd26ad8ce3885
fc5d2cc500dd57becdae8a2ed07608ad
fc54e0b584d3fac37ee428f4e8b072e5
fc5c18cfdc4e3c9da88b7650c28c4ef7
fc576b866b5d87c90015aabac27284c5
fc54624590ddf55c6c500030f6385b27
fc55b092d83acc0a59877707442124f2
fc5192ecef5469d8c7db7360bb942249
fc53b420d32dba93b3db2b136bca560b
fc51e34721f8a8c4957f41c19c724042
fc54ccd418f9fc3b6e47f44eea9fc6c2
fc5f843f31cd3f05613c19fedaaae367
fc559a469f2722ea5dd23b9a43ff68c8
fc5180b6ce88a072da92068f0ceb5422
fc537bd8c3a38001fd70836cf70b4f8c
fc5b63e80b9a82d2728f41dcceffa95f
fc5e1b057318e8a9f9c8534dd4308136
fc5539291a949115cd0bb17806c134b9
fc5fceb85c51c4989c2aee8eaea7f6e0
fc5d3da4f20b9aafc84aa41a52aa1bd4
fc511eec94addbcca61dd4ea769d934b
fc55d91cc7acca56a7cdb8685cfa044f
fc5ba4cdbc74c43b86da0b314824ac7f
fc58f627a7abe958711780710ca5c223
fc55cb21854ab2a3b662dee00f7afa21
fc5c7f5e46df06203cbf4db9c91d511f
fc5966f46291651157754f63b609d20b
fc5866de8cd5ec88c27d98ff91a66be3
fc5e7e42a365fc7fac6e5ad174cc993b
fc5986a3a53e039c27c1f19dea5ffbc2
fc5930ac0d20dbb93f6ad87ecff4b564
fc5e33852c5fb8e83a0d4a8bf3813639
fc5def3f57d4298ae68661998cc3b3fc
fc5b0876ea4246a9ee3785db673fa444
fc5dc52d1e91bd536965a2223f76626e
fc5864d848cb7494364b4f033507966f
fc572898d5826770ba639d43766c20a2
fc52a531ad5813519e6a5f79cde24480
fc5f5b683e58debc4742fa581695de42
fc571cc693dba40728b34d9688ccda79
fc5a6b7783b1ce966d043a3e95f217a1
fc5ac8d551908b6b7d95db945315beed
fc5b6fa3fe54b465a24b35e7f932dc1b
fc51f2a72d34a6ac42805ee4255c5bd1
fc5929079471bc0cab0be7fe51fde2fb
fc5b558d63e43f4508331eed4d7ba75c
fc5f85bdef291ae5255d72856f4772bd
fc5ed1cc133b8a8cff1a1c41e998a0f1
fc54aea96e10c5aa47a1a57f889b88f5
fc51c4b7072292b18079ed5c07540f0f
fc59968fa8b9f05dcb8207a612abd1f5
fc5d951944d0c176da83e829673e5c7c
fc585f70e82ae7cf3a9cc7659bd8c9f5
fc502224dff180256bfe77a87da9cb6a
fc52f3875c52a6cd096189573bf1cf81
fc57bcfbc6e67ff7d5cadb355ad463b9
fc5ff2d864192c60679bddaeea0b6496
fc5d38475c5c01d958b40da6c140123a
fc5b0c5efa87deda11d1c1112bbbf85b
fc57ddf189355d9346c4bd1bb772c4ab
fc5122b8c74c5588197950b34c8ada64
fc55d2bc1a2111788450f96b97072e4c
fc5d1052a8c6dc2248d32aa269e6ca23
fc5b757dfb4de3890096d10ff12a852d
fc587a3190803c6b1ca60307906eb8fb
fc51d157ed0bc63e7518f5974a9b248e
fc5a297bae093ddf90b6cf4341a0ebcb
fc5c9a76ef24342c7220a1e3d88f9abd
fc50b08e6310a581783ad0301ec87f9a
fc5a0670c695371e1105cd8e8f784a0c
fc5a0c6cb0e10939859044f300b01708
fc5825b9e5bed979d4528f985477c33c
fc521aa2afe51050268bc7c670de33fc
fc54f2d97da52ecb99b7bce40b013563
fc54ebaa29555d59ad411e86f6150d27
fc58417f2547185a7540bbd3fe32c9d6
fc53c56d47a564b215b46411b8bf8488
fc5eb10eb598a90e04a7dbbec18ceda5
fc5b86feed3c766227b63f513c7800ac
fc5d5a46632e4890d45fa92cf7e2fca6
fc571961cd71e64fc7c479aa8776543e
fc547ff4ef4d07f4987b47ced0371961
fc552f9911241146f62fc91f9a264618
fc5129f65663a59a2431f5a696ba9aa9
fc56d1f930b6cebdd66f15100799fe60
fc50259db4030f0c356904c90183e65b
fc5bee284b2e3d0f8c943e62a9e6d795
fc549c223650948d3319ba9bed6351ac
fc5114e4600f2031b8122648f345bbe3
fc5f4d84a1b08b2d5c10934564f42dc9
fc5429c5cd0be7b27cd7a7af175495d9
fc5f6084522889338b7a127c9c751d40
fc50bcee8eab75847aeaf63b23097ec4
fc53d11acb6846550bdec3dd10f0a67b
fc5a2d6a3ad58025fd34219c167f51fe
fc56c9fdc04a6085026f7557a6053ef9
fc542d3f9e5d644b64aa597a363a418f
fc579e5353c4012d8fda1c0855015eec
fc5e12d0272621acb7dd7cc38f39d373
fc5b35694b3e4fe63ad3a0c69fa539c9
fc53057df21da18836e9e901ab58cda7
fc546e27a0e3cedabb7a954561fbb6ba
fc5622f1cb16ce27841935b1c5a866d2
fc5c3eac34d88ab4661928c9cb51ccaa
fc5854516e0123d3bb20a6f9b1456ddb
fc59cd30fc8b484077959ba2ca67740e
fc597f5d9f27f198311d806ff4d729d5
fc5aeb48b3a38d27cdca8119625be723
fc59e5fd8f884066e0bde695d6970b49
fc5b75063218a943129c45ab2ac58aca
fc58489e48d5798d880e6b2676918da4
fc504d1e71c4b41116e56f4d90aabe30
fc5b6491561b9d42086a80a92293471c
fc504b4d5529df07b9a230e520def27d
fc5392d07bcc9376576c4121e0c462a3
fc53f7916d17a440c8d28ad02b24469d
fc5b0d022fa5ea7ec53fb7972b54a410
fc5a781603d4721db525bdf13371ca4b
fc5efb7687b1a978b008399d9f8e8e9a
fc5707babc62a5930cb30fcd3c8b9117
fc5c9c4da139093f72a7b99a0febcc77
fc54ec8efff6953ea6e2c2d77c700afd
fc50e6e9b4e3a695a9f6e351e9d2337f
fc5dff71519dee65bd35f9e70d3a980f
fc5c3131bdcfae7ff38e4dc6d837f51d
fc50f6c03ec173e7de95c70051c5d9ed
fc54ce6cf4e7ea784208284190312daa
fc55f84fe129ac2a8348bb3ca1e526c8
fc55fbe8a921f3a1b625ed6653355efa
fc5c68b7592f91e8f71a199dee6694cd
fc531e01c34142b853d8304845224892
fc58f0af02ccaabe340281a80b03a517
fc58a0a83ff1c2caf33cd7e308e26108
fc55b5fb3eefc55088b6cfb06bd48879
fc54b0970d791221d73b75c1c0584fa6
fc5541ae1743b65666b9dbaacfdcf930
fc5184573872b2e11aab2d43afd07221
fc5de5c90197311f2ef4b213c530fd03
fc57b6b4ecf56bb1325d278da969c377
fc58f0ed57d48a786fd4e339cb59800f
fc58237f182fa58c4c9f1934fe82a757
fc5db5f9a409571f888db040633becf6
fc5f338e83a4785c81ff7a8d4cec5c7f
fc546654ced991c025773455778a58b3
fc51c10891eb221a731452352e4c23b6
fc599c3ae3d1ebcf9a9903e2e62eed1e
fc5f9e409a1e25304a5576d9715c03be
fc559d26e539276e2ae0397a6eb93111
fc5496a4e85e529d3d04e04e04a4afe4
fc5d026b97c5be3fa3c399c658aef7be
fc5f712ad40d9edb6f9d2769e49c0013
fc58bc190bb0c3331dcd23ea41b661ca
fc5c1faae1114755d38b8ee99979be21
fc52c4f8ece6819c93c1404cc29c974b
fc5086e4dcb2ca9277d74785cbac7967
fc5aec7ef8d415fd8357738d6bffec64
fc5ad4d9f19333517687662b9804aff0
fc56df3058afd4441a354e36b8827409
fc5a4cce3c4162a1ecb478deb11baa34
fc51cf98c68a121b0416658920aa505b
fc585e1997a506ae978cd9d4565cee2d
fc5b4ed5556339809e3e07ca046dcf37
fc53a9ebd751a3f9bcebd6f0a72da552
fc5cc52f9be23de92d9d79591b290398
fc51c3639fdf5478ed0ec6ea8cef9a3d
fc578e2dddf57cdeea94da22bdce6cf2
fc59c685c75201e0cb69be612dc01312
fc59425a378a37335975f5f360337614
fc593b04dea045ddc26c543e6912ef49
fc5a5f5bd55a9e0333a7bdb98affcaee
fc50808dc923b77dd52c1aaed78db480
fc57a79554088fee4735f0e22c5835bb
fc5990c61b8765a18b3dbcb2e70c8867
fc5c208fe8a00a0a02d3baee9cbd311e
fc5b0b68c32fba0aaa22d96c1f2ae15d
fc548908f804f355d84bc3db7d77efd6
fc50cf007592447f1372392d7d5030a6
fc50e10118cc7e8f52c9ddf7af20b85b
fc5c0276c44b7694ae267f929fb2ae5b
fc5d6e0ca24070485e431d6509d7b395
fc54047145e5365c3c0b88820344b555
fc5eed4f2663ebf42621a1e7532101c1
fc56e725f9026c5fb9267eb8c26150c1
fc5cea1b36e4eabd97f95520989ce601
fc5db268126fd43813fc5c8c57ba014e
fc577056f4e799ee8c281234fdad2b1f
fc5d95a2d745182f4317e9a428a2454d
fc5c53ac704df2118cbcb0612b8b944b
fc55cc0f6556b9ce2a1290ebdf62815a
fc535019dc3fa71f7a2983bb8594a07e
fc569afeb8d6ec192bcd0a9245e46df4
fc5540f1e295ab9dec1c54ca76a79fc8
fc5f6354852f639d6ccb9be57453d295
fc5805fc5260e5b0f66d28d382f0fd4c
fc5c353b3ce39860a228cd24fdf65a0c
fc5772449132ee49ec5203941296c97a
fc58ae0e7bb8613b732fbfb0dba21c31
fc5b2dd0eb702657b3d3931f6119f849
fc545af2fe992eced252187598d25b4c
fc507a1037a01428f31b37f0e3d406c5
fc566e9e6eb4d2811510dc1b5525dbf0
fc5ea2408fc42b7cd9998800c41a7ec9
fc5583bd70f4d3177602696f3fde372f
fc5451d0a919b673550cb0c3db3de210
fc505c96cac6bda4a5e100dbafd3c5cd
fc5c9ea204eaf8931d3ca10b5f59f615
fc5973319b182fa1d25390e0ea75032c
fc510dfffcb5615f32ed2eb593d17c7b
fc5de50bc00ddfbbaa79454f7941cf60
fc580f596218cf845792ab41ff947067
fc55f3219016824ccef94fa4db34852d
fc5e55db0625941b2a65c5281221e6f6
fc57fca3c01c171edcb7517cd56f3083
fc53a3c72908d129138cdda51eb38d7d
fc5bb816b485130227215f5c7dd0e615
fc5432e93d86bd86186caaead92c0b7f
fc53dfb18a46a2a83010a0768571ba65
fc51ba5e9d806a5a207aec30d75c3d85
fc542c0b38af5e1c2dcc9c0a8c1ae855
fc5110e33170ffd16ca44c2609197fdf
fc55d57ca730c5a0763c4290176ca4c1
fc5683780934cfb9955870f3e33a3531
fc53c844b6322ea300c451b43c39f29c
fc5dfa25506115dd6a5a903cc6012880
fc586d74eb1d7224578cdf27e557ccf9
fc5824fdca135446aadb985ac05cd9d7
fc5e66df639d9e45f19e836fa0780b69
fc5dc5accaf61dd8be40ab3f7f1f1f85
fc5966a47fb997d685029798068051b1
fc5790ab423daf7fb1171793fa8d2910
fc5afa91b04741d959151d0d5697457a
fc5209cc7d7efbbb05757077d60800e9
fc558ff05e8013bfe3a1dc8e7d84430e
fc56d5021dd4274c3f226958f54cad59
fc5e14ba8aff4e4aee98a29f48a86267
fc523cae3e45c59276a67bd9ff2fb8d1
fc513180d6cb6c260db409c309a2308b
fc5853e77b2a68b0b0340dc793edee6a
fc5ac5785c163951430ca5408a2ed09c
fc5c6a2164261c74e75e8e1c8008e34e
fc5d2a4512e79e15aae51fe1585614a0
fc5595c39b030bb937bcc1c6e21def7c
fc5001ebe473b412097f1c65c885106b
fc55c930b04cb63bb359eea0c81ff3a0
fc5dda7c164969a9f6b0f7eedfa0421d
fc50f4f420c5f844a163aa69fe945f29
fc53fe747e6cb63d77d268920805a276
fc5456327e4b0cea3111e341f143075b
fc54d58e181fb8dbf18d37e45ab04a42
fc5ccfaa342e1478a230261e190063de
fc55682a38e71605a81ba503a49b5018
fc5f946f594f946d5596b8e565d0a68a
fc544535f70a96549ed2ebb2bae8b23b
fc5bdb70297a4abb873bb4c58e47be23
fc5695a9db8c9299cdf23a48f523ded3
fc55bc449b60ed40bdde94b9bc8d7710
fc51594118bfad842b755c3aa55f8db4
fc59f07e2597713be49597cdc73a795d
fc592a4b7e738492299f5c153993848b
fc5d013ce31e8cde0ead777e83dd2bd0
fc5f58249a75141cc4bef319d32786b0
fc5f938fe13bc6664032dc6b2ca9cb5c
fc527803fd9db2da10be369d1be06b3c
fc5f2af73bbc022e67b22578fa10246c
fc5b7c4e224cb005ee906973e68d3153
fc59124fc9db3cb4b36fdf6f45653977
fc5011ae87dd4a40f83d249dcd91a9e4
fc5d68035007ea74b98450a0175bd47b
fc57ce1cecad3015e33f3c8a7895e25d
fc5d4732e51457aa5eb6f1e040d0a204
fc50b9f4807c6c183954cf6ed36598da
fc50e596ebef9ce6c6ebbe13cc3e33ef
fc5a0009d4dd9cce346950bfb00ca8a4
fc553096ea5ad605ae3204a92d1b8c1e
fc5ee4c9c809216779daf5e25acd4bf3
fc58fc9c88c30386d2a4e65b41ad167f
fc57bd354b20562e301fd6d4d862158e
fc51105663f7446b9cb00f839ea49977
fc5939d7fed5ce18f6450eb4853a4975
fc55d87271a0bcf2f33fad92cbf3905c
fc5b7c968d3283aa9e13f87ab2098c3a
fc5f99f93ee8a55b6eb3a97effe49c3d
fc54a4cde66b14691f9b9245f47c6e6c
fc5a57188b88b79bd69ad6d9b9d15825
fc5ac0da1f929308116802bdaad58c77
fc5d6dd99524ad330cb342fe3f6c8f5e
fc5bf6ebfd63f00ca82ef4bd3c601b02
fc59b843b932bb51b66101669162ea4b
fc50161aab2b9bcdad8d9537e363c539
fc5dd42df6475fcae801b40c8710fda6
fc58b1f37cddec89944c13497c7ff739
fc5647f210c1f8a7ffd729ebeb027f65
fc5ecb5788f6c818b0f2d975aa76c350
fc570a2a7b3d2ff877dbfda39571a304
fc577694361215808b38a19b006050c7
fc590d7767c4c3d4a4ef82a0d3ac9c68
fc5f5cd1264b2e93124880da61ede96d
fc59cd415a666b53408aa97dfff21d30
fc5bcf32e753a00a0b2ebac30f8c2962
fc52ddfb55f12c9f6cadf9c32a304d8f
fc5c929d90a0c152f18ecd4030d9c347
fc5a1aacf5391c0882f3fd843e4e3356
fc5a93c685b08b69a573089493ad3a3d
fc51e1e152d0763e4031a1c292dee6d9
fc5708c0fe14c5f6ab9f53c95f9e02d1
fc5490d238344183167d811e022d56cc
fc53f312b6539f0da952e598978633e8
fc5fd29824085db1397a2e0a485f3a69
fc5865616d1c27cf32965b87f0fe2db7
fc52fab98e35b5f8abf5a45b19f25a84
fc5c867a4e2214de38c28c73cf631401
fc5111e6e85c0ac0512f903805b18da7
fc53e052ed2f428862a8c4d8f4339749
fc5e5df0bcd08694c1434de9ea9399e8
fc513f167bd7e6068e38915af76783ea
fc5829d213d7eb9e5c3e883f9d8d7dfb
fc58d565a960ff132d57bb1619b22fa0
fc5ceaf4cc7666ad2834e874ed447616
fc5796d79ef4169ef2a58722ca055fd2
fc56b47767880d62cd8288bf6dfbfaac
fc559c0186d0979f0dd4b7ad784d71a9
fc5a2623e249db8410bdc713304ad4b7
fc5d95ff93c348aa0907f845ba35223a
fc512d206f17bcd7e7258c7afdc40753
fc5e47c61f2ef9360252fd06d5358614
fc5f844b7004b63a9b42010a81ff88f8
fc5fc71cd8d2c67a87e94d2bc085ce9a
fc59832663418c57362397b0c09293c5
fc59e822a01665ccd05afd067b33f944
fc5b8aa7e507f4db9d1d3b3677a72000
fc5b40415de675ba4d60320d7eb74958
fc527e09a238145a6d2931b6518ba23a
fc5d11fff7edfb6d8ec5320695870e1c
fc5f3952982a15098465c0c741ca328e
fc5ff6aa265326a79aec3dfe08cebd10
fc59cc533e7f59357286ac10abb83c82
fc531b0b6c19e3ae0aad00b8b621af72
fc5e3bb49098a9204205930eb304798a
fc543218e74ec018ec5940aa58b80484
fc55e1d4dfa341a879b3700467a2ab23
fc5f6d9b2a970495d16d73b84033920f
fc5b45c1ab273ea263e6459d3a392b9f
fc50175cc82f72f255e6227455b84ac9
fc551077d13a7e7af0a262757d0813f2
fc5b993ea4f6555e966e62912c8f100c
fc5bf8931d3a25033381e6d47c2e7ec5
fc58afa728fcc39a6b81813396ee9e0c
fc5ce1138ab2bd2c4b9d77dfdd5edb2d
fc5024df25780c0d60e20fd8d02732e0
fc511cccd5eb017e4bf6e176156975ba
fc504565bc1b50717d2fbb766bdd6653
fc5d65af6d64dfd20b6d45d3163248f8
fc5385c85726247a7d0eaad9b0bf2132
fc54055d98fdc1aa4c152f790fd90c13
fc5ee10fbde6ffedac897e5337525de5
fc520e3654c488416faa77d515eefca5
fc554e1222ae076123b20eed04ebace3
fc5a5dc61c6136eba432efc3c649aa40
fc5e9bb290cbc9790b8c745615838dcf
fc520f2d7fc80fcc137fc468b5724104
fc52d4c18900d67eb668f98304816f95
fc5be10f24f690fe5ca98645d54357e7
fc5c5f350ab0e88af5a892acc516f6a7
fc5ace9dc1682e85f5b3a1fc98793b71
fc570cbeaedc1e36200683cd0b3a6ece
fc55e644c2f1ead561a1a15c8b2dd86f
fc5faafbbe00619868bc29089dcf8dad
fc55ee259506476527068a4b76f4bd71
fc538c3ecc9b3321d69745e37f5ffbe8
fc526b610b96de6b5604869ad1208d2e
fc55ba99c57bbd5e9664443abd5eacb2
fc5a30acad9f1f316ab110acb84f5fbf
fc5426f351a4c8334763cf00ba7bdbd0
fc508812d2e6816d1232e84262497108
fc5ee14d0dad51938d55be132719e8d3
fc5f099d2236eec30e5cca0ff170a29f
fc5aeec22fdee89cbbd19c685698484f
fc52537a93dd449f6c86e94f6a231c9f
fc567f67a91367c3cbd2d9017f4c9840
fc5b9da359dabc2d56e5e4052ef6bf58
fc5e6cd9ba552dc7c08d8bd415527798
fc5503e84e4d3c4471b900653aa5eb91
fc582f5023d3b3b03c6bb1bbca756389
fc5d11a654dfd0f4cbf18ac5c5dbe491
fc586c3258314a2ba8ee524da4b230f5
fc548955fc399d9f24e6a137634cbf8e
fc53431aba2bff6451ea754ed3e1230e
fc5d83d40ae4d628f8bceb974bfc2b1e
fc5075d3b6ad8f747a42cc9d1932bd1c
fc5d06238891efc81cfba852d37e05a3
fc5a4140dccf643a80ba151fa9570df0
fc523be7acc11ce6c2018cd76332119b
fc52c2f8ffa7db30602edaca6ca274d8
fc5e32771a0ea42588658fce018a407e
fc50268624bb0e3b7190d34498a0ab4c
fc58c96fcd20ef189f70074ff24a386b
fc5226c7bcd6630f44f82d44a0720567
fc5c63fdacd66464738fd32db1a701bd
fc5da8d4d0a67a97efc96748f7c8eeb2
fc5a22c4fd929d4d26e164fdb9ed4a88
fc54fc2d1b4e138b15f27798b7ca3b2d
fc53c71701ffb867554bac280544cb17
fc54c5bea7edb5c3dd599c23300f486e
fc5398527997310aa1eda144ab6a277e
fc51e3aad471ad7e1329c645257aa4a9
fc5406810d75e8ced0e629cf05e55f5a
fc5a8036f443c4cb40bdf9de15309b2a
fc5f27a0292508d1b3bf75fa2f02694e
fc54684077766a55a837aac4d64fbbe1
fc5d861b537d7eff454758b526ff6ba8
fc5226d5d990747761d445bb43438ec0
fc5376472a37d1ebe6250a483313d3af
fc5481c021e6ca531a3d81c7a15d7291
fc5e9c1061b6ea2da80b4c799429f0b0
fc5784dcdbba60f1920d6ee98c4389d3
fc528cf0a44e9bada388e58325c8aa6b
fc5a137d8b570a926b6e45e7e8fa9a25
fc5760ae48eb56ccae3b8abf749fd71d
fc5d1475a695cf76fd7a6d0e19ca40f9
fc55315c70baf10102fc408274e8e195
fc55145f2a359b3e4f8a714b9eb70f69
fc55d0ae014d28b05a239f71bd3ba3e1
fc54ba3483fa2b15207bc6d3df8a1129
fc5ce5d2365c910183c0bd0984be586a
fc55299daf99cd4e005b266445abea15
fc54ac023173554dd24e9fbd1091ca80
fc57c5c6f8edc9032aaeb5e366066943
fc5dcb1782a57eb628d40f8ef3f00a4c
fc5db5fa729bebdae1543a735b604320
fc5edd2079f67ea5a4b1ffeecd608f2f
fc5f06fc16ab011650b90b9a0f198661
fc5e1e99451877438649b49c13fd8178
fc5361303f66a5291828d598fa7200a6
fc5c0d27e89ae0b3a22631b52b465cea
fc5a5dc6371d9cb69ab29d1e631c69ed
fc5f83b87f87d3539cbf01961e2d58a3
fc56516885e4e9e24831d4111b234a4a
fc50b214513a7d5057962f8f56fd0db4
fc526c1d18a7387a42e4340ddbb51630
fc531669d08111c1acef3d5f0f8a1dc0
fc5e450c734e1b49940aa9e2c9d94684
fc5206fdab00765262423fb45cdebfe5
fc5fa29fa7d7e4edb3a3c6619d49ae62
fc52ec586cf8a63758dfe782067aab7e
fc5041eb37375b6536d222e3dc261da2
fc51b8844b7306ee67000d2fafa56e3d
fc52e5a2f2b6dc228efe65a54a5dad80
fc57d1f50224fbd4bb13b9dcdd0df357
fc59829f3b38a9e211e03634bb74786a
fc585c0f9bb9c8c96ad47542bb1b76fb
fc5a017212fdc1b85d96a19c3df84f28
fc5b1475c86ba80c4900bcc00e3b7fdd
fc5fc5969cf4749ca0fd60ee295e4c0e
fc5b9b6d6e18864850fe6b1660783fda
fc5dcacb202a7988f55e0cdaa13d0d89
fc580ee9ebb08f3cf9a5fef4d3912024
fc5c841ef1dd192e27328f5a0734b162
fc5d8300d0eb02179b8be132740ddcf7
fc5065b4e34f7eaf8b02164e7602929a
fc5031802142ec820f05e4c931453dba
fc5ae3fb1206d41e8001c7af4c7c0316
fc555642d7a5bfb6d1cd7bb21182afe0
fc596fcb7d6c853ef9e49254e619c24c
fc538a7589cca035f3737ce8296768be
fc5327a2bb9fcb098ee1cef1a02fc6f7
fc52a84caa64656ac84548c64517d60f
fc5ca274ebd6488091aba0fc99109290
fc5d6f48d0c08cc2572393d0b2e310af
fc5c643bf6daecd9f59b1f69719b79fa
fc5cca32bc6c30a5ca3c78a60ad2d5ae
fc5175512e3ff3c7afd9b07e80abf6c1
fc52c12f122a193b958829b6b27c20f0
fc510704e5f8645e45358edcf71c9c8a
fc532340209ac85f5b606e1268d5981a
fc520a9c75364fb8eddcf781e2cde6da
fc5ff05631000e52c74b1d87e33739f6
fc541a3d0a5509d2ace249a929ae7632
fc5bcf41f55827d1fb76a58ab98415ac
fc5ed3f2b7ee3a5d9bef50033cc1e0ee
fc50ba31addd8e87e6638d66f4f8ea54
fc51d69c9d3b306eb8699799bf13bbb0
fc5cb9b0248ca2a251284eddec956835
fc5bbffcfa95ebb674db85a3d94d2b58
fc5c45d7a3c0917fa3c0ed4d6ae9fa72
fc57a947c83a3fff5298f22543a03a77
fc519017f45785b747e321402b888b8d
fc5d3d3b1f17a8b30e6bad7510d336ff
fc5ee21c266a83c3e5b1b21c21d87a58
fc52a166437e87986cc5bceb710654fd
fc52b7e7cefd76890ac94f4032f7d5e9
fc5ec9c821e61ca54678a66f1a81cb6f
fc59f6a3458583bb1849ddc2a6a6f8eb
fc505e1398a6c613a650a2d40b3e2c28
fc51d4488e82f41882b4e7dcbf5e63d0
fc5fbf4d0aeb23f8db547752d763dfc1
fc54c16b5005b9f38c42e62155b4a7f4
fc534482d863d9cd55729881ca9050ce
fc51ee13c42fb6565672dc7732920e74
fc5366a3ce822c04379e36bbb72eb0c6
fc590c7b21609007865bccf1483e749b
fc50acf39ee77396bd6df69ad011d5b4
fc59a0daa41a303418cbda71da291787
fc509f88b2915982aa589e3eb0d3a164
fc5d3ff85498c8066f466636eadd7eb1
fc5698d691e1bb0250b76912bc6aff4b
fc5909edf935866cdca07ee70b44a007
fc5836f07b4d96c8f8595ba4e9af8e00
fc5aee0e9f84d87cf8d4a7422c637fa5
fc5659cda4d90d264dc42b829c12ea4c
fc593cdbfd4f973971bca56fc3cf23dc
fc514cd1b93d9b83f7c844d1993123cd
fc529d14d5937bc6a4c9673c5df4f879
fc59db8f9512b102b83d473a0e94ba7a
fc5c9bb59d5cc6276958260a1c0839b4
fc591108ddc1a530ff44d2b0001b83e4
fc53e20e65b62808d706237d608d7dd4
fc5af2ffc2fdbaf420815e8fc81484bf
fc5fa901943436a8b6b3a1394109cd97
fc5f86e8a1c00d0d098ac02852090e77
fc5bd5e83139de28c16635bf59174b97
fc54abf1293439579369cf9242888920
fc5ed8d7ccbb5bacb636edfa001690d0
fc52112d42cabb1ac5936cd0a345c1f6
fc5a51cc885b8c6a56270092de4c532a
fc5c4226e79aa2b09a4243284839e298
fc5d2b8f5e1632d7660f9edd39bee068
fc5de43e2a59a2c3775323737895eed6
fc507cea39ad061655f56a5867d7249e
fc5b1cfb9839fc5c28d2c75fe37c7989
fc56471e303da6939d600d7089fd0a02
fc55a11ce4ecd7f31b047502a1d9699f
fc5cf9a24c2e05d542705eb615fb467e
fc52ba213d39ab63bbf59e544c7a620b
fc5d2ea054e0ce54b5ac61ff254f08be
fc5b6ade67cb1aa8720ed3139b5fb8c4
fc5f59d80b4e7771418034e536ec35be
fc518a9caea4029a58b834636b8c3f96
fc5e00030c69f4edc8601058d0a70d11
fc55481acdab18d2a3d233555a6c3a31
fc556bc8f48a0784055d03f8a56dddff
fc5b80d9146c09c44ae1dc6cd8c936dd
fc540c72ec859555ccedc16d66fc3d07
fc583462fc061c853e0e8ccf050747e1
fc5426a2277abfd1ba6894b3b1256024
fc54b57c90b7e3439dfd041fab4656a3
fc5b51713f5f3900f649c95299323869
fc58d67d46a46bfb3d74c696b251224e
fc52b3d3a6750f1d4114667b22b7e3d3
fc57f2d09fb4199bc42a866f48c067ff
fc52d4e219e1f63284d7c96737869373
fc55e4769f6bee5b464aef573c15fe9e
fc5f499939c0c7df56e4b3a69c29a609
fc550004576bc1911b9c3d5ea36a0e4b
fc5d8ad871a097d2900a632088b99fca
fc54c36150af274294fe09a0b719d96f
fc5816045a67c37b265fbd5002f25c2a
fc58e4b398d4ef1299b724eeea709548
fc5d8edaa39f6e31eb888a34ca686e2e
fc528c8c518a2bac8a0ca58166577e5c
fc5b59e6614ff7a0cedb642a3b83f74a
fc5501344d560632b4b49c2f27eec98c
fc51fcb6d73934c56180d2b8dcac771d
fc5bc9830873ec48307dac8ad497a4a4
fc588aa1afa376dc386fe8ad37325868
fc56b9a57b70cbc28bffbcf2ef07f4c1
fc57b3d9b9d2c52add0b07b24a65e5ce
fc5a7e6ad9151d3e0696f415492ceca9
fc5adb504256940faf4caa5a5cc834e9
fc5746c0b7ab915476d76220fb2a41ae
fc5c505d261be0a09e3b11a4bcada8d1
fc5588e89f40028ecdd010af66ea309d
fc5c17c3b1d22d72c1bfd0badf26c1ec
fc5aaa55224f47606607d88cbb47bf47
fc5e4dc0688da4b2d21e4d7da3547c45
fc52fc8d864f503806c953a11c6df1e2
fc526f37860cd54f4018ae1ee9a6c827
fc59fbf351b45ead494dbadf606fbb51
fc5d8468e332481f5d2bf4b8e7059e50
fc54df951372813001e1aeb020b587c5
fc5e63f96cca27b999a5a2cabe1aeb65
fc5c04bd818a27a62410104692c7cd19
fc5f66ec17567c20a9ba8b368ee8e01a
fc5bf528def78a09ca1154d6298d0111
fc505f24cc055f9e503f1b0c377512f2
fc53019992fff781d79e0b408c4d7391
fc58aaa3c77d399c3036e6df6347b44d
fc518b97d7c2a7c44752f4be51dc5cd9
fc593fcca4ecfac627d23d2daaec490f
fc5d588e2f4f59759443f0707b7c671c
fc5d9615ccee2966279bd180ef2ece80
fc50f103a14eb554628d7055808d56e9
fc503bc6723cff0c94a6270aa20194c1
fc5148ff033aaeb2e022f7040334091d
fc5daaa703f222a341686d779ca616ea
fc5e0332c5fa76b60891385aebcd8aac
fc53ca75abc371e714b0d27b4a846092
fc5096a7424b28dd37be1676eca431f2
fc5d6a876f0edbdedfd159d81903b754
fc5ab4ed066a57e93cfc1b26cf6748da
fc56107af3bad8517f90b5a6cef4238d
fc5f9b9eda10bf65d5d4bea0ab5c31e0
fc5bc7ab72fd035ce3cec873ce52fffb
fc5ceea9ebdc97b54f31d75d05e63f39
fc56785058359aa874257804466fe8a6
fc571a1c179ae337e63e54d097a732c1
fc5a0b09b02a23a3fde9351673d21f3f
fc52268f35a3a2838e80fca27d866024
fc5926475ff870a5ccd629ca87177175
fc56e9fcf460e2f616e699be4e60e8c3
fc5044dde0c0f9feafb8950df66d1e16
fc5317f4ab057303987efe4e8d69bedd
fc5de5fd9a75abd966f2bb345b46cffc
fc5b8ab51d8f9155d11420333a25bb0a
fc5d87443697cfdf0e0099e660eea9bb
fc5b620bd19b57b44f78164fc9703824
fc526f720122b6dc19c420c89ec1cb54
fc52ee35813676301cacde57c906ffa7
fc51f95e822cd689b81dbbc690938299
fc5601a7369eab17315ea4d304377416
fc5ddff8db9b43e47257b4be4bd3458c
fc53c8b5df15621ba25fc2b402c2a5b2
fc51dcb290a1eb0de83ce4ad97b2eb60
fc57fead49387049c73a795d46f22183
fc59ccf93dfb19be64c5c31527ff4662
fc5e827f2c0e8e2c2fd82b7b739d290c
fc5d36f1cc1c9d1b9a474efd9069d2e3
fc599af4c00027bf6dd5fc3164b9398d
fc57bd27dc71c3b38dbf55b43e08fee1
fc5da42d81c72773dc8029d39d1a024e
fc5935cb0fb69659d2ac9cce7cd58535
fc594f3ae772b51cd321ef04a9d05382
fc5151db4599260e2d9ea68627556572
fc519269f452563cd56f8124e33d00e7
fc5cc9011dfdae9e122127a894da594f
fc590740eac8dfe80b5993bc7c89c1d8
fc5404b27ce1fce13eab9a522d575779
fc5e1cd350b2ab27f600604213f696db
fc51eb9135d0d0cb08270966dbbdc8dd
fc53027fc678210da1289e06006257e5
fc5d432b57fcdddb6af04140c47bd4d3
fc52af776a3f47e7bafc1afae20f286e
fc5a2e607cb2483ea7b125dfa6dbefc8
fc5ad25e162d1a03e7b639af099c4d13
fc52f6bb076821b3521a1a1e34da16c4
fc5257a4a67e33805cf7746d7e2186e8
fc5e98a8f5978ea7604ba1a15f7455ae
fc5298400913568c691624d8e977916f
fc54c395d6cead33c7ac3e56eb56d2e0
fc56e9a8c5a6c21bc9b50c566115f9fa
fc5ce4e65ad3bd8e035f74457959f9f9
fc5139fa992a572ea353f149126dc439
fc5929886298e28758785c5228e24d8e
fc5c4fd4a5209d72d7e0ce1fd2b0ab58
fc57aa6d09ca2925dc006d01b2046baf
fc557725e3571854251033ab974dbb6e
fc59f315fc9702e551e0b6871105cd71
fc5497fd29b81ccadfdbf77519d8f2bb
fc5584b315e36a6dbb48add19e0b5393
fc5b25c037593ba4f61a467a3d8da280
fc5de562da2c58dc26175952fc4c84ff
fc52110fceff8be4af74ddcce6630e14
fc5b1e1c5df335de7493ad0b72183449
fc5fb5c0240348dac86bc0735f0832f4
fc526ded59fa8aeec168584982906808
fc5b5c912a399019ba72ae2536cd789c
fc56c52f8ed692f9be2fc3bbe0e37106
fc55727477c5784c0ae06c31203a13e3
fc5513c3295a6d329931b420ec17c287
fc5d3a4b4392bd295e5a40f033910e8c
fc5e3560ee7d4b8dabb3dc13f17b1245
fc5fa97478f660234436250a606be4a0
fc52bf56a5abc29527f82251c79a149d
fc53fe11910dbc24e236d7c5569e2100
fc586a130d52d58ab40ebe0418178764
fc5a0cd7c70f2ca23c6f8c3c2501aeef
fc5294baa5d16b988aceb8101e5a2fcd
fc5d275856f73ba344e457ff7d737a5b
fc530fbf6f5fa452e0d507d552a8d526
fc5e7c800912a72d6650dace21b2c72f
fc507542cb237b8a93c2b2b3cb4afd27
fc56fbbfc67cadd088e36d5d2e685f9b
fc5a26128804e5a0da25abc36a9d530b
fc5a3afca779d508335cef72d81b1a71
fc5fa01ebf50cadcde7d58d98888e520
fc5d5ce76ee246a878063b3b4da3ee58
fc53f14bc081b2fbd5293b6669226787
fc53532682eb976ae570b0240c16778b
fc5636c3125b7cb1d9aa92ffa74fc650
fc556cd268cebdd871318764afa3f75e
fc5629ae3fc3037dd61cd66a00f4277a
fc57e3976c876303bc944a388ff4e7e6
fc56fa338efe4811e5f1f9d535d30299
fc503b855275b0bf8b317c01b19c9af3
fc5f9aaac5cb71e5860726324fd92218
fc5fb3f6c8ac7c752e1ebd7b7a75d21f
fc5d50fd244fdb93184a68ecad63be25
fc5b44268b9b7192e9c6bd303e9c75d3
fc5cb939837f9fd74ad3286e5831ed45
fc5a442e011c64f01a43a04db90ce592
fc53b9bb31a4a64bafc90be0bac9b431
fc5e47579d3c0d0cf046af41998ed575
fc5bc68329af1aaff6a917f2a5d58c59
fc5a45b5a5de6ccf44449da50c1aa61b
fc53c9e0fb6ea2e00e7bd3e0da20ea85
fc58495f69dd564fe014d3ab9f9999e6
fc55fb47bcd5377cd479f94d5f022d88
fc588b404810c84b1b62a8e5cad86b07
fc5468d0a04fd6b3f70e5f6fd56fa79a
fc5995fe989ff6facc80f3f78865fecc
fc56586af1c6c6018473ba3dac2a2a77
fc5cfbba39206d5832dbcdb183ca1c54
fc5a201078e9dc98b2429470e236ec82
fc5315779821fbafed980d4f306a5594
fc5781a28f5d33bb4267f60459299b20
fc549f5e95eb1d00d32260f562481b6f
fc5596608a8911a4c3ca9a7e8b30e129
fc585e3b41791394cde5d1e8a2ec1a6e
fc52d331bd51ee82d4d525d6e2b7a24b
fc5fe7b0f40b156cfd892cf25729cde9
fc52983e6d620150f9a4a438ff6923c1
fc572b5fe762423c18ce0599ea53ecbf
fc5dc36d15cce5e2a86241d3396d8254
fc54c1948935c14af9e344aff53cfd85
fc5aeafe98b3fee4ae34b5d2b240180a
fc51c361371ec3691052c41d5b7841c8
fc5c4d5f05efd9a9ec188e3c6195d552
fc5c6f8ebcddc4b3045d51eaebf04c94
fc5e4646e61d586d941118f8ec28ca39
fc5381fdc831a39f78ea74aecbeda5ff
fc5b87a1e08bd5dbbd6d1911e9fdbf15
fc51c2e95384ce4000f2781e144b9b55
fc50dfec09613d8c1bba7aedd5e417b4
fc5529908e0c08afa2ff5a76868738e2
fc524dca3eee3013b876cf091abc9a10
fc50a9bbbb2f875ba21ef6e82a36039c
fc56960de3a7136df9be05a0dbb19688
fc5bd1aa9ff467355905d123a7739ecc
fc574e750e7db7ed99b6d52ceaa2cdbf
fc52d474229818702ee7f6a65990a875
fc52277c1f179ec64d730302d4025958
fc58394cf5b6c8e029bb538d7eab209f
fc506d457ba3395f852890d21337b38a
fc5f7bcf83e2a1598b45c2ea7a5f3d31
fc52d4b7b5833b3c2e116b919e405736
fc5cf6de5a77d1355e632ce858d58803
fc5f0207f9fd90539bcdbc981a6957f3
fc56a95ab98a67c5916fd3c146511405
fc52aa17bb65b8745761a744fe859cf2
fc5e7345322b98b2d65d929151b209b4
fc548aea07b90942f6be1530adb8c4f4
fc500720c6ad77054515bd3eb8554862
fc5d5ac87bc23d3b1cb8bd6582c09413
fc53f859980a70b1a1c8af3244cf3078
fc5f2fb2c2e7d7ea246dcec04666cce2
fc5d931005d0e12fa37794d20f154e0a
fc5f8d21acd116f42475bf9a5b5c9bcf
fc521b9e1016a8db09bc6404783b5099
fc5a68bfacedf68c01d3fff5d5a88d2e
fc5c2698651e340897b2d2a9e015d057
fc59fc39bb4dcc9e253dc1718d410352
fc5f0abfdd697c887f7db840b57ce83a
fc58e2fedc24776dd43afdf11087010c
fc55f9ddc5b7b450450ebbc77e32746b
fc5ba1649ed3f04016b66957d61e46d4
fc58c42aff77765b7e6c964adcbc2fb8
fc563e0e4ec55951ec2ee3ee7d21eca6
fc5b60351b45fe50288bf4cc1b10afaa
fc517950b3137a96ac9c7306adf3b98b
fc5013a57e6b2494c5f0e9c9203e63be
fc5b4d112aac0ab7a86eafe3d39f3ade
fc5f037d72ba2eb53ab6582208bc1233
fc59b686645e89c51b0e7a01ba016aeb
fc5d17a85bd207aa1d5c40fa6021f279
fc54638d0cbf09b68b299454f6763993
fc54fb88834cc1998681c5ee5947d16d
fc5d56b8ebb2a5750b4ee9fe0442a30d
fc54ee42b31e0248bff03aa6bf7e44da
fc5857ae08d844a44fb9017f7fd7f37e
fc5360c61ba42016c4750fa001cb9aa7
fc5bc19c07eaae84840c2943e9434fe8
fc5d55be38c7f3a1c7ed30a39c62ed2e
fc53bc9ad023dd7370730b022e9bd38d
fc5ef0b10fd1809b4247fafc45fed690
fc5d1ffa14ebb92be2295fdafe42893e
fc56e6c6c580239c15a37614c55a1ac5
fc5eca4fd48e32cc6dc1292668015de4
fc513925da892cf89ec67f72a0c555ef
fc5a0bd6888bacbaf5f3bf147a774b8b
fc549a39598e179ed092bc3f31f13a85
fc5ecc0b1b7dda3008dff017bf6935bf
fc5023103dc8ef5f21396bfd37753749
fc5c91313706eeb14970136f52e9bbd7
fc59217616b1fb8ed31ceeedadd67bf8
fc5aaf7251c7ece5714a98a9832a1796
fc52e39b59f5e5ee5c6f8b924c554e8a
fc597c555db4bf0b99f8631917ead3f7
fc58b5872f00bb875f6790f9c0cb7a96
fc59a466ed52e4b47b2a76e6fd8c3d1e
fc58aade55b593c8a414c684fad1c754
fc553a791a23dc261e0f9709aebd114e
fc5e6cc0004a96556b21e33c59eafb1c
fc5cf064d86df9502c708aad589f5bdf
fc56955103eba999e196f540c53a093e
fc51f41354d63c3e8ec3831cc90e3ee8
fc57a14fec0c20847de96eb627468e56
fc5549eb826e8af26bdd4dcb4e5d102a
fc5583d7373ed3d09d7dc5c288763195
fc5dcc1294aedf58319142a1e882470d
fc55da702d41fb57b89a9c89714f2692
fc5d0cb127c3f0e9e7b975d093fbf9f2
fc5ab6f0f36b03bd62aa1ed0a1e578c4
fc56bd8b9a2ae87b6c69de3d3a11e004
fc5b052896689e8159e0ad3b79cd24db
fc560da1f37ebb5caff820ecfc5db006
fc539a01ff696985bdf16b27dd0d66f8
fc5b7ddec38ce594e31e892c18888368
fc54c8bb036b26fa7a38892a388cf2b8
fc58b643298e92e9fb09a0cea54db233
fc5fea7dc576c91ce95a33763009a68b
fc52542dcf9cd6d1fcab3964be420083
fc5f32e17d8a6551f1ed5184290116b2
fc5213ff3ba542330acf5b739cb2d63c
fc539c35824c3ea030404804c2dcbff8
fc51d7f658ec70c702b41ae32f603fa5
fc510289e09c489226c876e8ca731940
fc5e5ddc2e36b8e5d3d3650257b93ad7
fc54bc8d7234139a3bbcd42e22a7841b
fc5c97d079dc72620e657f8d3c8706fb
fc5b523a1a584f67f15548a093a4eed7
fc595277d7b8a0e924a6f133be19c3f0
fc5f855f827cc216134d297bf0c9fa82
fc54818c642c277fbfbf58aa4127a606
fc52c414d8e11b6ad3a078794cac3ef5
fc5ed4b091264beb5cf2eb5944bacf73
fc55405bbaa5eb56dda3af3cebf4c698
fc5d9f68174d1f9e1463e148db429850
fc5fcdc478744130ec5f6598ba846ede
fc56de112355e915804feb6a5c4783bd
fc52974751fa10c1ef59c7802d12e41e
fc545411e96862dc573d29abaf937c8b
fc5d6db87e18650138272d115bf69924
fc531bef303b305a8f0d9f9746d2b867
fc5ea84b2a3b7b1174afa9ac7626ba69
fc564ffa54336dbcb17e74d4a5a33ad8
fc55f222e15e2786beb18d5761b6d2a2
fc50711d8230a78fbe46b4d410647301
fc5d3e1a36790c0be9f57acbe9759582
fc5702cfb7c005df769cfbb41c0cba6d
fc5054045966059fac230e66c4d6ab27
fc59358ebbba5fbfdef602b7a8d6a883
fc5a3768531fd5f2ee9ccefa28a1e947
fc5db49ee89b3fb9aa151c26b5a76b22
fc5d69df62ec087cbf4b626939c2ad2d
fc56c8443e100cd3731624f2637b94a2
fc5867cbe8b52acfca63d0870e1c9cc8
fc5bfc45df3e138c790c1dd7fd9971f9
fc5e1da76b49563435f938dde37169ad
fc5dcd32529fe95561c516095d375d80
fc553324ea10e528484afbd577457c4f
fc5db2e7111f1ad4352bc8b95df00749
fc5ca7085e54b46afefcc310e938ae31
fc5c1c07c72a246d1ae27dd98d5f5954
fc56eea911f3f860e5c425e970fd01d6
fc5434310a8b7580777c54574afb15a5
fc52247c384240918a5bb365aa68bb2a
fc501314607bf964573fa947bd1c96f6
fc5b99ed71c55dcd922d51fd201b7579
fc56352c7b884d7536c759771f634728
fc51ca467e21f31d19e023b8176c27f2
fc515a38518982107e2a67262d31512b
fc5dbeecc3e315b309bda0690b90036c
fc5bf886e366238a1613a6ffa0759746
fc5a6cd05c7cef42491695c5355e0c63
fc561cb091bd70756ed2f5d38e3a529c
fc54969ec0c3dec2a97fa6f0c4b3236d
fc54f86e836a8063cb9e24fde8cdec56
fc56026de400245c303f1026090ac0e2
fc5e12a07f8aed9b7a8215debee650a9
fc58034ad2f3b6e1c90acf3eb4cb88ae
fc50cf85aa5ed712b509b628bb41145c
fc55dd5fe93bd7f1aa229e570c20c19e
fc5b402b7704a81c4688f4500fda440f
fc5e64138552027458ab03a9a336c0db
fc57519b719803f8d614ad3de7b634fd
fc59c4dd977f8ff8723b4d1f8f18f8ab
fc5aedf0795068719af5161a41805af3
fc575881f6ef748acb3538fb53db89b7
fc5904903a6e37d0137d77e8bfa00cc7
fc596d75c7f92341e23fb34dbf6b15bc
fc57c9adf734a67eb360ea256b52e8c9
fc51741782a0e4f26c202f8517792df4
fc52df64323ef84a8d7ef79565c300fc
fc55cf5af514a5f7d1b237da5e627e01
fc5c1f1c66f6c77331071f36da943f0b
fc55aaf7aa4f32e7af3914a0b49b9759
fc59cd541d8621b821614f2b2501d33e
fc52ee523a13d09ef4c6de146dd4597a
fc58cf4a42d3058c7d06e6a6c426ff0f
fc5b8c79ab476a32f5bd9661b894c442
fc5ef3287490a6d397f4e348aba191be
fc5e7121777d8ff38e376f635b8f0496
fc5772276ec5699834e432282f8f7aa3
fc5bd6b76becaf04c7364c41ad59e898
fc5892ccb9476dd4952d891dfe147811
fc5967d7ef0d6b41d5ad7c860b0e5e26
fc543981ea4e9ef08434a15916346456
fc5f2a00d671792680a95d123105ad04
fc5175e2febb9fa45950a2ed624d67db
fc52e03eed8f1c663a30b5cb20bc84a8
fc5f6ab91b1a86da766f41fdc3e7d43e
fc50c43b9d17c28abdd3170215872d6d
fc5e77f383d75a3163efa0c997c4c94b
fc5523745b6ae725fdd98b122ac4cf41
fc533c854fd0b76cd3ebe36eb726e5b9
fc525da35e19835d61a09d7f7d4b306b
fc52578c8d7005ad02de7212616af516
fc5364f8fd33a3b1fdaf3bb40b89b566
fc5cd957bd9bf608390cb45d90abae80
fc5e8b8ffc4f95071948d018adc8a3a0
fc5513704ed410bb86206cdfa8ee6b58
fc5034ce7b75ffb16d6732f33ae8a2fa
fc58dc6201db9908cd9ce9068a64691d
fc5f805a72f18d963eed185c2d17d921
fc5a7d3104fc8750da02739530b4a681
fc597145831b53f1c0ef48a814d0288a
fc54092d70d31b7d230e87d89705e488
fc5049d5bcbf5c9b93d643ccb540244f
fc5f6b0e7e073d849ea69473af0933df
fc513b3daa985c99571c98b7cd199866
fc51469a9e347cba46a3e601c43b8022
fc5929a0d2cb3b04ffac360d85971b17
fc587549d65d1a7b1946dd3941bb1cc6
fc532d85acd0272e66097dce346c3ece
fc53504eddfc0a91f49149e9e70c257f
fc548a007c7d745e5f0685b5700ad2ed
fc55478c5ad0be82b0d07c2d29a9c0c9
fc59c034b3262b9bf9b6655b42a79f12
fc5c49355d8542b02c8d704a537c9fc2
fc51d933f04b84dadcc20a74e1589cf7
fc55b8e8660e72d81eadc4b986c3fb22
fc5000a1c3343439d9b40ec152be8d57
fc5806cdf5e82f906a6c002c279a741c
fc5791df7f54672068744f4acceb3087
fc57e7709175ed23851835b20c37cbda
fc500c4dc4e37867e4cb080c95390ce5
fc5f183355dda146174df499036c6f94
fc5f330d0879fa2114f895d72914b307
fc5de8926e131accdf853e4ec945ebcc
fc518db5c5a88fc51c6da82dc86c00ee
fc5420a51b5e45ff74e5973fe4a13ab4
fc576e38a595ca1746ecd25bcbb00c5e
fc5f66462c55ea39590a7e2291c51e8a
fc5b32186f07d2ae38710ff4fcdab770
fc57fefd941dd4e4947ca3ed7d9b1e31
fc51fab48616e8b2023aa3f1dfcd63a1
fc5b82e7653eb0e68a61244a1c7a1c07
fc5a17d72056ac4726cf57ed72a71b59
fc539ae015a026d378031acb398d2cfc
fc528f6ae396d08fc514366132913eb3
fc5166135863078aef5218422f59d28f
fc5be81baf85bd72b879e27aa6167271
fc53534db4264883fabc2a668e69d9b9
fc5833371128adca625064e2a67d0c0b
fc5e44607dbc17c74d971158d631d6f5
fc5531627d91aea625616f1f120675d8
fc5d4cb932fd637fe52d8242920d9754
fc5a565690a5f7aac2a284639eb8cec5
fc59bcf125bb55469b1444fda46c5a7c
fc5e4e5f7794733baaf24f097b07fbda
fc5161e7f08db0808b4e391b852fb924
fc5fd2536d97759bb4165f6674f78f60
fc5b7248d9d4f9a35464baaef1975d7d
fc529cad4beaf95578b8ba249f5888a2
fc5f6c40f0ca58d8c64aaaf593c982db
fc52c34468c9fc97cc7680420bb0cd02
fc530f4ace2b068aea38fc610cb9d916
fc590d8419948f38bab72f0b4617f393
fc5c012258e0719c7f8e5e0dbb20d237
fc52a252cc672f7d9cce7660bfdfb228
fc5db535a971d70e9be93a7118e91868
fc5508a98207356a6ca1e48ece533e72
fc5edb557a08d83c6297a46ed73fdd19
fc57c14bd10d89d792e48bc5e68cfb0c
fc53729db8abeb9014b7406871531994
fc5f1529ede2b3e1607040b53d51c20e
fc5e6ef88451cb3ca6ebdeb7789415da
fc5d4eeffa86500b8f44bbfaba8b95a9
fc52cde2bef1b6193b2548821334c37b
fc5b40b843b0c1cd8c11d794daaa92ae
fc591f6b769028c0979ea5526b59b030
fc530c1e48bdca7a34b7bd81f79ccdde
fc576b1b81cbdfd04d560bb1ed4d97fa
fc5e00c7caef54b07c6378f8ac59fdb0
fc56bb1743e3f5d514d2d3a1dfe70354
fc506817576b81b24ba0b54171975028
fc594ceed3f4e49cb2dacb6aaac89216
fc5869ba0c4a6ed405a289b48e86ab0b
fc5744661dc5b1fe529aaecd1f0d00d4
fc59a63d8a71c8ff1d00bec541122241
fc55c2e9046d1f5855adffb363f0641c
fc56e59db980e29748fc693c59caf04b
fc54ecab940e5325be8a6b673e0cb964
fc54f9d27d1793adc0be6911bb73ae0c
fc588d4cdbd5552af082d97626600f0a
fc51b2202ff84a3ab9bbda74adf730f0
fc5c67bf216b223571a918e421227a8f
fc5c05537e58022e0001544090deb00a
fc5c5856a2a71dce748aa4b72bd0f208
fc576656a59cbff937cf82e081534666
fc53da27595a7d78ec82b4c44fa395e6
fc5f08d1f05f28ab4d624275bb7cb0e3
fc5b29b7843ef96c1f2f1b5667562322
fc5ea6d17ce60083f7c3c1a23e388f64
fc50cc0e804dbba4b47e07bb3a94e681
fc5e979d4c43da01de5f94d2ebcaa0c2
fc5c3452cf3234e38bc594312fe08557
fc574fbb1234f66723b6e03a0bb342e1
fc55445a6adc059ba1088b9f33198546
fc51dbc818eefe931107af2c52cbd716
fc50e3dd2518f5a434ac66cd791930d2
fc56937fbf063cc575f259c37b0b02cd
fc5d726d03e077f177e60656bf600f8b
fc5242b4ff5ab17bd6529f832dc6389d
fc5fc82e7e6a79158fa8ccd1543f9874
fc566602324ba0a714d78dbc51ba5ac4
fc5da90187bcc0fcabb105201753a623
fc5466b1f03bf8c29d5b217f1d1fcacf
fc58f85f7fd18515df673c699a089bf0
fc52ef99a481780d933bcd03d4374be4
fc570598643c39291b4fde213d161a7e
fc555fba7a4b7c41de6607750bceff5f
fc54a639f31a58dbd572e551ed145e54
fc5d2611d2372279d463d515af8601a4
fc59e7799969da62ca092a3844dfc108
fc55738cd0df97e121c86c1eafc61d79
fc58dadfd3c9f2f6d393792829fdcb75
fc52a0ac50abc78f20141c9f614b1711
fc524e9e572d1c9935cdd9c71813dec6
fc5bc88495ae44e16d37fec4d0a233bf
fc56c08a8343843fe41e3ba3090e40b2
fc5bf98cb79424ba70c9c31f79dd59cc
fc5f7030af12de9e57102c8b95eba08e
fc516dee6c9880ec82bf9fca907a5d04
fc53172c2fad0fdc45862f8449903043
fc5391d1cab4f46067b3ec2fdfaa7484
fc5467faa0f72efdbd5eac84ed82f332
fc5eec28259cd0a6948c963c78fed61a
fc50334615fe76751c36aacae462f3be
fc5b3c8a5436755f6d0554462d534189
fc54df888657a001e063b2a705a922d4
fc55cabe3e90f1eaa3715ece1d1b74cd
fc59c98389f0fd287fd53d34063b3418
fc56ba4badbd38fb41a0c2f1290180eb
fc59bee2880ef334d37f22d62cd90fc7
fc53dcf53c257bf8876906e4bfad05cb
fc523f34577c64bd0ec0664a2dfb7773
fc51e6bfd5604d55e7c0aa276f182e09
fc5a63e16cc1f0bc68b1ce85bdf89c44
fc513cb1fbff75639f8706381c02a186
fc54c682d4e04c1d61cdf9b6fdc78ac0
fc545c4fbf28e0089ecc6b0bad93d2e1
fc53795e6828e20fc9ff593fe3b88430
fc5ced7b91ceea53488c07b9bf992ad7
fc5056f0f1ff3023038bf6ee69b11c55
fc51b19ca1f81f30b1e187d2f48b0b61
fc5d94162fd8c2d26d2342c360b43637
fc5a6584585ef754bd836906c964e0b1
fc5eccbace722aa37941d578f9f2c0fd
fc56bfdbb01cabd3cc25858460901739
fc58c192c1df0629b36d244af0c147e4
fc58232b13a5306fdb1eb00190bd150c
fc5fe02113abbe348f310d568ebde0cc
fc5c130f4fb6f2c219f42ed058899d71
fc5859fc0d6f4541990e5436ed61c6a0
fc5ce3cffa7cdeb7d74c9b550fef84e4
fc59bc6c6f0bb6e02afc3aad10347cf1
fc57b8e123bfb9eaf8951a9ae80c1783
fc5538e2b474f5a42ad488c46d96403b
fc52386382cf47c4a9eab43c9a729f87
fc5766a349e27edcf931fdfd2567d4be
fc56e5a72a6e72e1fb780078d9c29ab2
fc528b3d42c8aebfca8cf40dad7ca6b3
fc513a285e517e46b8d49ce450c534c6
fc5fd816dbe8502b3a306722b3f028eb
fc5937cac1c0ce156cdc4d72091ae314
fc56c08441846e105bc36eb7dd3a9698
fc54f11c2996fcf03fe5c32ec9e47a2f
fc52948b10e4aa50c59b567babca1625
fc5b718efac415dfb85bacb50eb24770
fc58ed1be9a5b5bf07e79de11fef2126
fc5cee5d193878f985b801c3e896c1ba
fc5907c6cddc4ac5d8fc39590a64ac81
fc5aa8086b9540d4703304569fc860b8
fc5a8f39e71eae45221cab8fe836e198
fc56719918879217a85a95ee852f3f8a
fc5f362307e99e87f78b38f1666730b7
fc537271fb069b3fd374bf4fa55b127d
fc5ef1c75ebbd11d77efd74adb572f79
fc52b3d0f1dfdd792c1c223d2228082a
fc5f5869100ce0270d369b1932cc054c
fc5ca554233db62005e3ec527d30d0cd
fc5ab8a246766693a0dc88a774350ca1
fc5eff1a2c29aabf1f935306e642e81e
fc5e6ecc06f97189d3b2e6321c28353c
fc549a2443122ce1709ba822b334fb6e
fc54043ff09f2936ff1f135a3518f990
fc51127a42da9473da28e6ab6581d0be
fc5282a67bf648a18aea2ffb17b73f94
fc5974e14445577a6b93105c29b01b77
fc5acf6444c79c18c561d5aaa6c695c7
fc5bc73df435178f35f80f0b4c6175fa
fc5ad0e02ca7605156e5440b44c807a7
fc55a40b474c3caf4db5a79b198b8948
fc5ce6eb7d32fd60225cae2b2dbd1385
fc51b62d8d9c3dd3ba57558d4be3c42e
fc5205713c9188a77a402d586fff7e44
fc589e8c5f42d3900ad8291a25d7a669
fc53fb1951819b9fa3e91b8a831b55e4
fc52c33534c3c4a4bd5e690425b79dfe
fc5ea2b3bb79b8cfc52c0f6c97b97a30
fc54bc20b1ebb36f276ac63f5ecb1754
fc5eec4a6affbf0ad62c44ea3d5b959d
fc5a6535fb824240ab93ec247d9969f8
fc5d7f89b57fe047d5ee688f81db692b
fc53d5989be2c84cc642e61b888b2010
fc53af25042cdbd3942f845059da007e
fc5b61d2e71a82b360b751b07ccff70d
fc51bda68b9b7d41f7aee9c8fdac02db
fc5f632188ab1b3266ab50111cdb0137
fc56e58d975210829e428b91efab83f1
fc52bfdf8303aaa1d6140f9d2d4b3dc2
fc58cb99d36725d464a543a2d1b52cbc
fc58507103ab3a418b5444e63f44e645
fc5c71993ab5b6db1115133ae6cb61b8
fc5469a6ce3c305c362b721e72141662
fc55d435d5855c4923f1fb2a370e371c
fc5d7de75d442208d97c42fcdafac720
fc5e59585f5f86511550a2c26262d04c
fc5b5b96e73e72405740f5f56539faab
fc5d9abbf62c60444aa126665acfa6b7
fc5a1c30ce51d85459642eaa5b7c98b6
fc58227b430d17950802c36eb97ae883
fc5a2b47b44587150bcfe8adc81ea025
fc535362a63dd89f19f5f1db4972f505
fc5bc15c289420c5bc219b25bce68b1d
fc56a690d11845411ed66d691cfe2f85
fc5ed5ce854c4e79cad0dcdd6b87a2f0
fc5a7cc9c4f2ccbc441c657054e8d3f0
fc517f259a603082f19f09e587bca28c
fc512687b21eabe61ca679e2b19f766f
fc59fceb8cc29e6ea2e1b26b94a905ab
fc517845a915ae9f15a8a86b4288b9c3
fc58d993afc8e255382f6efd453aa9cb
fc5d2ad4df73b07ab3d02987923d22d7
fc5cdffb5bf55951fa2735f5c48fb86d
fc5e997b9bdf3195e5427a892f31723e
fc560fc7b9db5b53b19eb7e7b6ed61e2
fc567430c19044cc45f2be606c28eaec
fc5150ba666cef8c19df0c4ab1b23a2c
fc50e61fb4cf943170020211feb3491f
fc5577e2b39ef741679a13fe4f1d8d8f
fc5b001e725b0b85d198c817d001193f
fc5aba31f5440e689bddfa02fcf5691d
fc593abd0557eb516abf441a61768638
fc53a88c3f7f38b49bf6d2b8d6f4d3a2
fc568bc85094af93c18510bbc7dad0b8
fc5cc5456fb09aeb4ffb8ee752cc439f
fc505f3b13841bc22570af76ce531353
fc5aa18abbb3998c4ae12fd25af82e13
fc57d1097f923e7b5068bad69e0970ad
fc56064f36b62aacf5ea3ef6a1b265a3
fc5f677b506babd3b0c2b1a51b62574e
fc561b37d91dfc7047d47a10c6c14590
fc5a309dc7aa1c2411cbeb1e33bc7576
fc50dcb848b24b8f771decb3a4ef8675
fc51842d1907e5b37717e999c787aaa6
fc5aa53f492c225dba1040b70f7b219a
fc5c320f23f424e27db4038f37e16667
fc53d9cfe423a55039c2485f344b2792
fc5311eea989d228d0f34ba9ccd39248
fc580e363d853f2cf61afd15d42a530a
fc5451ca16448332a243832330001fbf
fc54c5fd023aac0fced824623a806a6d
fc5451c0ebe47c4e307740ebac0a2544
fc58b13ef25b8ed3b343f41dd48be585
fc530ab1e42c8ef365d73e2f49483c2c
fc556b9a460dc547a51d31e11176320a
fc56931d45e04386264712ec86d61d29
fc55254b60d952474d8574fde062019c
fc5fe99996392e4ebf49cb8248d74dbf
fc5709e28d1c2c15f7685047aa1776fd
fc526452c20e24971c009196b88bceb8
fc5bbbd992d0e3f50bd9723527622bed
fc5f6d71470e11c647038b6e52535251
fc5a5236a2083cacd5523ef37daf4c4d
fc5e2f07a9374987a97e23e94363f9f6
fc55c3cbbfd169389b0e9485a4ff754a
fc531f4f33d2b0240888bf5ae8ecf259
fc5a910edd85673d4234c1c5f171cf36
fc50e7f366f366f2f66a9adea5ddeb1f
fc575db7850a40f0e2da51ad09210008
fc5de6de3e330104bdab5928f610847c
fc58f6d72b539d8efdd5906c5c78190f
fc559aaca654f223d4521518ea4969c3
fc5b7d74263a0f0b8af377aa1d61ea9d
fc55802205fc44f613277a4463061c89
fc5f0929f7459a05f7712a10f3622ef5
fc5df03750898042a267b2e547986245
fc549e1b0888bb660251baf255371890
fc55b5cd30ddc7333d35039793498de0
fc5995ea958fd3df262edd0dc9fcf65d
fc56a5085bda64006fc83c585b59b813
fc5b57d6ebe78232bccbb9ec39feab7b
fc5155f9dc02a8c566479390393ae9bd
fc56eea09df38783048e0359b2cb4c50
fc5fac53aafbe4837edd23e48446512e
fc5d1bc4a19f24e8f4ac1a5c9d4da1e6
fc58c24358c6fd18683cbf3ed822d85e
fc5c56b43c1270e37396206f8f996990
fc52997ca4e2d0840461441ba98ad734
fc53b7ed489806cacb6e93bb0c2dc2aa
fc5fcb42fa5a4de5929d011734908e4d
fc541bc2bb22dcd62a14b5f472127f08
fc5b3fe3526602482780f70d5cd5b960
fc53d6c91f5d2d9819d22ae7632ca6ce
