fc6fe31a1b763da2fd03642cc7dab3e5
fc67deb700780055618e4ebe0575983e
fc6dc810993e2c3831c3bb9f23c0ae68
fc6c8ece4cfa83bd86fbce449bf2aca7
fc6f04a0440f00e4f4f42a53b541f58d
fc6f85fef43109d557e1fe86f353270d
fc6649c6da763c314106f6300ac1131c
fc6732f32a835741dda24e85bacb85ab
fc6e39c6ea5837204cbf676c936fb801
fc65f5a86adb92a34b8d34cfdc93bf85
fc65336bc17f5be98674d88577f866ac
fc68f372e8d51280194c5f4babfabf10
fc68ace6439c5bc5fc8047fd627df2bc
fc60f90a45f1cacdfcab3bccda828801
fc6e69cf15b09592f088f3be395232ec
fc6c232ec921a0803b83d2b34a47d6d2
fc6ce152525e6df6b5c9f9a418e82395
fc65bb835595ec8ec8eb8834db483cd2
fc6245cfcea56521818ed7b0d9c44652
fc6c9281ccbccce8d46f4f084fdd571f
fc6343d28e94977ec45e6b60c553c805
fc6d6de218a675beef40ae183d04b538
fc6708728eaf79b0aa43a2e7cdff2f7c
fc6cb99bb5ebafaac2fe25bf64d57730
fc69a4b69196997aa162e9f6158fb3c3
fc6658f3b4ee68184abfbec9bdfe7165
fc625c7e83da41e6f90fca50260b9c3a
fc635fe853af9e1c532760898a3e627a
fc6a152e80a6a1d8b8d8417943b6e735
fc621f6a60c67f9a58c96ce16a78a5b2
fc6afd13fa3d022a4e67b829a049442e
fc60db628f05606dfb79ead2bc0e9ee1
fc65484e5c1c3c48439522be333a5e3e
fc6f14350b3f42f7bb1e02636f1571db
fc67401d4f02dd2505051c317187322b
fc69f206980fac7fb7580414b266744c
fc60f99c0f7f2ed37d365059592f4019
fc66616d9d878bb30a074cf3ce8accf8
fc611fa88c5ef4f4259f9df73f215ee5
fc68eaad1ebe6a46daa41f3d048a6cab
fc67798aba1022c1bd09f242ee93abc0
fc6cccaaa4f3a8d85c11b41d7a62443e
fc6d05187952222b56b0a2eff0d35a14
fc606521f8a67893b0b8ceb7a5392a5b
fc651953ae4b13af25238a5097ab51a3
fc6f74c4709343fb855a09e30a4ef639
fc6b3554e9a283a70a91babf4edbbedd
fc6836055bbe320bbe01894210cbc3b1
fc6a18560d20cc648259b850fcb0e62d
fc6648d791bd6a54e7711f26fc3c53d6
fc6500ac807ed5f6c49051b900ef47d3
fc61a7555b37431273e787ab72f12bb2
fc6bad7224dcf825bd017d22602bbd8e
fc6c441da415dbbe5948c6600276aa5a
fc67a9d9a27147fb1cf77f9bda296861
fc623e9ad790a9e47ad562e321220ef9
fc663234c0a7bbae1ece2ed1611d01e7
fc65061384b64d14b8816b91551989bc
fc6e07b0b1ed49530590a22181701091
fc6b378ed84e1b768aa09f803155c516
fc68f143987130b3a619f73ce49c0875
fc6cd556a2961f05b6e2894dc264ef0c
fc6a019dea52c2d4172def15b84e3473
fc632396b2450a5883c4febff586f37d
fc659ba831ef1f5234ef0b361809314a
fc67e3c4bcd470104a1d33e71cde98fe
fc6306d2566f96bb7bb88b7fc9c4f9c6
fc68cfed49fd20f2d46fa6484b6453bb
fc6f32ac08c06ff266f3013949c267e1
fc6c693d4598eb460311a145ab08812a
fc6830a9aa0d7fffc94fdffc3b6c1f4b
fc697e3501ec6afcb5a63717fca57cde
fc68d4f9b38e22249776c511a0941405
fc6082aa1531a093dc0b39d2ecea0474
fc638cb34efd88639e3c7afeccecedcf
fc69089be1fdcd5d0b541038889f52ae
fc68edb66b7f86664dfda673df4d6a70
fc6bafb51aedfa1f0ca406caf47b8c11
fc612861425a14b2b7c7dc262d13d6d6
fc61e2c1fb085030c68fe0f23c8cd8e5
fc61a28ef99db657cc20a036c219ad03
fc6ccb38f5e3103a10be6c768ae20e62
fc6d986768fc63284da510928627839a
fc6aff18bf7134b8a1feb36e8347f18b
fc63f3a256365faaea92b60802c3a2ed
fc6c65cab1482b42fa8076d774338a62
fc621a657ccee4a568170ce9c8252914
fc60878c41d20272589412c288eccf6f
fc643f92e8dbb1908a0e0cc1af705fed
fc6bea57b2b99dd661ec7f3fbe96cb9e
fc6175318ee3872636af0ed9076d80c8
fc60f53f060a9a99a67df3ebeb0070cd
fc660c9da059325ac3d284a090d8ec1d
fc6469ec339ad9cb9cbf931808682cd3
fc64b0a315a5d5cfc0522d463933659f
fc6846d02ed217f556ee7eb4c67ed845
fc65da376bb0e3f00b933e44c8bbe188
fc643c4fd28dbd6b46460ada68741294
fc6ee713b31d1f81629e0d58c6438c52
fc6b77dc36e3619e41739e7ab5a894ce
fc60cea5db089f3deb90fd6a9ad17df4
fc683ded6029a12b67317a437943482f
fc6effb92d59eb18153a4e3f8cfe22c1
fc6d3814ea409190c9a39784d1ddf8d5
fc6b049a019fb9689c061bde7f39731f
fc6d4ddeeea6ec02fb8338033e871971
fc61e4f772e348e1f51fe6bf8e329b55
fc671eacd63eeed20a98dad5a65f7bb7
fc671f8d888591ff1bf0f730e1f1f3b0
fc67c9756a19641f3889d5546bfc0d8f
fc65b3f2ce3d77fcc3990483b80720f1
fc61a123ef8d88270fd5b20ecc53f93a
fc6554a72025401ac9948a4012522f62
fc62bb125642b4951fd00d914c5104f6
fc6e675a2e862463c0695ffc71831df8
fc688372fff122f8049d0ded136efbac
fc67285f27005a84c17bbfacb7dab11b
fc602db6aa1dafd20ec9bf2f82d7f7ff
fc69e2cdd2a54a8a9c1c0a0d71d8d458
fc65c4e194636164e9e042774636808b
fc6bf984c2c51240517e859acc3ad383
fc64bb900a918e8ee00a8bda0bd34c69
fc6575b136bd29382ead9b20eae42e20
fc62738f70266678f2de7eeb479a8739
fc6e70e496caded62a37439377e90fee
fc64dbb42506b95b88d28931d00d9b10
fc6f48b0759f7bcd30e1b20256a284c1
fc6e159eb1bf85b1b5bfa02c3745b9cd
fc69a52441ecef5bdeabbdbf40cec8b6
fc686e2f21ede397adf17cb8992afab6
fc631b1521a45bcc00db318cc636046a
fc662ca58462b800a501a446af6d43f9
fc63e913e4dbc12c7958fb85430ec641
fc6da46da37d5da7e071866d70d1a09b
fc60313dc66c5576bbb48b052c299e77
fc6f1c582b7df5bfdb8fcee2dd9ed8d6
fc6e7e80357d9e01a0372134df4f6a27
fc6e9330e3b6abce7cfefcc64406f539
fc660d15b959cfd4dcf51177d012c720
fc63e2cc0a3cbec7b6a1416605b61c9a
fc6f698d69a70fdbd35440ed608b4370
fc6e338cff64ef9b5bf2890021ec2e85
fc633bd7888d7a28246ea30db9cde1ac
fc67400aaea388201d5e47b42ff1085f
fc62ac8f291d10fa0ec99a869ae39d1b
fc6816f8901c86d0a7058a60f71c76d5
fc6482face2275c5e50589d65ccd05bc
fc69229e65ee95e07c581af8d270ccf5
fc6b6ef17a55b8c859e759feed6ef5c5
fc601db08cede6ac7a13171937490ee6
fc6ef98ba08c866ac51e59b9ada502ed
fc6744c3c96cbe1821f31d96ad4e41f5
fc675af279cfafda968e7d8f3ebb165e
fc6dcd4f60ef902fb94110e966f1668d
fc68466bbb3272ba05725d07061daa0c
fc620b8dc7747477c0b350c736c33b28
fc6303f1f449e19c9c68e48dc0036564
fc6af583394913c1781aa727f47429e8
fc6d791771338fbe2c8737cb5d3c07d5
fc67e61a135fb800f215c6422d0b31ad
fc6e500d0910acd5a961ff6dbd34fccb
fc6b43f53fe270ce64762cf0ba5c12aa
fc6795eb7aa23caf74542db46b736b0d
fc63c98c28f3e7adf59487152628a785
fc68733a58bf4c8502fd1f6d3839f4f3
fc6642ed2df021a0367db7fa650574e5
fc6c666d5d54a459eaea7dba4255766c
fc698a7bde87c8982a94b1333f71650f
fc6739359720721bb6851eea32fd832d
fc6949dfaa78205f5f4a9424bc49a091
fc686bb792d981a59b86055a1145c6c1
fc610675bc376bc2ffe5764924c0ec7a
fc673e26b35536c9250b64fdd48d66e6
fc6002f9c9e72a7c779853c7fd9e549d
fc607dee975702e570e431cd98827b99
fc6b11763a38c3f6243d7583ce0fa00c
fc6be7c25f0ca2d02f00b219b37e161c
fc61580968649ca09fbd9e014721ffda
fc66b24102029cae7bbfa1d717475ad0
fc6702f7366e059625e7e7b671bc1e3d
fc6c8d420d953f22186d93df74a49b56
fc65063c5f2fdee1a69f06535dbf4fbc
fc63ccd86582a501132ccc2208bc723f
fc6c96571688562c1e4b329938698223
fc6581dc82b2b4d9ca03136c239d6c9b
fc6d52829fc1c269012f641ae145f4cd
fc6fb8f016ba286be360f86f201cca69
fc6fd0a6b2d19971e10131810a7692c6
fc6e607ac3329fd089de26c7beafd232
fc6721dd07092c526dbfbb43e09a00d8
fc6217023a629a11a7c1175b25d5f2c3
fc684660080a20c083507b6c0a260157
fc66a2524710a548ebe6455ae405a6d7
fc634f253577c67016b6c401dabf1684
fc6030b33e336b13b2e47ab2dd9608ee
fc6ffb930cd647309d01edc2eee2a0a0
fc6364e4557dbc03cc6396f4b1001c9f
fc62ccf5b4c704b7054b9ecaf32b988e
fc60361a0e48e9a5f766a5b05274c4b5
fc602d8bcfb75f5bccd45b43555fa1e1
fc6cebfdeb661ae89217b538c7a60948
fc6f0d0dc46681f29e06861fc1c6405b
fc642bfc2683f1e3ac80f96f808ce7d8
fc6a963eb51df0c7466b3db4b7c583e5
fc66a0e86b1bc3fcb991d41c38ee1ac3
fc6d4f6251171e1afb9bd021857634ea
fc6454670b2575e0083d8d2afa4a6ed0
fc6adca08a5621ac31ff7acada43023a
fc637d433e91f5f7de0f481541f09ed7
fc631649dab09441e070b96fc963d70e
fc66e2f2455750017cae6eca094dde87
fc69b9549c493973c66df2a1ccfa4500
fc61502ea301376f8c30c2b458794477
fc649ae363a539cee787d609a8ae22cb
fc69b627be827b7182a1c73715ec00b2
fc68a7a5669fa53d014184e348fa2d49
fc6ee1f10cb137bd290e99e27c9b02cb
fc616843b89e3b6ca790783496dfc052
fc68020eeebff6fa5ea2907007b0ef28
fc6eed83eac5582e3116defae004c00c
fc66ccc93453e810546742b2b83ed452
fc6fe2fe40bdaed6df4be47bcd2cbe64
fc6393813be77661e3ab6395d29293e2
fc61ccdbb383f248412ce0fb6a3802fb
fc64b79807983dda621e6c4902e0ce08
fc6ba79339a5dbe5c6faf4275fd37290
fc6446815a72682300459c6ae6d400c0
fc6efe80f462b8e447a4948405a163ed
fc66e73dcd8bb78544e0d96efaa52c4f
fc677f01f519b0e2ab000b5ce2cad986
fc6187915e4b5c05ef13db772f091f20
fc64f23d7b986ac0ad1f083763d8a4a0
fc68b1f20c3ca92493f6b2a87766b16a
fc6a3235c2bb11d60a082b2be8d09d51
fc601575843e63374e177c5a9536ecf4
fc6144d4c9b46e56e9d3d46a75e967f9
fc6e18bdc5ed7281776b10d55141b105
fc6b6d5ae804f72d10bd2d45d9ec8fbb
fc686978d1d5dd230163d92be9ecf6c4
fc68f2be0e3d752df9da8db58cab0d88
fc64567b386e7a3b91550bb9332c0ab8
fc6dfa9aec50dc2d96bc37d04d792556
fc6c27c04a1c2f5ee592fedc6aaccd2d
fc6d5c5070cf96f0bba2d0f6b4f39ac7
fc69f80d7cf95c87a6e413cf429b64b1
fc6e8bee2d251777c6c53c8e89df8e93
fc6c0c52951e17a380ade7f05b0051b6
fc6744e3da567140b71bffc4769448d8
fc60aba77e19894125b6044f9a93eb6c
fc6870a645267c9124f4d68705d7d876
fc604c5241494ffa4365b9a0c70dff6c
fc627f727c685a852d0def8e26750ca1
fc667b3813fae8c6d6aef6c4867c368a
fc6d1527decea633083f0f6e498486a2
fc641098b8194b505e4d6c73c93e593f
fc62e0946179e3beda3cceba6a3cc144
fc6c82fe46579a4f5818e4de8d864c56
fc61083795fb11435a3ed77a236ec172
fc6ecb1837442901f2578b36f81af819
fc61dbc1b49e3b341752ec151b0535c3
fc60cd65d778a67d55a07baadc8eebce
fc6c48e130dc5f093ce8aa4284c806bf
fc66c11abf013e6a1f3fa38ca6d12317
fc61f0f91937f0fe18dde22783358e2f
fc62976bb869887570ea20cc56a78488
fc6cd547cdfcfbdaa1cfdd7db2b72d4c
fc654df9982ad42322bac9c7352e1da5
fc663973a2dcd0a7762c5ded0ae23a27
fc6798992ecd31da369a894134f3cb56
fc6f7d845543de4311bae80b8f81b098
fc659e13dbe60bb617fcdd02eccd2538
fc6a9f67c12a632cee8d47721ef596b0
fc662ea3678bb945041ed0e073559f7e
fc6772d3f6b8c60fea6e11fbc60c8ad4
fc6e22aebba94a008925bbe5e0aa1148
fc6f73fcf9e86ca773672cad6534697c
fc603353db4957b68dffa241140d2e4a
fc60e3b9e446588b226aca3665540c82
fc64f72158f67299bf8a99e0b81a5141
fc65fdfcfe15e1b11945f1a8d57b998d
fc6c7e6f595d9582cb1733af366af202
fc6f219f26f3c737ba4a0e82a2f5fc4b
fc61ef99a5589c18a8abeca9b1fbdf78
fc64ec40f130298ac15783ac11398c8f
fc6e7827e93169e5f4501a92516ce2a0
fc6084576fab2ea8f94ff8f3a3e1107b
fc6be9f589a6a8be5b0d189d12a5c7ea
fc6b7466a8e53c68147ee51f7c0f3e60
fc6e36904a196f7da62ceb4af9809635
fc61d433a5130587e3d8610f203c413a
fc6b18543e5b575fe3bd37d6e23c5cd8
fc6301ca61a3f4372545be8d9584aab8
fc6658646c7a690164e6d285a0c7c240
fc6e25b252a098f26d5c6713eed25a1c
fc6b8cd0b7e3fdd968296187da55e1ae
fc6b065a43d102c53ad99e11170e0437
fc6887ff7fe733ad487dbcb562271926
fc60033c38a91f393c84954941d79f23
fc6b87131bebac87bf06077a37477afa
fc642889f33dfb701d7c49688f720029
fc6d16f62d05e844d7a5c87f1e8c9b5a
fc6487dcec013f13bde2836d3d3c7d08
fc6389d220938dbcb88a78f0a86610a9
fc6a4989334522a659823af06623e3b0
fc6aa2f9458c4bd839073b1b59eed100
fc6cb2a4c7c627bfd90189279542daf3
fc6c5007b5980fac5499114aeadd3822
fc6e272f778f3645cabbc2f4b4b4777f
fc60a708eda2262595bce43577fc0e77
fc6447ed8ccc514a81ad62555955cbf9
fc6dc5ac1415f79729d1c999529d0ec8
fc63604fdb31641fe842207aad5d00ea
fc6b125c59395095aa8636e2c1e5f153
fc6d3b6a4728932f665ac73034fb8a23
fc6bc54d9c76d4ca73cf1a1c4ce8a8c2
fc61901b4ac50550339ee1ee3a308a20
fc64787cd17487c05a20535f63b83407
fc62687ea7b02430318ebeab5120c542
fc6d50902b624c6b40b6c843bbb0f6ae
fc63ac90adb6cfe6a71a8cf79b9af40d
fc6d77a372dc02d287eeb26a778cca18
fc672e4d0db018884d42e76aaf4fadb0
fc624c62a17cbe8e6cb8b3e3ca8d3dca
fc66f8b0ff142a8999979b6a78b1a99e
fc62acb592c18643331e52fe664c5c1c
fc6b73d38af48a0cfdec3d35a97f2e47
fc6359a579d8ad4399d5914a9ef18bbd
fc6ba61f016fb2f5aeb213b0dd306114
fc6f281757d85984b656380f351eb3d9
fc6613ec48741c8177dc3214df507aed
fc6104aa57130ed1d56ebda9c6daeccc
fc614b0d960800ca89b160a33d34a17d
fc6bf5a276b74029c878d2ff302fa0d3
fc61c7dc1338c53fdbae8ed547565ba4
fc6ec0396d4585b70517593bc03b5189
fc6784fa7694281b11315daf4836ed63
fc6321e63dd7bf8381c00b2fece5422a
fc679b8e31becc1bcca7aeab674bf52a
fc672e2435f57b16574398317506c5dc
fc63885a5caaec9c5e996b6d98896494
fc6dd36801a9769c82ec7c9b8a5513a6
fc6608b0d99c818ed94fbe72a8d414af
fc69c78fa2a431eca8e27609cb64d857
fc6aa56cebf5865719b934d876e2ecad
fc64ae94f8673e3021c39124c1ee429b
fc697b6dcc8dea8111a022fdc13a4c3d
fc6abcf94384483dd5fec1dd8113357f
fc6495dc1f0c116089fa6f194833bf4a
fc6c85fc7e2f63157fba3f5f13dffc8d
fc63ea7f53ea879cc7056198c5f8901f
fc626631e2ea58634d5abd7d84f3108c
fc65d88a2cbf57738cfb875453e85ba1
fc6a9902720d2aaddd534ff02d2140af
fc6d6df78494746a5ca8cdde0f7b457e
fc6b91241104039664c351355ffe32c5
fc64ddf56a8c4949316c0cf72e7d9ca1
fc6938d80c45a971dd616a588ca89d9e
fc6aa186977c076d3a23f5f70213ff65
fc64bb3ebedd4f04c344f302a2d3fdf0
fc625fc478676e6b6162879a2345ba19
fc6e90c6900b78ce17f8a9ad78c5fa14
fc6c2c00770f032bf493115772424744
fc68ae5ba68df2c7ad723775a974d666
fc68937020726b7cdc8c0c2a92813fe6
fc63399b291faa606b84289113a92f8f
fc610a0cb5a0e02798724246efe34e6d
fc68e043bcbe72f1a018acffe24f7e56
fc641eafc7f16d31ba74149e311b86bb
fc696bf6b507cf2d6d33a41df13856e5
fc688631a4d16a35f3d76f2a1a80d765
fc61ce776a8f3d870325c50ec6edb090
fc60c921be18baca62c573843ee93edf
fc6333e5d45938d027454f7dedda1758
fc60eb93e1444c50e6a88eb37853f448
fc64edfd1a1fb9cf5e39a4a7687a0328
fc61eac800542ecab857404d264a45e0
fc69011a2fc4d96ee361b01b828caa51
fc69bf59351be7d883c997e0ffea1edd
fc611cf6f526d6d81df0c8a852f6fa9f
fc631002a3b693fd43f58f53d47bd5a0
fc65a89cc33e03cfa3b93880332fc0e2
fc6d26425b89ed31f7e406eab7431872
fc63b55d4ed1786f115c3974497e192f
fc69f496c2a8df66ac3e57314ece2384
fc6195077124fff65be87b781793675a
fc643a4925dda87e1eb8cc4ccea855cd
fc64dfbb8b03c56fc83554504d958931
fc6cba8e5a7f24d55790e1f6b3c0c5b1
fc638f3fe88b8d7d91b28f1fa1e8346b
fc689fcd1fd7f81d8b3f0cae094d755c
fc65899dc32b25104748924902e4bcaa
fc649c1a2efeb7fd368352770bb6d0bc
fc6c4e0e0f997b6fc5d0b3268f4a1cec
fc6b7252469e008db01496e10c3d3bb0
fc6dc2cf38b2b59042738f8a22d8e278
fc64b26c641c5d311326c3aa8393c785
fc6e22c99d39195b418b3ea7e8c7729d
fc6651f363db96084470db362f849d6d
fc67f80b988525e2695c8fb9fd1df8ea
fc6f3b55a91bf752495aa952be9df670
fc67eb4145417d0c08164a1db2f86a2b
fc6493d6ec30bbee2478756463c9e993
fc67acf0d8cc8d1dd1c54f54aa892994
fc653c3471e6d13cc971d6304a5d574e
fc6fbb752e516d660b53a51b0a9f6c07
fc628075bf36445df5afe322e3ba1400
fc6a6f0bcb5d8b3876e68528c4eb3a29
fc61983f6f0913e14b81b013ce6560be
fc6333bf9f85ffcd734f3f9e0511172f
fc6dc92d05d061f069424a367b30ac2c
fc6c0234df837a2d6e080c7051679b13
fc65fe3f4d86b9bcdfa56b30c04c12ec
fc6d2b3d5cbe41901dace04ecacd0bef
fc6bdc4e3f8e445ad85bd72673a660d7
fc63445d02fde602e8568ad91ff28b61
fc6b3ad32eef49fdf5601e67e1af1779
fc64a9155e5fea6496cedab2c4bff914
fc66bf2cf1f5cd3dd2d01fb990916834
fc64ae81e5c6c710c52e18c53c4fd72b
fc65727da287133615ee80e2c88f2532
fc66f84ba08e7fbbec2ce389bcff12d5
fc6ab5e7af923b8e1aa9ee1f91761818
fc60aab087eddae2a960c4cdf8c56e5f
fc6f07b1fbd7ab40db781e5b8b679a01
fc63a9285d319df7560e85032c7a179a
fc6c907cca6210c7ef457ef7465b0f54
fc6a4fc1d0ad0ffff162782f35494cad
fc641c611d011794ebac2c307700d362
fc661e352a3313d839fc2eecdcb6affb
fc6e944fb775d42779ebd70a490e7bf1
fc6b18541b1914fba3a28f1857ce94ef
fc61f1fed3b31e90154274dfae9f2834
fc644a4d42ebc1323fd908aedbddd59c
fc6f3468a6c0bab22c1440e2d4578962
fc6d1ac9d2538897997b53c387d54bfb
fc62d8754db35ecdc942d3a203a2e159
fc645a2aee5ef3dcf685c9021a2a3148
fc6ac358cee5bb85a5aa852489a2bcda
fc68e9793a53bec556a0b11ab39832d2
fc6f2552800d86b7abcd5f4d22c504c2
fc63dc268edf32488a6436588da174df
fc6146c3c557493f1575612acce08eda
fc667af21539ae3d0dfcc11f76908bd4
fc6f4e01a57dc01c8c190d0c3dac7e75
fc68b49f29d298415c0f3483caf89b7e
fc63e13016060c84a9eff4c416acccfa
fc64088708bb65dfb98c23c9407bc0da
fc61d2fc605f273c7f0747583599f3b3
fc6a0b1b79cab4e9ef83e093679a2bb1
fc6827959ea3a044b2c04bc149ce02d7
fc6a15811d9f301d5426cdeedf74cb1b
fc6b5404898dbb6ccf504c49b8699b6a
fc6291fed8e9c3ae19e15cbcc200cfe4
fc607ad966e258dada412c89ed367380
fc668c7d2f573c8fedce2a579a5d7421
fc62e145a2cf20bedbebf5610b200fd9
fc60d3f2ee37a3726c23ed38d54960f6
fc6b228b979e969612fde9d9e6daf343
fc65803f21632142232d076cee5efaad
fc62bf1cc5d39d61ed173bdfa804bdb5
fc64aab29c65575ae23eb57d2ef5c83c
fc6072b553f5c827693d311a8a2824fb
fc6134255b95b0f1d93bdd91db5dbef8
fc6123f453714ae14c3507c64b55b69d
fc6e28d0989d0abc4848ed1f4dca0e3a
fc64426237b35f701b416334e88896df
fc68957c739feaa540c94ad70b4d165d
fc6d847aa74d4d1433d2cc6f6001c919
fc634cf78f9e6ad77ca3f59fcaa4fc50
fc65c9fb1743414c878c37d669a8e2a7
fc64468f14baf8ef5d747ad17da96fe9
fc6f3a0b16245f5efadb45efd2f8f7ae
fc6c71d310dd03214924b474a6761343
fc6c208e62958cbc5685ddadee73937f
fc6db634765adee807bf13ff8e0f5416
fc64551f8a406a8ccb62a5807ca0de4e
fc63288f7c330a83c8ce850c6ba722f1
fc66fc5548fe6a9290ef1365858b2e86
fc6571c0b65efff2692cd76292901f9c
fc63f251ff34c7b1b2bce85a06d50eb7
fc6bdca1d0524ac1743602ad3466674e
fc6bff448012fe80874a148b39dde25b
fc6b881bd0fdb52c46e6f659800ec480
fc6244b016d8d0e4046e562f3814802b
fc6c0a5c4ab035405817e6714325a5c8
fc6d64640a39ed415d78c9f964457485
fc6c552e36a3f30b1099d643adbb1fb5
fc621b427b1bb99ac7bcba21b16819fb
fc683565c55d215efdf665e9f15f01d6
fc6a16d271e07200ec3d0efcf39c2afc
fc6e7e33670fb2ab95d276da80f1188c
fc666dbf15c50cc40f7043f4e85b7575
fc6ced40557efcefbc41b7fe3ab4c7af
fc62c10a66b92b0a857f866ea25cfe00
fc6d4c00473414683ea2119f9e2dfb1d
fc6dd7711bc3eb352f2a9b95de6f5f1b
fc6ead99785fbcd75c94cdaaeee18bad
fc65629eec4bfd9dfcef23d9b1c166f7
fc6ba6bed97a4b69b010e2544c115174
fc6518ea7cc4c94c2c439d81836e3eb0
fc625ccfb86435741785e5d8a52de7cd
fc6493fa18bb820791e2efafd903f492
fc6d897cbdb7db03d0635b5e0943f280
fc6c435777c051edb11a9e0348335d94
fc6ac9d9cd21b64940c0bdfec0c0442d
fc61e19730cf80d268395efdba08969b
fc6934c1b58c47957b24b433c3f30942
fc6818e8c88df5ab61270306dd21410a
fc6ba14bb4e5a74697de8b0b6bb55dcc
fc6545c4f1b986e05f3f9b4579dcfd61
fc6f069638c2fb91ad80e39be8550ed9
fc656ca69b111363f610a79696db1142
fc68d29d8d1ee460eca70323e89d57ba
fc6664c2fa9c00b8ec51e8c4fc938e89
fc622d704c669c3a58e5c7930d1c2214
fc67751c2b3bc9ce59aa3e1cecdaedf2
fc600d2e35166804df397dda40b3fa39
fc604e6a5d15afd6a9bbc16246f51b0c
fc6d3dcd0b3735834378d2d0bb867f35
fc61f299469fec6901fe86ba8a2b4137
fc6bfe1595b9c3d00a3504612ddb11e6
fc6712d2a6c1b25e4cfeaa353f94ebe7
fc650b36a6d292cdbda3a4ea1a2ce58c
fc64b9494c1ccdb5d3f244e2f8097085
fc63c0b9004efccc8bcc8b1a2b056b20
fc6a8844f5ffc2850e56bc070c02c289
fc6651205a9f5ebc9e871c18127e9343
fc65e28254dd7b770431fe50ba201c18
fc626604e61ee68c044e3e9c4d99e14b
fc6ac38e88548760c05e6ca341b6b6b1
fc69403c2aa2998c46d71878dd9ae378
fc6d6a645a4b26a3bc1c460d060e22f5
fc6f72708d78b01d50bff8b798b23873
fc6129ba3bb5243713b17777d1a20c52
fc6f03b00492ab663a694e10b67119e6
fc62af5fbd921dafb17fc2f919169c79
fc61494d0c21c5b3e5b8c62e8b57e0d8
fc6dad148f7b6df666034c13fbc70c61
fc649b8e72605fba7c0f5e194a720f70
fc639dc431e41a2c7d596ba2c8074668
fc6fde8b62dda32df4d8505bc4266f65
fc61a8b447b7a3e985331123870798b8
fc6ced412c03f0760c073636c743b93b
fc6d0dbb9855564133c23e5b25c291d2
fc668bd2d98298c3a63ef0eadb129fed
fc628ad3fee22df71799dc991a563b05
fc66ff5800fc6fc9ed9f9d187b309d7c
fc6e24a2c1da439eb19666de1fca5d5f
fc6ed713ea26cee86461212497b05e61
fc6243545d4b72938d5cfcd9dcfb798c
fc6741febbd6d12be8dea5f0e684660d
fc6e33a453206b1125e45b036cd940ab
fc6e9bc85e82f4de2bb712c9d2eb4b5e
fc6fbab1d9a7b7ef7af2441dbdedd7dc
fc6a60c73afc35d494de9fe44bb0a9ec
fc6cde787ca08e31526b4a2e69c2ae30
fc695c78f7d22874d2158737e8f06524
fc6359780a9cc2b6f212937bc35c8d42
fc6eab3ea02c5e4aa15dffb368e2076a
fc67a014516256e1ced540f55b547119
fc6f1f99faad0dafc6f777ccbb0ddd10
fc653f87f2481cf97c13bca6b37780bb
fc6e56c5bcff2a492ee3f25fa3c82be7
fc66bd4e412588c2c99c990bf1288ee4
fc602ea2e6b43845a832c0e9933aa1f3
fc6699e931a1e36becf669f41affd655
fc678744dcc0365b5399041b36c736de
fc68c142a2b025b879c6912578bf320a
fc61453a71daf0b739e35c0a047a8232
fc6605f8695bcc5381e2728d0b57ec6b
fc6472fdb2f31d03ebe86ddc18cd68a2
fc6460ea61098db3cd20d1f7ed4b1bee
fc66430599ed8c65744738b64e901e44
fc68d0b7cb7a79ed980df8bc5f782349
fc616da3f7300d2a76257f2d6c02899b
fc6fe74165fe793e33f4dfdd7ba4926d
fc63006f8ee5f8b28640664ea04e3c4c
fc62f264cd4ce9d1e5c8b7b9e6b8ea30
fc694aa669359cb67a494e56ff3ef02f
fc67a8d4324d6bf0b076d4006ec03335
fc68dd1bdfb3249bbf3075c744c1bd0c
fc6a20570f2521e17432549b2180085f
fc6cbf2f279121e19ac133cf04b20832
fc62a965d6ab0019645dcf993bb0804d
fc6255e1e8045b104cb16db66a9c6701
fc6209449b5a9ca22cda7fd5a970514a
fc600ec4655e7d4cbab6d4db5c73af64
fc6db205d3dd85d830cb7d3a72cb20cb
fc6bf377207a18f66a915793f4e06e09
fc69c40a6c2dd50335a476f3174d061b
fc612db97ae701331e93d98fb8958ce6
fc65a167ed06e151c51e4ffb933a7a35
fc609cfe70c434c91c59082f1851bf62
fc667bd61e8024c88e43b57b298c3d2e
fc604c69b1113f3eb183c7353b67aa86
fc638ce20a3c57c6db9060bcecfe0315
fc6b799661804f3dd0eb90ebcb2d1dfb
fc6a83e50dc16e4b41856bbd1808b64a
fc641926720ee4716e462f1dbf879513
fc618058ea93f952468bfef4a4178adc
fc6daa28b02f456214d4f9ecd1013a16
fc63df7b110b4f81da6184538b6e3195
fc6417c2e876ba12d4658fc347460210
fc6f00bb9f4fe844b07e417e6995ea9a
fc66c716e65aeade234f16d01666d517
fc6944980171f494e605f8823ee23da5
fc6c6503f03e5fe2451dc34f3a51e404
fc604dcc4bbae79ed3d798ee90466b5b
fc6d68ecd9885686b1b8a18f0d770c91
fc64307734900c00a3e90ab7d6fb7413
fc6c03c7008dc1d386c41146ea71c465
fc659691bfa5dc0e88f1391f5daf05cf
fc6deb7c2d0c31a9e0cfd6645ab97340
fc69abda9eb3aa648452f390d80fec86
fc6a09bf005d6cf01c71c0cadac9155e
fc6c7738cf4cf740ca27d438dfac6e4e
fc6c0beff4df4cc591c48738688fe901
fc6ed1624d0f68985de049684be98020
fc68e75bef34f6487da9a5880f4a2dac
fc60b7783c2b35375ce1c2cd82d55310
fc65b2bd7b23886aebe51ab6682b12b0
fc659d0609e9a8ef42571ec913749722
fc639ad68fc4a9d2cc991dbf4e93ef0f
fc6478fdf226b0a22bc70bfd992ae25b
fc6185108789c70fd4ddf40d2f3f8349
fc670ef3489a557855c84d920b2d6527
fc6eafacedce30834b83a6cd5fd830c9
fc6a1149416d5a777d3e06590a2706af
fc6ce2c2d2b7293a62a6154609646aba
fc6c1982bfb3ffeefd2726a54e530b0a
fc6d75c3bd4e2490878c1c0379b18190
fc64a4b4c56076f82669cda98ceb06c0
fc6664e0a2e648cbd0ff4ae37444fd39
fc650c006bd64f97a0e827f516503caf
fc686d1a3c89d824f4a165aaafbfd920
fc6a6d18d412e58d08a74bb59fe2cc94
fc63f4390dfa3fef6fe3629d8218628e
fc6857a7e76f322278f6fba70d536a5b
fc62883aca3db5a0d96e05e655f4fc96
fc68c2a0a861f877ec8db166b7c7d3b2
fc61496208006a8d2cdb9f89b9327126
fc6e995e42d3c8c9265caf79ba44fc0b
fc665de20d69fc26e30a49e6bc4a44fc
fc60ec83801b26fdf0604bd22be435f5
fc6333abbb9cd6e2356a2dedfac08cb0
fc602aa1c9f96e25ad80e26a69865a2f
fc68fbbe9ee4eccbc0a0bb963b74f0bc
fc661a26546ea9e3412aec4a7aae8891
fc6755700056f8fc31ad07d031bed989
fc69e96d3a1b646fef935395b6e635e2
fc68e9b4d55513674aec8ecdd0f2596e
fc666da1e4973a5d81e332bf52f1ac1a
fc63c88d5a056cee5125b272c3909172
fc65308d1cad5e1f6e47a6b37db706c6
fc6d0e25800c1db090e2ede9a3cb106c
fc6e489990ee4bb07a1c05f89b8cc69e
fc64e9eff95702db23520db7ae437672
fc6e218bcc52d98561e51fe7f6e2bcef
fc658a484e13a5bcfe44afa7c3fa2b8e
fc685d12fc263bab949cdb78494aa970
fc660f35790e468f1a4e7ffa186d289f
fc68fa842ae53120a1fbcfa2742c163b
fc6d75e201857d268d11cc3a51cf9395
fc6fea18ece9351d829e2c02f3e87657
fc669dbfa30a52620240976e8aa389e2
fc6ed1942c42f20cbe3caee3ca6dd32b
fc67fdb1cdf7d97abac9b9a07801d653
fc6827d50c3f5596039de349c93eeb0b
fc67f98e8a5ccc182813cebef5531ee1
fc6b06232a34ec3115f4fc6f0eed6524
fc6254aaead375cb00e9f7508c2cfe14
fc65747b2c702831328565cdfc303f67
fc6634503ae1b0203af4b6a58533f57d
fc683be6aca461b66097ee8d798681ae
fc6d0b435f8e6aa03b6910b86ab77626
fc6adce5b87a79b25e9fb1e8938899fd
fc6218fc654e77eef240d2afcf443469
fc6d0551387793bf73d8d3003c580fa6
fc69c70aa3cf237a93b8d483813ad9ef
fc68674196f8047e8f30917b92183e36
fc62f6abedf68e5fbf35a1ee3c5d81cb
fc66873c303a3836d61f32fe21dd177b
fc6d1c943094cec26f2b6308240d5aa2
fc635127763a5244ff0f048d2f0e5f68
fc6017bab8dd3697b2c2c162c586d4c8
fc69ff4ae4c3ff481f8d99dd19c41bf4
fc6ee2af4dc3dc04e5037542f656e2a8
fc64e02938c8f5b0c782cfd6f21eeb33
fc65228543f5c432457bb2823791fa66
fc683c978cd2ad9384f7061c09f55fc0
fc60d2e0326f501af216e2c6d41269f3
fc6e62a6326ad887023b72ae8f8292a0
fc64a98538f62756304d56a8e2e943f7
fc648b6c723aebbfc8d9a4040978a729
fc68bcbba393e2dd363b45a2f2d10595
fc6dc0f0c642fdbf867072988f197888
fc698a12d4ea147b49dd6c787cdcf64f
fc6281ffeefa466eb91d84180e598479
fc62f7756e15c40be82592acc4d395b2
fc64f61031278bdbd15e7358a20b444a
fc6a5836dc13fad2769dacfcd9c08cb4
fc6e7a6bd87377b8df163f6ea7b73543
fc693377fd85469412cb421a33274bcb
fc6903adcdc3d432562eadfe1beb6a65
fc671081deaa91a272531a65f13d0141
fc685977dae8bd5ea13cacff90032213
fc6972f1abd0beadf6b11cbb2ec46d51
fc62c76c1976563f5fd14652ed805af2
fc6c760b22437e4d6da4ce0d541e4bb5
fc64fd46e35c9ae45ea730b234c5a487
fc6889d957939a0aeb2622b4cc246d79
fc6285892f00fd8609941d54a096f35c
fc617c6911f4787045b1df05b4ef0ca5
fc610449b70685bb77662366162af45e
fc6e93f21351eb14e55ded9946276966
fc64eabcef004d96b38df86d752b936b
fc60ad42b0b4599e3d3353fe66f23ab9
fc6eb4aa0594a128e633ddb2ae9b6b0b
fc6529eb3b6c70112bd5228dfebb806b
fc67c48d32bde1918620c800bddcd302
fc68495d80069c36afa581479e49391c
fc6b909ebfa1daef42d29ef6dcfe06f6
fc60b0fd453b304fac7161da5f034b00
fc6d82fa80dcec5a2a750546e6346a1b
fc674892e4375c9b1fdcf487f2c32ef9
fc67826c9881202e88511d1245676276
fc6ab53ac57a44a92d69a4f7a6f863b0
fc6b0f3699dea2e80c6fc737d81545c0
fc6d8aa640969afaa3dc9e80578b81de
fc622d0a6ab9188f340108e41228da8e
fc6b1febaedd60b52e3dfa9f9cce9c51
fc6f4fc93c03b87d413bd48315a5ab42
fc6a225b2bbccb16fbc09ff6b3430bc5
fc62ee3f5920b7596daccf3d724d2ca2
fc600d7285f81ac7f1d4f5beb1feb90c
fc6525eac27449b11abe630a5a5ad8e9
fc661a3d62e0db201c0087c670e4d273
fc65b458e3b6cd0da602ac38ed36b309
fc69dde43257f802dd6c6a81354ae4d7
fc69de6ca47bb6320c6d542808efedca
fc618bc39ea7d2632dd78fe34db18f70
fc6b2d85496dbff21a9ae22a2e575c3d
fc631051094977ec113ec214486fcb7d
fc6df674a6d18f4c5f1cfa5579cf706e
fc64fb8affebd084a57c06ec4d9d334d
fc69b27120c2a905707142e128514ded
fc6cef925c9d6afb557a42dbe68bd1bd
fc61962126a12f799914027cf0975a5e
fc63ff9ad4ed1642add923327a244e66
fc63315ab264539e7940b3e8d3207893
fc6983ee9a34529e2c65b93ddb20433d
fc646d61a83b24da7c85cbcbb4e142c0
fc646141a056c14a8052613fd2a5afdd
fc690e7ff2c7186aa6db3c6899ce48fb
fc6f26190495624e77b5bcbb2c50931e
fc67085a5315289dae8a4440cd0f262b
fc6733c11103fa1d6c02293bd166538d
fc6bd9b5c9e69fbf39434c13eaf1cec2
fc692f12c98290c4f4f767d511fec136
fc61359d658f2f90258dc4500a93d3c1
fc62ebbd08d93740107f24b426c21a77
fc6faead4dcb6768db43fb06e8bd7839
fc6c324eb88222f070a066d316e0d003
fc641dd628b0137227b032a527008fa3
fc654485b5d5795e5f6728df6412c192
fc6fbf228084b1dc0a76afba45ee9a23
fc686791dc26b018e6cfd5b31a0daae2
fc6bf409ca4f3dc7f127a14db86c4b57
fc61a694dfaa5fd2966e8c1facd2ff0a
fc6a7f590a8f5af0bdc143a0a1b27241
fc688e31784a909b46cd2de026307c86
fc6d2f85f39ad69bf0a8f4e0f2f928af
fc68b9ebea16cc2ee53b5d33b8f944e7
fc63c9b632d83b9df32b139afc638864
fc6eb77c33e28302a4c8250782578544
fc6b2af6431933096a45b3fbc0cb61fa
fc635ed41dbb40fd3e40720c4b1fe1ec
fc68c706b29f31f68917ee6bdac59d8c
fc639dc21b57bb89f7dbaa51d634a331
fc610a80280f391a3f7c56b42510cd83
fc6d3f07427e503e3e90db4cf293d375
fc65642330d708de76fa1e716158621c
fc64828d8013e562a6940b907873ac37
fc6443f120285e852be51b6ed5945ec4
fc698c1fb1d9cd5665c9c1e13d974b4e
fc6c1b6488382cfbc15d9f544dfdc78e
fc64fec670281301e8c51a814086e101
fc6232adf5394dad835fd76a30c96f2c
fc6b1b32c59580058ee1a701ee36d9cd
fc680686e6bc63befa396be5276566e5
fc64e37fbedcec2cba6a1535553bab9f
fc6860f44336c8577a8e6f182ab6364e
fc602d6ead1a7e8e56ddd73debd01280
fc60e820e0965f7880e789dd4f87da26
fc67fc9d2974de391e2d3d2089228bc5
fc6243a5a6cef18ae3f815460a4900d6
fc67a369b52ca4f0993ff39034baabfa
fc69c9f6575e85cfade17c28fbca1152
fc6af5b4ea358ba4def2a035fb9bb95a
fc6aed91f88b97cff4f5920165ec32dd
fc614efa64f54eff3787ddba0370d474
fc64b4dff2ff06844b3b370fa2cdea72
fc67ad2de69a442ccbf68982108f9838
fc6c75d0001526b114d6e3e399b2ece4
fc68d1881923c5aafbb3ab8673b157d8
fc69bb08fcc6525822a714e962c7069d
fc6268a7fc25e903bc336c49079c099d
fc663eb69d552409ddb159b089200d5c
fc60ea3331a5b1db07fccb39488b3ca2
fc64ca30ab5fe5e125679b59cbd85e91
fc68485b97d9b78999f0db799eab972a
fc67c93507a11c90be349f1b7ea286ed
fc604f17d2b853eb2820f3f1a08b3207
fc6ecc41417c906f59515c910e68d479
fc613805c0446b259aaf66c9daa605b8
fc62e0ad7f65321245116376e7ff54a8
fc6ad4e02dd426b8b2c5365de99f4d7e
fc60bd5a85ccc76d373f91b858ea45c5
fc64efcb057c90f1fe983501b904a5ce
fc625c3c1c554fc669a8be71bedd4f72
fc6184ef5c80898a668cbb3e8e8415d4
fc69f8edccce5c41d2fa0cf372e0d8e7
fc66e84d495f154c6a81ed123141902b
fc68540856e43d241ed6894bdd2ad0b3
fc668194a28aebc69abc271176a25001
fc6f0a4bfa242fc03111167ca60f0cb6
fc6f819efdf47d28d9924d46295d6773
fc686117de403fc7f88ded8838764567
fc646c892f04333de05b41c022dcd3ff
fc6d8e080135bac52f2f3a6aea072f74
fc6f887180563e7cce47cb6a1ac74b99
fc6666fe7eb8da25b1fdebd3c020e96d
fc60594eea0541ec11dc5adb8dd26973
fc61314fe39780725b6543c4f063ccd0
fc61db5c57107d1409032219a5f766fa
fc6044df620f836ca14c3fce0bfcfeca
fc6e0e5900500a6062d0511b6c92fbfe
fc636c6fa44e7b8b69df27c35a8e988a
fc6902ba26df5438c4eaa6d14ad817df
fc6261a2f7f7dbf528dd51aa26ca1a54
fc62517148d24c5c057f5cd105680ad9
fc6c932ce333947c15b0f2de8c337135
fc638c68ffbcccfce9e268383d14990a
fc6e8b46131656dcdc0a08b22df0d6b1
fc6e10f29c87f5d164001f265eb0501c
fc6e324e4ac147cb6566f04774e50b66
fc62c9f93dbd46c41c136b1c9880d0d7
fc6bca4beab84cdba8ee8940242a80ac
fc625094f12598f3cb3b1e58f3b13223
fc6ebe98095a6d9f6d3a12c088205473
fc62b01efe337d0b7ba054fd65190aaa
fc6f7c940c4a6618819b22aeed07dce0
fc6d7126c3460b58fde97d5ee9521651
fc62edd206b2efbd597211e465a734a9
fc6ba43c4fd2f7e47c4b2c945b499c15
fc616c08c9e12f19cf006ff52777267f
fc6f0c227efae950cad3f1832ee556b6
fc63ad83637d1518254e5c69d074ba27
fc65899894fedc6c24f1822dbded5044
fc6135434a81da5ca3558c48786cc1fd
fc6e4492812eb262be5b6703e6b02304
fc6978f6e16d4700f7ab4f7ee14daa7c
fc668032e2b002cd421d7e1c3b4dac3b
fc6a02a0451ab93595c580265533319b
fc69b45ba6312ef05af99c221e5102c2
fc65d51b0139a3a2e7226b56e8b4f5be
fc6266697db140981044cac12cc7f11d
fc67c9c167745e4934603c3126297de0
fc6c6f768fb2307aa019a9196d7add1b
fc683e68ad0eb7ab31151bd428f76a1a
fc615d84459fb0466530dbdf758c9050
fc6f658a30dc36b81101185c7288bd65
fc6dc6bccb813057add586118ea07f6f
fc62e18712ff38322b41ad61d6af7d1e
fc6b11ff820045a95be9e4021d692699
fc6431c1112d06944137dfa97da05381
fc6cb792b4338257449b7d743f96811d
fc6df6c056bd9140455827ed29d90ec7
fc6049a4f560d309abb27271d9debbaf
fc6618e66b0890449f57743f242c263a
fc6f6b01a2fa4707e587d02ebbdf67c8
fc66db54a37fd45f98d15270bb91afc6
fc627a3bac186e94f6ac1c94fd788159
fc6139ce8e80c7ebfa4514a395d1b9ed
fc659a46b3269180b69d0b8187ef0f96
fc634c673a9906da3f63480e57a1fe2f
fc60320630e22f858d3adebdb0f1ca90
fc674435c4c624c51132709812c96c3f
fc677b667dd6c520806c5b20236e33f5
fc6bcc9dbebbe788f0759516597892e0
fc660f42028505d1916fdd0d245f20e0
fc660c55d6149ec7941e696bb2e0304d
fc6f65ea95631443d4187989562c3a33
fc658ab72592b0e746c6569b86a5a8a1
fc666dfbe7b7fef244dac9e616ea7fd2
fc644022039492b311ddc38d6e006c0b
fc6de282a7a9ba34ff4ae528d28211a9
fc689db96283ad606204bec22fb6e5a7
fc69be22fcd7df4a347598205f50c0e5
fc695ae827840c8ebf2614dffce4e666
fc6bb699bc86e82727cdd2706da8b9be
fc61e9fba5debc56f174478fa80e8243
fc6f04dbd9673820e251c30e6d44a8dc
fc6ea629f8e4d88b98641b23d6fcf96d
fc6d44b52f4519bf1dd9523f24051107
fc626a4ae4a9191c8e7655fb24cdbf79
fc60f5676181ffc924fa52e12f65bfe3
fc6cfa06c8f2ad6fbbe1925df32305b0
fc6e12e5174eb552008e73096cbe84bf
fc65fac7c74f64f0982d3aa817285a8c
fc66efd823e615ab69e25c30eecc70d0
fc6c0347aaaf7219874013eded58bfcc
fc68c31f39ee0dd85906e27273beaf6e
fc6b1c037af309a2f9d879a2b0bb00ab
fc671cd0f8222a3190bf857ade90a62f
fc61cd6c8c86dce44153ed61fb3a838c
fc6da75460bb42420ebab53125c82168
fc6176a1ee36ac166c2782c2e2e1dff6
fc65c79f5ee5edd1f80ccd0542c20b3d
fc62ebdd69f4f85ddb6d361c526f46d8
fc6615b110d1f32fc6f5a858a19cacd3
fc6c61b1081640cb6f01dce504123b6c
fc6e6fdb22fc469e6016f615565b5503
fc690197038fe4bfe4b9ad202b9c847d
fc62b0471a040666eceb99ce83357db7
fc691b940eb2c4da55952c7561b81ce7
fc6c6228e35e6830781f1462c24ebf01
fc6f87e51b3017714474cbeb9c1ef106
fc63f806e6cc877daf4e1ef2244ca75c
fc68eb13005ef37e0ea3c8b75bcb2a29
fc639b187e14b859fef08be144c407af
fc6ffc678fb87ec641bb3cab28fbba7b
fc6919782397c464fc41078830a45746
fc6d52397508d24ae3a8b2ffa38be9c8
fc6cc2f7627cd43b2e6d890c85d047af
fc695b9df3edbb98c6daf71febc43ba4
fc6d26c47c299076d1f37d6597dd37c0
fc61c2ce9a7e929138b4eebc4c6b1a3d
fc67886d174aab9a191294a648f24673
fc61dedb7f78bdaae1b0086a1b9f311f
fc621065eab875650c0376bc2c938ba8
fc6df5c281b133cd0cf0e989874f501e
fc6fc668969b914b68e81acd91cfd832
fc64df8936ac6976b3d95b9d532af494
fc6c65352a623627a89b2d1a456fbe31
fc696aaff8edb55d57cc41205e8b78e5
fc6e2b3b1cde4e54c5499b342db3838c
fc6bbec2fe2de9b7a255c6beee60b2dc
fc64a16f5ec156ab8cef0015145323e6
fc679f66c14782efec6b32492374d52e
fc6ba9fb8bf5e5b967321f1127d8caed
fc659676c3a9750aa1496c08a8cd18d4
fc6be2fd185b58fc3b2d9292e5eda79a
fc62921ede2411c9906c934292d2b9d0
fc61165be3d0599b73633423783b88cf
fc6baf34e77198ba4717b6669c6a41bf
fc65876617eb424945207260d539a9f8
fc6d366b290e549f2038c75618104bff
fc6630a6a038908836d7e93abf4714a9
fc66ed74afcc4b095374ed5c75656ad9
fc6d0909808ea1f3950dc965bb8ca1a8
fc66bebd0eece0460b2edc276cc86466
fc6730e5339f0f9ba1f8470a34e29669
fc60e647bcde56e8cc7785212ddcabe2
fc6cf023330ae57d5c8fb34062af929f
fc624dbc40294d027a0dcb950fbee421
fc63f4c16f1f26fb6f35bec5fe5b157c
fc63472234db8bec404c9eeb0c5282aa
fc69b8ec55a4f41e6c144c66b6406414
fc6f86542d88fca2e80176489192546b
fc6c922ce0bea6faa1e086c05915690d
fc65892c1fa85e7ee4e1de77172ef84a
fc644bf7965c92e0f3401f86a36d257e
fc65c86b7ecee6cf0a935664f28b1526
fc694a8e23cf280802ce37ad7602b0e2
fc68ae279a26767ad938786cc4050d39
fc686e1d1c821efeeaf421b035af6b20
fc669bd8fb6346d9fd34e1af0a775912
fc64cbfe82bea43b22367972bc134f30
fc686f93a990148c91ecba7ed4a89146
fc6a6acb65da703df75edf1373357a43
fc6727501423919b3469d0a7e05d5754
fc661f159d32797edd27e62a75d08349
fc63d8a8d816514919c75498ae8c4a6e
fc6deffaf219a9eac91e608b29952438
fc636aa449d87410756c4c98edb053c8
fc675a0f79101d0f42e5a3e5a2223156
fc6c16d9a23634bd35debcd150971f8f
fc6d4023c8435cbb244766e03236529c
fc6e6fb8ec0d77be0b922409f52443d5
fc63d28ad6a43cfb0fbf22972ccbcc3a
fc68789520ed53d92bace9580cd4ea17
fc616926459c6cffa0419a02ccb2194d
fc6fc7baa3cf077cf0d9e8ca59d1ec0c
fc64e66338e74e635d369f96474a4377
fc67a71e6f8782f1b948546da616a1ca
fc6b5660a9b1be0a3630a170c6b59478
fc6f2e2bc2259f24adc623d97aee47e4
fc6e89b563edf266a04460d5f5a9f6ed
fc62281a6ce85e6fbf2ec0a125f1a99d
fc6fc9bca2fae910510e2b10b8f42273
fc6ca92394f6d71caaf06494d8521596
fc6cf0ee7e461748b4a52e1740433c2c
fc62f5a202fbd2a729a71d1a13517486
fc6fd389325704fbb3b2dad99ab9077e
fc6c11666635de9940d2dbb09dce0904
fc61a748b0667bc91411f0d173bc96b8
fc617ad3b72e33e82220a6a5abbb4d0b
fc62a3c672c36d438db3aa12dade304a
fc6cf9bfe7287bb59d1f355a0788b6d9
fc630bd3e2309cc232622d8ab6c543fa
fc68a5841d0bc76d13680ab2f0eb1dca
fc69cf4a095d4cec2dedeb9540fdb47f
fc65631e4ba8b6c925b1394b41e74cf4
fc6fd710a07564fa7517034fb8249082
fc6a6a603312ee8e0727ebd497b0f09c
fc6c6a58bfd043c407d0759b8b80e89d
fc6a67e6cc5f5868a04e63371d37f481
fc67b850baa48b68be235068c49fe8c2
fc6be6edfa89fd2f246ab2f90f6f6414
fc683586cb9a2886fcdf9f9d5636d114
fc6ccaed6d1722e2ccb833f6aa12873f
fc610a1384bc20ebe58bfe9ad906489b
fc6e69f3c0aaf65fb139bbd75824c13d
fc638e193c846fbd7e622a21bc534d2d
fc640ffabf9f05b6efb8f15d01ee8441
fc6baf2473a50b8039317d19a5962bfc
fc6eb4433267a8eee3e461d30176999a
fc6023ff843ffcc3c08478c25b86a617
fc68ac30b55d7944076d94b64de505b1
fc617fac4906bed539fa658e0e360a0b
fc670d540574ae027a640c3479eda885
fc6444c1c801c9fb054a9e8f6b0fcedc
fc6f8b7c956b83aaccd694fed78760f6
fc6a1d9ae31202c14bbdbf145d81eb6c
fc6ea76b1329362aa26ef4792ac8ad4a
fc6cf4c2426c165e1221bd4c50b0f97c
fc663adec50eb06ed9c3f406a09d0132
fc6ec6e54492b14b8d8ac46eb9ba5798
fc6b4dfd66f6d29af72a1dbf47826d78
fc6420cc8ea6f2d89318c57553ddc4ff
fc6ec612162c48043934df0ac232e6a9
fc671c337fd0ae38d6fe839ff517f2fd
fc63367b007557c398e8abfca0b8d806
fc67a60c61295bd16fd61df48d1ecd70
fc6d44f82bbc0a881214395312d06f70
fc65d7b240f225db52d6f80a541eeb41
fc6ab132051902ca3759d98784b98030
fc69dc2f352e6f9de4bdfb289aa4df6f
fc61294bd63ba4b3937b161e3875dbee
fc664f1155d9950f960d45fd916001bf
fc6037cd137ce7d67be3934d3cb82914
fc6a2359685e554e144ec56e10ad8be3
fc66d0a11674d71df9471ddaec30615c
fc67f05345c6658a755020c171501c69
fc6505797328ed469dd4b61809a8ebdf
fc681e0607ed8e1c3d9287cf17255a51
fc66256f2be53a97220959230626229b
fc6f69edb2a96a1d892d696a5380d6c4
fc64a780482b443a8ff07eff79643a17
fc69703b4e0cdb446c6fdd019bb63c1c
fc66d4d5308a6d02fabb62fbcba28520
fc6fe8c10923a16d2686826c4a62c095
fc633f4f484b1a864ac989546f4be6c3
fc611b4ce60c5edba617dc728e50247e
fc6c593784a1f63e0ccedf479de61313
fc62ba44a08540452e1a2177d5347727
fc6a75260bd88f0d90fdabfc8c766ab8
fc607bb7d0e83a2e7d599e0fd848c22b
fc6efe357aebe4c7736fa344fd2bdf14
fc621a4e6fab0601f7d7cfa12ce95d8f
fc6b3c987c147d3692a5cf5c7631ff19
fc6f8c10102d24787ad07e19ba41ca93
fc6d53a84725d1b073f3066fef255983
fc6e968585c85eb58a1dcf892352b3e6
fc64343308b8c1586293302e6580df42
fc63404537c6f110773efe3ab137c592
fc6dd8a8110477b565b18a058526fd26
fc61fd8acbc17cfa971caf9be12524a3
fc691591ad1bf94e463ff92101e5c1bf
fc6d5265698dfc15a2d53202f28f6d1a
fc64529725a9cc0488a61f4873014796
fc686e708b0f33bee63c7d953f133ba0
fc6fb080c412c04b9dc2facb567fc61b
fc62f1e85aeecfb694657e97007a0eef
fc6b7b9f1eb488c1811484491f3aef7c
fc6f89c70a59c7f4ccc769d94c710028
fc69f4e91cb50195ce6ae77b0c0ffa19
fc614ebdf227c12a18d362a014abc02c
fc6a45042f7ffee29eab292d913b4dc3
fc6ad14ff59bb3196d1a4a01ffa870b3
fc6a57c76b37cef680c109e09007a12c
fc68b72ef507f2e021750fc2b374165e
fc633eea743edbdea7439b4145fd5aca
fc65132f614a0e50707a1e436cddb495
fc6a31ac6d78ceb42fa99725e9a035e1
fc660eda97e306dcbc1646396c1f6dfb
fc661f32f2881d5624a99c3c45b1d29e
fc6c48215ac70ea070fd61ad196c7408
fc638979da9804a7b409646186a26d5b
fc6d1ed89e71c4a4912b9ca7ab844856
fc6a417e11fdb4e3f55eb02647f47fc3
fc6e4b70f021cf477e438aa6b1cf2847
fc62c2752acfb71128b53a19d4eca327
fc68ea14cbeb08f7c74187c2785f532d
fc623fabeeaefd88473b1b516c344d71
fc6e46165017909d481851aef118985a
fc6102497ac222efac2265d80c9071d4
fc69ad7efc97cbcf8036749e132448d9
fc6bd5a9548b5db99492d3ac2531b8e6
fc681bbdaf1937f9fc982faa9654d480
fc6000b812c699acced28d75889d6452
fc60bd3dc3b6fa951178a8c5e9cbaf14
fc6ec4020716a73303ca9d024e291d33
fc66ba2f12d35779aead479f8a7f598c
fc6b370fb0b34b0dab3e26523e6c69ed
fc632f867a79816d852ca393958dc90f
fc62ce9f1f8bcac4bcdbb637e8bf7336
fc6e6a2b200199b5e526f2e2c20db444
fc6bc33e7a6ba91237b01b9b75816272
fc603e4d2c20e543835ead246699f95d
fc629908424766b2a14811e9c5fdaf8f
fc60f0ee5957e7fd2edb8f71d25ed97a
fc6dc776e9417dbc2a2df4dd2d415b8e
fc6719d7dd585cf4512a64d899591a25
fc6666ed6db7e63df0ffba95d93e505b
fc6f201e22ee128058cf9e1d3bef6c49
fc685ada63bda1ada06cec28aa481eac
fc6f963881017515a21582d2d70166b5
fc6eec36b22a787874e30a02f783a968
fc69320fdb43568b50bb3214ea10fea9
fc62dfc1ab518e0d0f5987ba6ceae508
fc67de28697a6b19af7958f91911f345
fc6bf17451bed04414d0647d3d2e94bb
fc656b1976a3c0aed6cae05942ac3e89
fc6efcb4dfe53b7095467da63e4a4c61
fc66ee8ede46745df2b4e85f1322d8ad
fc614c9a0d67d624d4185fa80c7cd254
fc63cf2c8a8f0fadc530315d0c8698ea
fc6475563dbbbae974452e34e64a1808
fc64b4ac8cd41885632f64e62e628e26
fc6be7e7d6d2d662cde4851184a66b8f
fc64a02441dbeef2ae57bea216a14c0a
fc6db7dca8117b62d2be3aa455b478d3
fc673d450bfb451d8923401707a6988f
fc69d450e34fd7a1283de7957a10fd31
fc6f3e9a786fb30a9947b2b47ef00822
fc6a93f7b71351a2ade4f44543c872cb
fc6c296ed2d5aa0063d43964b35d2bb4
fc6ff07d278d808e7529b967190dcb06
fc636f3fe082756160f100ed587cc3ac
fc6bfcd17a11d6e05b5d69e192836db3
fc60cf5c6f1b62b7fde15aa05126f22f
fc6cf4ec4015afa25546172e8f42da5f
fc6fa6ee5407e5d2d18b1acb47c7c6dd
fc6ea4f6e50872bb7f64c3de41756762
fc6d2b6bd828f1cb37c04412e25ee286
fc6e989f358b19b59326901beba43e50
fc6dcfe0b649cc57c6eeab4d601a57d9
fc6d4854460f3ee027d5f3fbac08347e
fc678c6a1ff3f8c53cf69fcacebfaf87
fc672b5f3a2515358ae18310f3b75fb9
fc6f551327973bf52233656a91ff32a3
fc66a896f942c0e20033f1a3dc5ba010
fc6178a5332ed9b0d0602f92422a9114
fc6992ddeba5271ed9d2f470ab73a0a5
fc681210a4722026b2f4616e623ad67a
fc6c307e7601a1a012dd62b31edbb41c
fc6cd16e5a0572106fae2788336543f9
fc6692b788aa519d4a5a1c9569930a44
fc6c15004e55842273ed8ae29dad9467
fc69e43eb1e7b6c247b227b090e50724
fc655eed5bb725ac511fc9ca3b00ac99
fc6823647dd36ea9db1031d5a6822bc2
fc6988cb56e4e9bb642ae1230de6cc56
fc6bfc49f565fa2d7e55cadf8d4c2cb5
fc6e3ca13f98250038e526b95ec29520
fc690854e27256acb2e9a4e42f9224f8
fc6120690e2c18a9f3710f1235ac5686
fc69ac9bc3fac8c40e442e6069747429
fc67da250cf0894df40fdde3c9211c6c
fc66d559d671619c17f49e3fff07003d
fc62861f2d94d4d2d3c7f4f4f64f1de8
fc6f1998f92a5542cc68696619252805
fc61f4001ef0b915787e04525ee4396a
fc6f361166582d8673fb16ad1470b4a5
fc6f6a7de2458a37b31f31be41e9a3c9
fc6d3e9a4b6822c27ab1f8fbb3b64580
fc619687a0b3ac5ed3020417c586d774
fc634f611ef47896f59cc5678ad51b5e
fc6d970c10349a7474df9fc50027fe80
fc6e52312df1f7c5045117fcb6a45da6
fc669c1d4e213358bac276dc84fd5ec8
fc6ccab047f4b2dc9d872259a9d06119
fc67b31a6efed4f30a1ca7b135658855
fc6002dd11e7e19b349f6b607164d1e8
fc6f24293a2537d14606d99887b7998d
fc65cf997ca673e6c054c06ad2eac92b
fc6e38c0e1e804fd3fe53a47d238a639
fc64e3a71313c202c065f963c2ec447b
fc6f1e92706c5d3abda0c52254c270cb
fc684c3ba91be3b38412f748bd4a48fe
fc6794b44dd9253ccf7b43035dd3d402
fc6aee72e29ffe9971381670c315de84
fc67ca9fa561d43abf1f8fa04eca8b7d
fc686780f315d9eba16ac856a93eafa6
fc6ee2c0c1e30aef5a4bc1196b2a941a
fc6acba163de774cf8bcb6fca691acea
fc6f36befdbf1e65941c2a3fa867c4a9
fc696c18b8b5c2dc667daad45d258aca
fc60a99cbec51e098cbfc4879855f277
fc61e548396368ca85a9f26029b5ecf9
fc69b19174bbf36ae8f3257959f0efc9
fc6989631e5fef786e7cdd813a11d026
fc679b1946e167c7603c4a1c5d34f0d3
fc643d631d7d635ba4ace63a167b1e88
fc6f05144d6e37a3886ac1fe9ae71012
fc66b27997bf69360e5f6a83bec0c825
fc657da500e2dd8c4ab6ec3b8581a5c7
fc6d014bab74c44bd51362c04496322b
fc626d60d70f27706935e37b3e08d70c
fc6ef067a0ac4b10ed054627eca4c04e
fc605804878d4a511c4f5920b383024d
fc670725a6d7c8cc9cb1dc1f6ca5c57f
fc6dd9cdd3061f1fb2bb7870a02e817b
fc6191fc32eb9e47c7510fc368909463
fc664585fef050844d45e07b8e00f7e1
fc60b6435e169ce3f567811e6a56119d
fc6b136d105b96e72f03aaec855e3998
fc6b64ff066797c32b79d0cc27f7ca67
fc6414fa7265101ed0c4af2f17e53f42
fc698d2c00a9a6b1dbf4eb36d1a58635
fc621e8eb0b600ee4562a874421f93ae
fc6dd1803fb8674c47d43f383f189fb1
fc6332e73b9946809e18a8a9cc33ab96
fc63274382d3d4ffebd0c2ab9b65bda7
fc647f72f7e0e6dd709215bfe0d30935
fc69b58540acaae970b31f8c4270ff29
fc614490b3c715e1e04c67c94b86fd67
fc6778f40ac61e7dbdb9e951a0481e90
fc6678f90cf56d4c19c838b70f37e72e
fc60cd8b71f756bcba46c90fd5d10308
fc6df7a1063d384a25ad9d4b0aaf067e
fc64b24d1254b83c805f79690752c64c
fc68da275956e763ae00b4bd0ff41759
fc6f199db0fff8057c558e8948128ccf
fc6931e60f610a9d063679dd398f02c0
fc6646d112e8f63e3b4ffbaf9a29ff9d
fc60988e35cc16cb8a5c84d029b3d5c3
fc61925333f775ec8604c7e08397c4f8
fc67ec072ef773e351ea6e019a5a0aa9
fc648ef52b4de65d7406dbd96311f4a3
fc61a665bbdea25e7d1b2463e28a4b2d
fc66b523b5602522cdf82ebfedab04f1
fc60e576b9894e1442dfd5251c98adc4
fc6e1f34c65d6bd7d1375241aea4e3c5
fc65fe10177e388632f5591d5ce9c22b
fc6b3b6a8d11e11600b4eb1610542322
fc6a8e5314313979a8ccdfd6eced4bc0
fc6f4911c1e3c8d79b2d8fa180f9e9ae
fc6eaebaf03201b4fa70870d2e06b487
fc69b6bbbbf4bc98857746d44679d2eb
fc6e67f3235e77a1c9a5903f784f281a
fc6db852f94fc14d887476f03f53ef49
fc66eb62a3f79226eccafa155851d69b
fc62d2a65ad527593b43b58921da8053
fc697176cb674708262f1bafd0ae0e8a
fc6deafd07d311f789faf5dbead0d304
fc6986991acd8aac6a81d8d5344f39da
fc687566386ce6a36b840d49c1a7f710
fc65c7a7f065f47fb2b41ae711f4db49
fc6e1f220ae674d7d07348c43ef8bb92
fc6de5f4cbdd066869984c1416242fea
fc64b30cdacba683a9312a99aad21281
fc6bc9a27a285a3bb9bfa21a76dc7d04
fc6cdb8399d7ab102fe012106ff36c9f
fc668a176f0baf6eeea34a30515d309c
fc600f7099abef966ce43cb659db7e06
fc652f34acdac19d415550d460610e1b
fc6cda17796ed6796a8971a24e9e9338
fc6ddc3ab56f81623bf90e471d0506a9
fc61d869a328aba72d6d95d5cd67929d
fc66c842abb48687e564f47583ba3461
fc64facfdb41ea1a844d2bb659953436
fc6c3c8a3357712bf21e16226eff083e
fc6a49cb2dce2ace3dd5db28b646f4b7
fc679ba888802f27f4781f9caa78bc9a
fc65b9d8a07756531468a7c9e2c33676
fc6fbd5ce42976a4102e5706d438e40b
fc652cdff81bc93394d96703e21fa653
fc66702c870a1aabe96ea3059a9c2eed
fc69dedc1de95e7fdff40c935b7427cf
fc663db33b6b9f5590a221d768d77c04
fc6e824bda8089b9dbddb33849fdab6f
fc6e4ccc9e210256279aa501fe9bd0c4
fc6e232ad0372f7d1a98ce2d9a6885f0
fc6a87e242c7bd87efc3dffa1fb72303
fc6dfe706e3cc2117e0c1f5ed00ca627
fc6f6d46c30e4e32667e2a76d9be820f
fc68a153e0eea2683338ad4b7658993f
fc669297469e924d0f62a4b8783af2eb
fc6af5118edac0fa15d2c966c2f5554b
fc616a5cd55e784604de1ad901501823
fc64c8d03d3d5d61dbcdc6c0676dc18b
fc6766f23ffd5b72a9b694256128443e
fc6d7522b499c1bd28790aee75955f22
fc6dd4a18671fb2d8db59b2058f19e6d
fc63e88187af38dff0a6047cedbc4959
fc6948820b3238ae96ab041f93394d72
fc6ab70cc0f07ae9fdbd921249841ac0
fc67c65e1e7e24fe9a7662d643bd4302
fc68c2844dfa214bf4565333f3262fe8
fc6565074a56c3c4189121761f71fd45
fc6ee1e66f1b6f61f0f3089f090b44ed
fc6e4e138d8e51aa5f436d6dc759fa05
fc66590e1fc73b82deb6dbbfbb1e2b6c
fc601e05131748dc408a462d853446f1
fc66894414fee30bbe930b1762bcc28a
fc6843c8b81658a2e7890234ef9681ec
fc6a937f7390db3c78af2a58f1df7ab4
fc67022e270eba522191589ef874fe6d
fc657047ebfe2b9390c062b78e366129
fc69a356dffb30eb09946941eb7d7e9a
fc6873d340adf751c2f7ec07ebcc4d98
fc6d957c8dd8227b5843e656ebfeb6c1
fc603c557f41f3c95cadfd0292d03e60
fc6eb77b4bde0a706850ecc511913826
fc66f5f9abbab2778b0439cedd197235
fc6663060ff4070f33d17241e84f7203
fc69f62f38abc6462c613bbd24dce147
fc653471e36a9448a5756157b8755277
fc6ff9528da6aaff8da69b964e7861bc
fc6dc894330e8673305328ee62767c7d
fc652930410faaa73c5cb879a14a0ff0
fc6721ee192ade4b299a8e77c5310e38
fc6ff0a1528d8a8a795992f417b901e6
fc63b48127415705aa3657e72fcd619c
fc65cedc22031bbfd52d49be1836a5fb
fc6a18cf78131b0d901f39635beaf44c
fc6588f7ead95537e4a7035c1c152f59
fc65df6b55fd9d5063423c83763603cb
fc645a091648fc1a77c8168f1147401b
fc6a82e715004faadb2f9365411a17dd
fc6abef6391f5d2ada21b0e18d58a2e0
fc6f7761b9ef1e0f7972f020ff7697ae
fc628efd091ba26dfa04ff878491ea4f
fc69a202199977875ed9d44a884e6f77
fc650cbb3a906f385cf7bb54f8645e0f
fc60b3a24cb6a050e4ad02f818f76ecc
fc6db1e3780bbb5373327200bec895a9
fc6e40fe9bdcd162c347d2fdb15d94ad
fc6f5098f58714dfeb31fe6d2dedf87c
fc6715431b4c9e1a9acb24a7aac760a4
fc6d1c7e62d3a48b4c09795788acb516
fc602d01d3347f52408c0779674187a4
fc61accbf434e7bc9c9a3bf6f02a82f3
fc6a8eb5c20c1217a273b9fe8d8e774f
