fc79a24ff597ad818af99aa00954d620
fc70c262dca8d2e7bc6e312d7e2966ba
fc776f57f02249ed9cac79569a2006d5
fc74f96b61ec701aa25da62c8248e176
fc7477631aaf9c65b16db608ed53bb81
fc7b03b951d8fa5364ca081ddb609a9d
fc75c7c85706cad91c87a9128be9f96e
fc7a53ebb242bc1bdb9b71c234da2441
fc759bfa42f95241af53ff9a9b09460c
fc79e03b63639f22316cb5b790f13414
fc77b474711cc134d9aba22afd26b773
fc7108637a1796ce1f9bf2ce4ad87ab3
fc7aa25952cd6df429da9a50d946f3ed
fc76fe86c1d50ec912e9fde51635f4a2
fc7dd091e2f15adca14204c7e0ba2c3c
fc7c76a9b1801ca763d29594b76596f0
fc73e035c27e454b969c89f30b336231
fc7f149a233974b57670b0831cc3a68b
fc7edb022fe5db93daf26564766ef10c
fc78a325b41bdc166bfecf75d83e5fd8
fc7df78b89c30145494363d50ecfa769
fc705d6b3c08ef2b9b31515d483ece9d
fc7d6f587b3f5e6363190f0c8bfcc3bb
fc7dfe578668dd94adc1538f3838ef57
fc702e2f769596c8a6cf18341c6d6c03
fc7d72f093870cf2a85b8b1bf6eb3814
fc7e8b55d2dbe545f1e0957b2a2d021f
fc79a8377e7a578cfeae2eb5a99cfd7b
fc7141b7b7859777d69ecc5ae89a787d
fc70194e10f040524f40aa6942e21585
fc7be6437d74fcef9fde7fc59b46941c
fc7537d1f4668d8940dfe246c93c2730
fc7597d801ba5873c6410e519d9a2f65
fc73966e784a66efb68277ca538d1982
fc78c26700755631eb64fb39daf8d37c
fc7d986988b3ca89740724c3cfa151b6
fc783b5a323bc355188a822e527dda49
fc7b470039754de15c8ddbd3fa56663b
fc7be43bd9ed41689e56f152ee946212
fc71633976edc7479a228ff5b3b87452
fc72661f620a05693a02dc27a1a3d4ed
fc7b91139c2f1df69a583e4b23323d0a
fc734271fdecab65811eba96df8c841b
fc7aae7d69f8c5573daf0bc5a75ada07
fc78a6b6db07d037c821dd2d1a329c60
fc7f87d1d12a90a4ef6d2df99c9a1df8
fc7ecbe6c77efd8bd80c0f28093068ea
fc780e7487260e7c7129a81964ce12e2
fc7d7c57a6d322411ed8c4a09cc01c06
fc78427b5c58f3f88583361a66b9a2c5
fc7cdb10b0d42ab97b512ab843d44c1c
fc73066c353fa3154f9778757a6e36dc
fc733a6b8457ecc964a72db723f06826
fc7f679ea79564d2ba65c50fb7828fa6
fc7c26f6a3aec3eed654514ff30ad28f
fc7b92840ef44ad4e39b130a7041ae2e
fc7e175dd38739745f0eb2287dbcb016
fc7b1fc30c89fa26c76db2b6b41e8a05
fc74d33276654d968377ddedfff02b96
fc70963982cb8abc4ce09f450cc2710c
fc715bb0c1c8737884d40c4b2fd2383b
fc715b6fd3bdd6d3d6a9f09a59a43efe
fc7ef728b28354f0eef90e79fff2d78a
fc7c1bb911925d236845adc152870562
fc72bbaadd2657364eb9c01af81bca56
fc765d4fbd7df826be5119ddadbbc5d9
fc775dd90df636cf8ef51091f5c316cd
fc7760ae14965b7c1e889dc409763cb0
fc75da3db22f71680c12ec1f0c4b3210
fc7bd8cbf5a55eae57aa25d21d1e05bd
fc7fee4c0565c22e8487325743d6d5df
fc7c8ba2c126fd98c9b2004481c2c469
fc74ad0624cb76fd3ebff3c5d2d1b553
fc7ca22af098e0fc04c4c3e09d7c347f
fc7dcdba8f724cd8a17f0356ad148a5c
fc78406feaa6d72d4215bf1aa2162214
fc755bbf1a4c87d5c11fd5ff6ea302b8
fc76419b50aa6e05a4fc560df245beb8
fc7c4529eb2f6575e5614e2bcadce657
fc742cbf21d7686541206e1040d48978
fc77230f56e56ca177328c48fc58764c
fc76990648ec218002b831f7b27b7a36
fc7ce80e6d1b4c9229021cb4c41e21a9
fc737bc7321ed640898621911c1962f9
fc7115128225a0956a989d1c44058698
fc78be155c20be773472e3f28fdf5247
fc7c3a5c80d39a82360b0b9a982537a9
fc7982293e83da26abefef7c482ae80c
fc7248eb91e66f9b67a1fc64c3088281
fc73bfdfc073eb5a4a1eb9ebdba8e519
fc7f1496c96fae3760d6744501da1626
fc732418e6cf5fe49ddbd19ef2af992a
fc7e01b338de73f8114b0958e4ae5148
fc71657ef53372fdcef41c6c1acca2df
fc7ddbcc106e2d2ff8b42a0198931890
fc7266181c4ba47edf9f249da917426b
fc735ab88b45dbdd0a05cb8b7cdb86c9
fc7d0c6c0a8edb549c57acb14272b985
fc79727d5826843e71d5666e75ce9b61
fc7ce7064ec4a0492cf73605eeaae76a
fc76534cf7c7dc62a095662428f84cd0
fc7705bde909370a0936e7e98e7ab501
fc7ed7f75643b1d46e74258284bb3475
fc77aa64d77d4ce3cfe5d469877f39c8
fc7fdc11e586daf902ed826d11deab34
fc72529e0d34a5a0f767e5c49e1492ab
fc78f5c5cee419fbc07f56b84113e40c
fc7b59a37eb98fc93406fd817df0d4dc
fc7da25511032397e8d91ec4e8c922a3
fc76ce3f65fb9a99bdedfbd5c9aa565c
fc749530329403d07cb82e8644df8316
fc7b6b78a63f9dcfac9ef5b6d31e8508
fc7dbf165be7e50de1375058ea518f42
fc7f8ed74ad8f3c71c2fcd0006041c09
fc70737cc08fc452a714bccd7a5282e5
fc7736dceede68b6fa8be637501f4a87
fc72b1646e6864c0e518ef5c9c68d247
fc738e3568e44e55d0f096b4bb17c22f
fc70bed0294dcf3f26c0b39dfb85bddb
fc71c2be3453d568d316aed76bc9c5be
fc7d36ffad1fb64d4544a24dfab63327
fc73ecd8e2698bff1cc17aa7709c8687
fc798201bfac31d65053019790e8e166
fc7d2cfa57c7a977c7ff22506de1beaf
fc79e80d12bda4c0c42dc56857bd6725
fc7f48c687a62f3bbdca2b8a4d91f6db
fc766eca45f40d1b2125d140276c2d31
fc7ffc1824c52be9c118315982606c20
fc7b5ec8afb167fb52ad3507717084ae
fc714db78e08a78240847f206f88a94b
fc70d5ef50a430c7c67f8d4454bd6cc9
fc769ea77d5d6623925aae872a5bcb6a
fc7d57eee4ad5d9284dd6c625fe66cc2
fc71e671c28494e84ca2f5329d12a27a
fc730951418917cfaf90f169e1f2b8e0
fc793eb65aa1add2d11c238ba640a025
fc7de12224d22d13c8473707b8236861
fc7f60b68c59795dd1eea21d5698623f
fc7ec5000cf460ef20a758cd017c92af
fc77bdb452a69fe7340d9ba69e662bdb
fc7851e332f5c3bd174645f094631b55
fc7339da5da70ab2d123b4515c78d092
fc74ba0e3ed80bd5cdca864fd9d87a81
fc7f4e4ca2564393ac54adea57740d3a
fc7acc1fdc192fb293b8c4cbd223622c
fc74d2d8eff673648a1be020b2933b18
fc7d969f1975904a3ac4f1d6a544b878
fc7b131940b78e231e93653272ae7bad
fc747b76e72a0f1653d7f4f1aa2f4b30
fc785c1ec237f08b5c374e11f52500cd
fc7deb6d698244863e2d7fe52a3fda54
fc7da132a2a8c3be9cc6b9e8f345ac9e
fc7473da2660745d1ea50c6f263113fc
fc7d0bf07117f2e1e0f34dc8d1a3385e
fc799bf1efdde2413604fd6111ff4202
fc7a84afdd72bc3122452eae96313349
fc74f378229b32009fc1022505276a1a
fc70337143f42bd9d4a2557c9c3d302e
fc7392cbf782a81085bb0d7d512f5f96
fc709b0024ecfa4073e8c0073b2b78de
fc75a9bf559fe5dc12455cc4cba637bb
fc7106483346f8c9bcdf705ef75585d3
fc7cd2273ec416d7bfb14091872df430
fc79dfff554f2ea4754b9026752c873a
fc7fb41e08fddc646866dc6937a307f6
fc7abe75d7e0f92b70c9eba7f5e6a996
fc71dd2e319c03f9102f0960a04cf73f
fc71f39ac7bf1b0054dd22781d1e246e
fc7dba5822a2fffc058f69262784fa7f
fc7abc8b52b6c153845b3e9fd7943018
fc7ff0abc6dd02357b5d5e9a5f200d03
fc7cf1379bb24eb7b82ba1025132ad86
fc7e030635dbd95afcd2bde2a01b7e85
fc7d7d74c5579ab5433c6614459ebc77
fc7c8190acd0e287f4e151b82bf4a2fd
fc7ea6faec7f2be77f3548f34c51dd0c
fc7d2dffe151f914ff70da9112f956e6
fc7f26bd662b7b317b46209f09562d88
fc770ef9b6b2e92d8d35648595acd10b
fc7a0191abf76ec6d12b209c1e183a88
fc7870db109b1b87adb8546ff0736505
fc72294f330ff0a332f2874657e24121
fc7f3879f825540e03c2a3de4ba00685
fc76859224adcb3406c9601c6113d713
fc71ffbbe69e76b23993f0ee0c05f510
fc7e1f77bd03c4a3eb736380d924dddc
fc71294794223e0469323c6210c4c686
fc7d2ab2e9cad7dcd9031ef1af38baba
fc78bfd75d85ba12138c2790291589c8
fc7dded295504f51b9b11382d7102acc
fc75b9ec0d399d7e94acc6a7211998c6
fc7bc2ecf5b04990dbd68479559975e3
fc70a5f1e212d4b3678921207df61e26
fc7a3415fc66f05ac8b3995ab6027e03
fc7cc9ae8f0f3200d80f0d7af9ca3a23
fc76eb0add6ed8a98144709bbce4a3d0
fc71771f0eea9a2182a8552550bc39a6
fc71fbc671adf040abb6882b62754459
fc74bfff036c88009bba0c383d870b67
fc7f2925dd626e37c93cf2458781736b
fc74aab7b5de939cbaba34e87979f627
fc746f50f8e6c4d3272309d92997e881
fc7f59b1d20aa15a080bbf9afea687b7
fc73cca11cf5a4c7afe92657c82e4883
fc7af0bfec2b2ab567bff8b088714f6d
fc72f64bd31fe086614705f27c69b2e9
fc711c8a2da51e7102ff00fd014331e8
fc70c4de932aa1eb03d2202b371c2168
fc7aa9b000e08a2c91f7db9129bc58e6
fc783701da327fb3ec48c8195c05d64e
fc7a6e75034ed8dff4720935765b563a
fc74e4995fbd6cb3db6010cbc90a0bc8
fc77c31185fb268d22ab7a6ee6b914b3
fc78e5ecc0eed663c81730e2b460d10f
fc77c0297fca1ad8050e81a6aa3bc7e3
fc706c44f748ac665156a9af3ab8342a
fc73319129ad272851b653fd19aa031d
fc7737ff9a9374c596b33b4dbb85b5ba
fc78dd79b3450971760e936e8996ea5d
fc7ad05254245c0685c05501f863cc50
fc704132ad760e447ef1ba30a74e8d25
fc7913361451ef68b51ebf23ba713b25
fc71d070e735f9e691ffb2d7f25bbcd7
fc777e0f71ba8d231333345fdf40d46a
fc789ddf48c3dd60d4f693b58d59474e
fc7425de905d125be5f791f54f904c5d
fc7998764636c63a7aabca7e363a339d
fc78d124c45ca3bc626e328aa6a449c6
fc76a0fb212d881e4cf2383bde9ffc6d
fc75bce0bca8ef60e3fc23cb81274268
fc7bb73a0957fee3db2fc62c6b36dece
fc75ac119255a2b547f6b164f900436b
fc786d05603eb5aa4079889d5e19c0d4
fc7c2db131269fe546eba53811cadc91
fc7a9ecbc4ded624ccecde3a2a60e7f0
fc76cf6696d687be9448e16b69d770f9
fc70d32408a6b55d6a11e028e3fcbcf4
fc7601bba2837c69bb5965b3d3362cd9
fc72f6084865227c911bbb00352d284f
fc71a19dc0f7f0987a3ef9677bc5bda4
fc7aed1db515ed72a2ff1274316ac966
fc76238117cfe19eb144485d21ffe11e
fc7d46f7f9ac964504b7dab44caa223e
fc7d58dca9c768b2c8ad97554ee01bd4
fc7bd7538308530f71f7d3cbd74d8b0f
fc778617290c723db7c81586af5b59d9
fc71dd48fb517d658ef0891094d9dd69
fc7d22fcf9de8fcf65f483e67e74db91
fc7392e2f4efb5cbf586bd06cc7ae053
fc7d63194e65168ae5911d87f4c12162
fc7cc47e8dc1e97cfc82ee112a9af627
fc7242d798e177c437ab75cdedbae867
fc7c8da1c87102eca3bb5743c84cf656
fc7ff4f155ca295cb6b74a7829848556
fc7c691f66ac368ca30689be0c8c8cf7
fc770b39c0122ce9c4cc54a2831d4d51
fc7d59b192d11742468ae5651ced85e8
fc7f122093e58dbff80e342d5514cdef
fc753f8cba6fcdac6529e8f93f6df627
fc7a8a6a231f7925ed00035da81c1d84
fc72327d4cb15824ce3fdb719af76a5b
fc700c04b991267fe746be092b02e205
fc770637b0e07ef5009fda69239ae517
fc79a3fa9a7056d0a95bfc5526a353ad
fc7aadc1e9be66805f318e99635311b1
fc7b13641b38324731ed25e8de57434a
fc71ee1e6121d8568ca1dc255e4c18ef
fc7112127a2e8d6f4bc9f750018ad579
fc79b9bddebb6c8b27f8c5e48cf67df9
fc74e86956b39dc6e19d4f801b279f50
fc7f4c36958aa220860313562b4343c1
fc719d156365a18634d5dc1aa3800768
fc72352a0f448543f7bbc92966138bb4
fc7e6697efb68bfde8de660f96fbf4f1
fc79f9f2753801d7557216d357323cf3
fc7f01c4b23209111386cc5256b54e80
fc71e67dccc60f2a112a363de95e942c
fc7350fe9587847bdc7529e49fc51c11
fc784e2a990d2447e9d1feb433f67108
fc76d0413b89bdbab6c582838ee35dba
fc7edbba9b0479bc4933ff76ee155e04
fc77aa4b6cd0b0514910072d1634508c
fc773e0cd65a286856f65732d12ad9f4
fc78a1883b218cc22949040fd2d9f522
fc737cbfb13ea425234cdea27ebf13ba
fc7dc12b9e6fd3f185065a475a3195b5
fc78ea4a8db8f7817f29b1b0c53cc51b
fc7d1670e8af96fd8f6bc12fe6f45117
fc718f3d1b68c72422e4011f7fb785dd
fc74729666d8ff9973c86ebdc68945ae
fc732689b384831dd6893f042ef104d4
fc7acb1cf9214117001a3e40fc254901
fc78c1b68d8a163de8293939cdd5b0e6
fc7045af818db07348ac10d5b9546a16
fc7ef5bb39cb6b7dd519841b8a27a01b
fc7d0f865f064a5ed37761f6a567e7ab
fc75c6e9194e438ab88e55900a6e9be9
fc78b1d8944340e3df8d3412b3618709
fc72bec13208848a010e701866caf8e9
fc7eeef9a17b0df765ff02b76a2cc115
fc75e1163d0aee652a5b26666a8b05f7
fc7ae850556e830a2339beb097154910
fc74a7fe9796c070eadb5fe8b84c9cf3
fc73ed0d62c512eeba5a9b4b66006928
fc79304f6503d7593c4f33f3a1bcfbbd
fc72ffe60bbc0e7b255219990896f144
fc7c847664d0c44860507e94014ec5b8
fc7a69d88ca867ebf9cddd75039051df
fc7d23b6a3e21b969ee0a92d0d1742e1
fc73e220eb6422b5e285431725eb49e5
fc7c8d81fffba9f59ac74b82facbf9ad
fc73495dc0d34cbe71928f98edd5b0d1
fc739c45fe8daa03820efa1c3af93136
fc7f262438ede4776bd4969c725c5435
fc71dccb9c9f4480cc776cca15404d09
fc7459357f661bb4f20ce633f3e6762f
fc7bbbc38a267b983a25b772f4e53a69
fc75028b838c2b045786e744842399ce
fc7be01edb77933e8adebd6db66d4131
fc7eddbf8729b9e85b97fc97b3442aa0
fc7768e5c83d31e183100922b7fbeca4
fc7fbfd8ee6f19fa9a8722001e15e819
fc71c017da2d8ce746ac1942e6f8994f
fc70cdbba0db1560ae7049d178f1fc01
fc787b3117db1e62c9400b75b78bceed
fc758f0083036d346d16781cf041baa3
fc7e1d361ee22a007ad84503ee3dbcda
fc71af60d933fc7f19d3fd77be079511
fc751e7be746e9da599e96d283fb0213
fc7506c5028c8ac3ff58b7b03b5d9375
fc7c5034953e1ddae8f3ed107e0f2b61
fc7252cbde2d3d62e734853bb018ea48
fc7f07f9344a273f06185613581a2e3b
fc7b8cf7ad857adeec1ef81570170184
fc769963aeb40b73f03a5e134a23a44a
fc7187460432ab8824707f80f4f372d1
fc740e53b684bd1e8384e64dc3dbae07
fc7184300f080f94ae3cdcfffe13decd
fc74af7f85e70865a4781709e4bb0338
fc7ebdb0da60aaecce48b01ffdfe641e
fc7a7be7386f4c388a174d83f3c37399
fc7ac50dffbc34b6ae1ac5854d59ada5
fc7282d2e6dc42807a837c62107dcab8
fc75b6f0c4f6d0f5598c1ce07c18c0f2
fc75425bcd3a0f37d1af6a583ffaae7d
fc7cb93d7b81f2a27dc2f72209c5c05c
fc78bc3ffef2111cfc6262a9fd8d8993
fc704bf7de45b17239fbc37ad515433c
fc7b699999b17276b85f8f6705512fe0
fc75e4961c8777449188517a38d15623
fc76d044c233e7785e739629fac7488a
fc71069ab8b9a75ea1717ed9c1fe4e1d
fc7e9b4eb5d7bacfaa926c0eebbe3b08
fc7caedc1ff766e5761b65446613583f
fc772f8317519686634a7c22e1deff0f
fc758982f6877c4f5da1817f2ab93c51
fc7ed0f7927aa47c71ac3d4a6c085fa1
fc7ae9cf0fa5c2362b06f92bd6e251db
fc740fdf004fcab62ee6b3cb0a9191b0
fc7677741c491d820da4fd5f7743c7c2
fc715cc457f412fa8887b523534af4ed
fc7904a5974a50d0ba1daa198f921cf1
fc77530183946ca8e2dbc59e033a961a
fc7e32fde6973da55857f72880bd46ba
fc745d95e4edfd2632184403af1a061f
fc765d47cd48562916857a7c3395ffe3
fc7a0fcb9046b81ed54e93d715684425
fc7f2c9ee1c92b19053856282ff7a2fc
fc7f62accc216a7b2a40542e0ef917ea
fc73620176f8f94748d67ac24413e3c8
fc747aa3b9d0e1c6d5a41ea48664d8f5
fc7faa777800bddc1076c6e5d3060e60
fc7fca8bd428241e0231c0b3e977fc0e
fc7db83946082d1f93a0df49195c88c2
fc7e94c0dc78b69b1811de3d4c6ac5c4
fc743d116f0646ac5d7bc495d81027a7
fc795803c0beedc0ee877ffd914eab99
fc7ce2fbe1ca535be2e87a34b581bcbf
fc7dea42fbfdb9508baf701744e2e6ba
fc75cdc6de3171b478345baa3f02b8d8
fc7d351e0ac3049bb0a200847ff80312
fc72118ed472a5a40675878c24bab245
fc7103cb0f3081c028f033c373b39ae1
fc72e3e11ce04f8bbb424761b19927e6
fc7c205faa4bdee5bcaf14181679a8a0
fc722ca872f1dfc34c60881392f18b1c
fc7c0da66932bca7100ff063351982e3
fc799c0c3f8720cf02012acf684f7df5
fc7960f4072c889ec75d53606dc40296
fc7964a8c2a5436932b8faa4e5e86786
fc7e827e6c5870212ddf0056b89349e1
fc73a079b11cf539082328e420d5b1a6
fc75e967aa73631bc86ac7bdd6d0d812
fc7a80d168b275f13c02ea57de68f725
fc7f69a29d2b733b4f7edc2fb3eab6dd
fc72388f246205cbf1eaa6aaadb44ed4
fc731adf83a2389fc55efa3393564582
fc73a506ffa905cb1128c079f5a2eaa0
fc7c04a6e7904b4624df69f2a438998e
fc7dffe06ea981e5803543bf1e47871a
fc7e45f98f43563b3488b6969100b2c1
fc76a141079f00b35eb6a2ead011b5b9
fc758474f92641222e75d91f92c9c7d1
fc70c5bc3b3bbd197349f94116789ea8
fc763d384e476de73632c1dfad9cc14c
fc7af0d3a17bc97a03f98c9129b9eff0
fc792d6d10104064e1d49b3d9d27292c
fc7fbde10c69cb3b4a5df2dccb92faf2
fc7d88826dc8f618bad890770d0faee2
fc710325b773d911de27415d535f3c06
fc712d66856f0660d0118669110ce00d
fc7a534e50619b3f46656cb715c7707a
fc76c78878da96d9da98c4f8d2744572
fc7e49764d546c1005f87c14478e48d5
fc761543d7c153746807b9fea1fb5548
fc7da3479ad69d1967708cf3f46b8655
fc76ad81fb3b324d0275970fd75bf150
fc7e09998c163087963acb6a1698db38
fc782d4952dc0d68f7d53dd136737d89
fc7989b0124f97f1f8be829b8b399e3c
fc7ba9ffe8d92453605336d8ef619b48
fc7ed23a39609f2c8162de3168c07196
fc713930ffbe0194bcdd3edabc3cf6a2
fc78ff12084516a2afdb1331f5d43756
fc7dfd6a4113c87ee73efaa617a37be6
fc763a55e93726da05bd09c8477cd191
fc70344ffa01c16f6ea0eaf400fbe4b5
fc7774b6204fd61fa67f2411cfe99924
fc7d451040555aca4ba4d884f6970d0f
fc7a29a2e5f5d41b2cbe72b28faea3a5
fc7dfe50fdb2fd58e679e353139cb85d
fc7ec5c991d4499f7fccc229d9dda9ab
fc735cf6548ec6ec4c6f2735e18ed832
fc79d7ce9b2fb321b701d958058f0471
fc7eff0facffa4f685e192061b5bb563
fc7d6264b7280a101b5cb7a2c4450afb
fc73e3fba7287e8604a86d5ddbb9dbae
fc72ddb65a8cffdcc3a0bf281afcc59c
fc74ed6765ad33c9515c519762c6dd6e
fc71b6a890e2d7bf1306333ad356f55f
fc7ca22653534a08bd6c95b34b75e264
fc7f4d3ab5d85ba48ac5fe1bf32cf34a
fc7e044efb18460641d4b1300ff00dfa
fc7021d27a8d16d92eed58185f8e2d79
fc7cb2960ef57c458fa7086c42061ed0
fc732390c732905b8f8974f9e19c014e
fc7f2ad4c7ab65a6ac4ddf313a6f5d41
fc79b0df054a185a55c697e5d052247a
fc71ba5d89b3054af434ac8638b4fb40
fc77878125cd75ad1232533b537161c7
fc7e6b399200cf70ed99050578177928
fc797c4b4d8632cb11c1cdbeca2aa7e4
fc71865f88868b87884ea92582b0c611
fc7c5e71869c79d35410cc6348201125
fc7e90ad07e9744870ec9cebd3043786
fc74c8ad4c0b7a4d907eef4921f8952e
fc7b2f8907915cae594bc1bb30ca36b7
fc7e3b30d0f2cd747faf78715215697b
fc7e156c49cd8dec59fab2a9bd4d7a8a
fc7f33933a00b0f2b755a5273c57a6ad
fc716e6c7d2de10fe450d79415f35f0b
fc7a405429a5ced49e751e6c2706d863
fc784858bf2014165b3308170c0eb89e
fc7dc1c1e483a8d09f0bd36be4732035
fc759d29669481f6de3a19d8d3804531
fc77c3f267806ac4283819a04b56a880
fc75f0441f49ca599e7e0f9b137aa173
fc7a4831ddb9c3a819262767e44f871b
fc7ce262e005c816a7752bf59c8af5b1
fc753c529876a52785f3e949d078f1f7
fc7b0c47e2fca453e84cee1129024bb0
fc7da0ba8bd0cafdb436a72fa523b09f
fc77b5f5480c6cbcef78cd29b8751314
fc7e1ccc917300084c9749555b5da8be
fc745e975292b8827fa92564786db5d9
fc7803deac727e5a3f785de21a82d3df
fc7e4ba6421591cf8994fd3ae9a24c5d
fc7b378a188794a2f008acedd156fe4a
fc73916ef42996f28d3efeaf16741a03
fc79250b1ce7bd87491789a675e24510
fc716595a81490670df5aa0731a9dc19
fc7a8bb01e59827d51f9b7be900193f4
fc7900970fbebc75cce349b283ed6fd2
fc7c1ef0221620ec4ee6d9f158c2f698
fc73b33f4a72556905c292c44729291e
fc741da94ab5f12308da87352c38bcbf
fc7d6e68086c8fb19732f80e45ce2f03
fc7c3c5887132132923672398fd47097
fc78ee13cf866105b09d08cc6958a8cd
fc7cd472f53e549eb447957ae4079989
fc70780bff2616832738fa39b978072e
fc73317f20e09f70d77e05464f660891
fc759dcf7bd3bc1365804c28ac40e80b
fc76f4d8208b3ab826f9f35af23f5c42
fc72f839963e6bfae36d621afefe952b
fc7cde712ab334564bb90219f2985f69
fc72f803f740bd1da9644440904170bc
fc7037befc3607e81ee6ba96689656d8
fc7825de7bddc34d8e58f6a01f45c3a7
fc76c1af6d11a33381726ef6b8416747
fc734dd81b4bb1043ec648ef38ea4b21
fc73efd4a6527680a246a0a95f9287b8
fc71ad5b15e5d1b58b2cbe5c89dd4ab2
fc70fa1e313a2cc3fcbbcb65a5adab87
fc7b440466125f78061e344e6ed7fdc0
fc763bf5db8b8ad6539ea3a7ed081af7
fc754e3a4065126bbbccddc7d8248921
fc72ca245f0e54b20f29e170f2cd6baa
fc79a055c4510d7657b808751700fac9
fc7ab053396541defd65a2e6a1605e74
fc74befec9551c107856d68a17f6e08d
fc78ba3e25d541d8517be25df2c0e764
fc7f798cd5e7c9293ae1a983b429420b
fc7d26d1c9a7680488afe8dd36d26227
fc79bd66e8e20b53a80dae8612b377a9
fc787077f51851f4bef54bb727dc13c3
fc79767b39ed3ae14d3c2f49999cbd81
fc7ea006af263539eb2a104c269927d1
fc7955d496a3626d79d0127dc1b30275
fc71a2755e6680fa7fd843bb37398abf
fc76b84e832b220477cd324f9692b838
fc723333629a16f7acdd22e02ce11734
fc78e4036b7d8acc9eeaa79bbdb9a35c
fc75032d3bb5f95fad40b4eae8a8905f
fc74c2c47f048e27a18c6e4a3a99bf4b
fc7d08562729421236e6b7cd255de5cf
fc711c4b1b857239863364d5e2a9db5d
fc7064f1c7157296e73495028cf78cb2
fc7ee57b2899f79e9e85c695cc35e7f5
fc7041757f906d9603007e3a0543e7e5
fc7f3949b892cbbc73c669d907384686
fc722ef535aa664a14b6b28fc3d9b7ed
fc7a93495fd1a04693c815010e57cc0c
fc749d13986b7fecedc9cb50ff039b9f
fc701da3ebb097c69cd10199a9c2fef6
fc7880e75bad5397321f4e16c0739de0
fc76cd9efb9fa36b3530997f0a1e0e9a
fc7d1b1dba275e7fd7fffc23f2cd0ad0
fc76ceeb327c44df541dfbbfcde20592
fc74406038f50c177f7aae4777f78c1e
fc76e9bed157689f8cf06b16e49f04d9
fc798716a1cb752bcbc7c52f776058b1
fc7247cebc969041fd68ae22be471841
fc7f7a7a6432aefe4f7720f7a8b6e455
fc7aca07d3906d4cd42119f52d57a15b
fc7a6f9aefaa178cd4b7c9f03db6553c
fc7001f2931f629e544985524c3ccebc
fc78c511703ea7cb1e70c0a8b9ffee4c
fc7aa24ccaff2d832b7cdb87fd2d839d
fc751626a94e882941ced849b8c4e6ae
fc746cc296a63498fa5274d79bbbea08
fc7284a8a18ca750eddde84ef8818805
fc788708e76fe948af8061954930fa6f
fc7baba4a27e31a35e770a3cb11d63f6
fc7a67fcd56dc945348143a89bd58956
fc700c07b561bf21f2e99c74e39e6dcc
fc7c29023b53a2f8cb1c7be00eaf0eb9
fc758ab483c03051d4e5a32dbac2a23b
fc7b81d5a4f3ce3cb402397845dd7f10
fc7d638afba5dc8ad588dd61c847608c
fc7dda69362d6d48e630ae807053a6f8
fc79c58ca92a7649684d2c949df27339
fc73b63e4b2386e682b7145ec013891b
fc72f5ea2513dfb1ba4e431e7ab28141
fc75cff7cbf9560dc6edf9f09b35c4ff
fc779b8cada59414553791f8c553952b
fc7b20e0e8fc2c9b6a392e126bdafc90
fc75a711375b194019d78cc88ceb1ce3
fc78abe11c17b4b6a593a04272b6b80e
fc763fc46fdeb722fa5b17a411bbc6ef
fc737ed2d80f3ab5d8201b096c864c12
fc70f1cf6ec5d7d5a16f0da4ab8de3a0
fc70a415c261a25fe35edc14c972e056
fc7045e9afa9aa4cf5dbcd99d633566d
fc7cde0a202ce75b02f7101566447a27
fc79e6522b0558a9d35c7ec3c3cf8db2
fc727284acf74ba631d7f701d4e22811
fc7edb69d3d9273eda092bb181a93364
fc7abd731909d2f72f3da526720c8288
fc754eeadac2f0999ce1ca66c62ed57c
fc784a83a1f7e58444830ffe13e00101
fc73551f45c75a0bcec4430f6b9e54ba
fc7024f08972702f7e176f6aec2af776
fc75de51a2721762cc17c7c6b69cbde1
fc735ac7c5140994cb066860fbc9a0d4
fc7cbffb3bbfbc08b1c65d0954cc5432
fc751d2bbe348b4a623dcd407888b9ca
fc75fd83a6847401da6d37cbeeeac7b4
fc7755a9be39a0fc315a39815a1ec6d9
fc7fadd99ee0631cbeb057960effd506
fc73c20b84a7dc18966944170f443e0e
fc7e5cba74ce16f84e4a19627d6a718d
fc79e06a12c6511a41b42e65c5f83db0
fc75c66b69d5dfda36fb3567cc7f14f1
fc74841d1ecfce7d6fcbe9b21bfd595b
fc7a18f49eefcd367c8bc254fa7d5936
fc73e44ba577a6f4d2e78ff96cf85a28
fc74602a10f6a5b57ba33f35bbe7df42
fc7b5930615e52cca9b49c00126ff524
fc717e51571d24be4eb25ea0fd05486d
fc7665e8d8be3bbb0d91910079ce8339
fc75bea1277bc6094d368300e17a680d
fc7bee60a537e0a76cdf4e0f519ca184
fc7f3740a9c60f51a5587cff804ffa08
fc74f9f930c92c3496750220c4ac0347
fc78e658edb4319f6d721a3238b0a0cf
fc7bc0c1f79cec6b3243407b4f086307
fc7ff3237154673808298b2906927b10
fc70a6bba29c0eec9f5bee56df5cb7f5
fc77cd9a8bccccffe79e0ded759c28e2
fc7ec3da193eb676a5f07c9c22b2aed7
fc75e1b2211636ede2a540762de88b5f
fc777696cdd9347838f6ca3eda230a8c
fc725e6bf7049fdc7a9abfdb4256b9b3
fc75c52067bb5d5132f9fb4eed529386
fc7c6ce841e8aa86af8cb7f4720ff1a3
fc7610c481944acf4cb979204194d469
fc7d57aaeba6e034f0135bd15e73d9ef
fc7427fd5e4d19b9c6ba0d33862dc078
fc78c112893eb2a28710b11b306bb414
fc7ae6bb3fc611713dbddf89e7b87e43
fc7364098938a755116c4200bc67248c
fc79910c0a98c7846f6b05dc3dd01db4
fc7003cd798e2e1cb729b8c80ad1e33f
fc71fa4aa62c382b779393f8a06e37f2
fc7fb142d4f7226a45fb79505f852190
fc71a1a67ec9cc0e8b5d2c6408666c53
fc7b546bbe170542e76e5dd43a117589
fc7c515a4dc52f72fa31860d47f03fc0
fc7977031a12f155660408731dfa8334
fc7c4a08003c016447b0b2e43267a780
fc7b6b3abcf0e8a179d67f6dc1436df5
fc74c9b8c6ae6eff2652b3444a09147d
fc7dd5f7e54d14383f09b94906fdb898
fc75a4d0807850536c9b659f440b4e51
fc792c81c71654382bab27767cbcdaf2
fc7ca30de36dc2275ac2396333d36d39
fc73018736aa4f02597ccae5042b2f35
fc7e5c57d237b0492ff7dc0281367854
fc7342f0c8fd8d3c6e5759295ae74f6e
fc7e65ad7752573298adab43b4705451
fc776b32546c1c35d0bd1b3c8d6f90bf
fc78326dc71a3f9045401973de66fb5a
fc7a6ef5cd37a8b86c50bf99400d5b40
fc725f4fa9a231c5fda5787b16236b66
fc71ee783ce75b16118f599e1a7e7246
fc7343b940c25d0d8701a474f4ddacbc
fc7ef8b5182249d96302a27fc118edca
fc7ef0f577738580c36328459237bda6
fc7ab66095c3e6c5496ef34c5374374b
fc7bc3bff2d71d508a3d1e7442c3e6a6
fc70f2b591cbba3ea3fa177d2e877d42
fc7764b3ea43829b3edf04d4e1722a83
fc788f5cf4363e985a6c0ef17e3b14a4
fc773216d2bf73775ce51393f92f468f
fc744f87629b98975aa87094b6aa8657
fc7c08089f4332bf0452b4609489786c
fc7f606c54d6b04d1e5d72978545da7b
fc7d1037b3bd835be40095806b85f4e1
fc783fdddc013c4c41ab7d3afb05afc8
fc765b6d8700b04baefb706330263218
fc76cf650bb956b0d9e51dfbbcb973a5
fc7689a8d94d0245ac77b1eb6a5bb469
fc7b07e4f29b1dc0eef46350247fea91
fc778bba5e2dad68176cee15e5f8958c
fc7e8730398a403d4b6dbce460d2179a
fc75133d6465a52f6a668cb560920080
fc7e604baa9f2a085681c30aa3d6adfd
fc76de6bdd1998937d6f49132bb4dcc1
fc7211b8381024fca0d6cabc2c120b1d
fc7b4e5b238b82d2b4a23577ff871818
fc7d8f2621c5edee06435795d1fe8121
fc7fe5250394230720e166bf6144ad19
fc7ded1b2130d172565d8faa0e6acf48
fc71608e4bc71783e027d27e978118fa
fc7bbdd45812632fa0eb7e3b1b16473b
fc7815fd5a6573604e055803d99a06d0
fc72692b4c9b2b61d19df17c6af26165
fc72776ab63cb797c3e9ccedaacc9c4b
fc7cab38dd20bb3569d1fe28093f8c69
fc704fa1af261206278999051c3ce6e7
fc7fb8636102c37b7885b534681004b1
fc7504f2c7fb35497fc362a8d56e3a2a
fc7ee513ba0ec9c6e1ade0cea1b4bc46
fc7fef60ed615eafb8fe2d0f12466693
fc7e9b6eb7b3cb84cf6e16f7156f9bc1
fc7b0485167e6a6d843fb72d3572c646
fc7c7947030ce1064294192b94d0ecd0
fc733b12e496f033accee201e11d0ffe
fc7f4a7aa55f61934ebb00238831c85e
fc73b5f0e2ac9aeebfbd9a583d85393e
fc7a84f381566e22d138674ddf15d8ee
fc7894bcc9848f5160279d9a3252c136
fc7ae9d4f757e985fc8800eb9739ea75
fc7db39ebd03c2a87962588a45011b03
fc7877adcaac262b19b14cea5acb7e73
fc7add780527d0bd5fb20dd1603005bd
fc774511759aac49de210aa42b359a2c
fc75d023d113ccca6983842873f7b5b2
fc7c2b1ebd762dce6a4a41740d741a0d
fc7b4a4457cfbfe0712228449bc09820
fc7c39ec88bdb94b0ca360915acad1f3
fc7b3b5b8cf00e0cc7ef1db26b55a909
fc755a9065fb593b22ebdd8fb8e8bca8
fc7b6e6b73d33f467f2c295b1b2fb7f0
fc7526c2c9fcf398f0d4ba7ec375954a
fc730c6edb7cd0898f98b728d5d8e29a
fc79bf67b66c452f7400cda937a99152
fc7fab3434e54e13e51ada805f02e0da
fc7c0fc21b3e72c98698329a10e0a4bd
fc734cafcf09434fc45af7f9ce36fb8f
fc7ebc3b0d73ae57a82fce5777ac3f7a
fc71872576926ef6c1f3396a708804ad
fc793b8ddbfa45779b8e1337f8c9cb22
fc7d328e633851538554c211dbac5000
fc7a11698499ff3958dcf2f1344596f5
fc70059aab177baa1d7f339e5c94d25f
fc7f3be1759dc03296ca9009332c1c86
fc7dfd3aabf0f4cc259360e0ae1120fc
fc7824caf3f4d8696dbc7185e0cb0603
fc79e3f37bcf2eab91a4eb473c080021
fc741bf5ee3e09c026122319ce66c050
fc7508c6c2bf649673a18fbcb0f1a852
fc7e55fd36be9ea6963590df4e1f6c59
fc7ed26872d6193eb60ec83322c8c4f1
fc78272065051bf9d04b85493875577a
fc73fafa2bc3da18890aec136d753e94
fc76cae19d60f94ecac6a614ccca925f
fc7a7e86f82b8b571b612a5bde190624
fc77d6f42d87b6d48f9929f1bceaba23
fc7edcdfeb0c471cc1684ff56ba4781d
fc7688ab8a3f7089ac52d027d59bcfbf
fc7a9562764dd234d4b82e6b65853d66
fc70994f9247aa6a9a252f72e666804f
fc704aa01220eb4371a797099240fa66
fc7a14b72f38991f85c68bf0b380eb18
fc715b05bd35a000a5033ec5f73bd8c7
fc70ddace849900a480f31a962982f5d
fc782ef230498d1024cf5350924ee398
fc710532f71663d1ffe02dd9b4821398
fc7785766de3af58d16dfd35e53a86b8
fc70486ea20fbb4b7b5f77a4ce68ba72
fc7b77213f71fcae126eb7eb24d788bb
fc7aed2dec65df07fd42bb5008104ca9
fc749d67093b27048a286f745a71aa1b
fc7aa97c433fd286fe5396f5ef5c6b37
fc72ba955e98177e54cb0c69ff0774cb
fc71c5915e417063ebaec57ec6925ea7
fc7485237590d89ae497287e7b2f54e8
fc7ec6c12d76d8f9f58a6c208954d938
fc7b619832b48c867e79419e9234e827
fc7e30687f390fc27062f5b2f1470caf
fc7b325259e61747ed6bc78bb9630119
fc7548ece59f603e186da78bf89998fb
fc7888a05610361cb6cac2e4f91cc00a
fc79bcf1e944d08b4d37059cf1a0c286
fc73d668286884a482715bccd167f530
fc7082178d97d58b85ffe4c858c942f9
fc707030a32b19c8e5ac5bbd156b7475
fc73397cdc4dae715ed3acced6eb0a4b
fc75efefb4de45789fe08b30bb57fb6a
fc77bfb5418fc577a5d693908115fa68
fc772c990977466fcfba320b153aa508
fc7acb7ae0d18173fd73ce2cf2d130d6
fc7aacaaef8f06ecb851db6e3e943e5e
fc72f2784b114af37fc830fab53c9355
fc76a7d5df0bbacba5e47e85bdc0f3ce
fc73d25ed0bb555568e0b685f5f74f17
fc7649159d5111be8ba35b5a8f6b2d0d
fc7e77c549a31fb98eae75bb1b981437
fc7b49a417dd8746b77deac231e7cfdb
fc7646bd71cbd987e141dbf531eea761
fc7e071e859ae80eee9138035b0349f1
fc7caf58bcbc26ef43bd49287ec4c507
fc75c8cef22799a3b085bbe27d07dbce
fc7ca4da8a253b5998047babbb6384f8
fc776a5f11a4c78f4f221d0f40f64a02
fc7e78051705f994d065eead3bb2c808
fc74f9f1fd62105e995c3b4f215abc7c
fc7a2efc0e906de9c4f8223fdd19ec97
fc7ed358c7e693d25c315d365a50a7f4
fc70ad8cf57272a3dd491ca46cf75c33
fc7da2f9e8c626c6ea5a4001e1a505e8
fc7c8027dc562c975847a5bb6086613c
fc75088af6e08a92e75a4bcec2e6e4f8
fc7f34543d0ae12e84d3256764e154a9
fc7866688a45f56946e469ea0502dadc
fc7d9f553cf26d886d1763407c65112f
fc7e70200deaf879337b1472a262c9ff
fc71664373b66d3a6d65559c102fe1c8
fc79f280de746e2b48b776b9a5508ccc
fc7ad7b4428abd6600b35c576f707145
fc7c8c5c334b1124c05336db4473cdbb
fc77a36236cb13842911e350ba3820ab
fc7a2e36a5cce6bf989592b8a45b8bc5
fc7c3959f5fc5bdc2877cfbf873afcb3
fc7de47968cc67345324458395b5134c
fc75d236615b881e2bb5bc93da2aafb0
fc76167713bd00dd461e323d8484e2d2
fc7943077e2ecb124ea0069b75f25b61
fc78c61295170d8267c3383739891db2
fc7a27fec9fb375177a65bbb1027694c
fc71baaa160d323a26bc8c346a376698
fc726ef38a16551408bc3e499922ca4f
fc70e1ff2e85e83f337593f4b1f429fb
fc7a8452a929f58fe7613430d8212019
fc7d533945eebd8026b893b4e247f170
fc76cf76b78a8f676308390f7ef8fc1c
fc7540fad31463c775f021792bbc85ba
fc768febf5682b3f01d23ba33506f2a1
fc76114225a028be2ca8a7ce3e4eec92
fc7f67684d2d0c873f30323da72acb60
fc735be5a41d23a0ac17dbbeca8df425
fc71b9cdfa15084d20b91493dfb91b48
fc7510ed87372c58e0122f30549a8949
fc7c3c13e1e4050751e56414c846237e
fc773887d7e1f592171067797f119046
fc7f11279c128ffe638c71eb85c9b572
fc754499ff0d71022428970e0e004731
fc7e74fcaa5386b593862f0a95b826cb
fc7010a561c8c33284b6e99ed1d1b9cb
fc7a8bd86ec970b114e0fb432c3cf9f8
fc750c181e38b28e4d307a15618aebe7
fc7e3ee4acd02b5f4aec583568be5350
fc72d8705214e81c287829eb8556c82a
fc78d5f987499276135153baceeb3523
fc7ce254afb339929c6cc807e0f4abd9
fc7a4c6ad98d6d2bae628605039c5155
fc7c2735d51916842917d15d8ccf0de9
fc77cfdf6f5704fbb5668582190cb308
fc75d7bf3bdbd0f020b18a4aaac96ffc
fc7bef2499ed83c0f9a79dac9d6bd580
fc78f96706bbc03c672ca60882da6336
fc7801d021ed478b0825c508d8250cf6
fc70c2918d78571d2fe1f18448a9bf20
fc7cae4ae39a5c214b50758d14b16b71
fc76ad6b63c795bbdef804369933eaa5
fc70e6128c163cab616798516c0940e9
fc75e80d358ff8767ea0483ddd0fc4c2
fc7d44797cd8a2d3318ebd7d1ab664d9
fc7fec22abf8a5ccce4e70958800e46c
fc7cd30626facca007061ef97a81a408
fc768bac120b403c389507a850ceb62a
fc718d213e76e6a578dd57680d305047
fc74ded718636b88d5e2a9fb661d97cb
fc712c218ad5376ba090958943789754
fc7d62f5b7f4f6bf1607811564988ecd
fc731fac13309610b300b0c0c7c4b795
fc7ca0b3c1d9585551d92e1b7f1ccbd4
fc77ea72bdaa002fea4631af3557b478
fc72f71b363e1027b1e1ae17b474d327
fc774901755efad86e5cf144ee3643c9
fc793b4121d2fdf720a00933649c2e60
fc77436e1a4d05f848c04c8ba3227a38
fc7c62f00e134d3201d7cd677fd87d5b
fc7d42892a579fa4f585f13cb4fb2b5a
fc7b07094645228b816452172ca331e9
fc72ecfa65a9686af8aa5471acf9d644
fc702075f5a9720662997ee0880da847
fc77ab98c57e1fd04450df89ca2ef2c8
fc7d7b3f7e637bac3ee8955cb932a61d
fc79aa2f07ce7af3c628f17e66768031
fc7f8684eb2df8a041ed720cbcf56d21
fc753e0670318a92f7764ae84adb35e9
fc7852911b13da004a3a04b1482b0b9c
fc708bf214edc1f07b0eefe3b19c471a
fc71c21fa30a6fddeb539d80c03ccf67
fc7c285fa09301ec68ea18ef38dd5e54
fc7aae761d3dd7c09e9c2f74b1a3b7ab
fc7e69bcae846e342b1ae6509c53d339
fc7a98fc7d59ebec491e0a0f86f92b47
fc75a8463f70851eb87f24c1acf69641
fc735c61e0f489ed1de4614f4aa715b5
fc7fdd9215c138c493361d465cd88d5d
fc7b4680b6dee3e1fc696fdad8c5060a
fc758a5d2462dbff7ca6123a82255794
fc78cd11c443496714c927f570e171a1
fc7493218f73d4e1d75e47d7d3181071
fc7bc553487aa2638c272844d9a9d9dd
fc7a6ed367b7052a6bd4b57755728bd8
fc74171eff19e17cac5163a617c85edf
fc79a5e361d0eccf3d755c8a86a03f22
fc77e3d89650eaf97bdeac1793a5e2dd
fc7252fc3028a9e37bf07d3bb85a4b3d
fc78bbe4e635cfaee16f052a11ce28d6
fc7ac78ee7628b6a3269a392b1898d27
fc7ad21796419f123b43ffefd4c5b011
fc7df8389ac8f36b9f40f21307a33c68
fc7d8f5b33048db7b8d2cdc1f0d79b4c
fc7778d2d8dcedb484600058ddff7833
fc795fbb1bb1c5ff405d3f25ae34879d
fc7ac5990e78d111724d2d40c83d0ee6
fc7efcecf40dd0c5c9100802991ad694
fc741aecf99de9ae8b5747d790e1a2d8
fc7ecb3c8710ef2670da77f23ca8b979
fc74e71fcceb7aefce27293136990c9a
fc7c587da7675d24c475f88ff3b6802d
fc7af60ef0e6de7910452e072d7800f0
fc7ebf2357d78ac06213727f8911607c
fc7bf079c7b630bee7edb86081b258ee
fc7d5445b3046810e0a2ad266888b6d7
fc7e7f975deff420efc434bcce7ca8b6
fc729aaa8105a256c39c5739b2bb1220
fc7c7d67da16bdff2e3efeb62dce8f93
fc7bd401ac62cc81f800e2332a0ac9c1
fc77287b7a0a1a5718585a3f6ae2cf6b
fc7691ba717fc79a472187d46b81ed6e
fc74970eb2f18dff79aa7a99edb83ccb
fc75f3af33d97faa42ba6b44ecf76b21
fc74d5f5504ac5bc9b77ed2c004725d2
fc77f7a4d34cee14ba1d83476d2d7a3d
fc777f49d644aadf44f77bfbe82391e6
fc799fb1c1ee3c2b983b7ab3acabe7a5
fc73ed7970c75e3c282b06c6f875c461
fc77b57ca7fcccbaff26fff2ba46e786
fc77356b203783a3d1803c049ecfd782
fc7881a3857faaf81d07594deb7954d5
fc74e2b21c16f72adc244bba9fecbebb
fc736d4ab1719e4171cbf30ebbf218da
fc71dc2928fc0ebe78c4dc050adcf09f
fc7d379c9956c6faf5553b725e64179a
fc76e5a0f632c24ed1d917b9c58dcbd5
fc7ee6a4f046543414c29250351e1bf6
fc7250f9818a2c12ce98bd76d0626020
fc7cbbd3a04fef94ce473ce99d07dd27
fc7c6227a0039d7bca0bb03a09d08ffe
fc75866dc60f1f270cdf7f0135fc4ef5
fc7e5099af299223e80078c34332f518
fc78b9e2c2d194e5ac4ddcf673eeea5f
fc7f85ab88a114f5d90541481e4fdad1
fc75d51f053b52cc3b174f1c583e2623
fc7e3b3a3cf31c9ca6e3c09ad5dd4665
fc7c4c5f29e9ef20415cb1f53fa77876
fc73d7bcfd8e2bb6bcb319aa27883d00
fc71cbd53d22749a6af05d6df3947c9f
fc79bffa2771248e6e9f752802e81c2f
fc78016980e9805e65023de3189881f8
fc7391a913463ee11132a6172b4e9595
fc769aba1bee5056e9e1515f3f2c5423
fc7ff3ad6a769ab06e473d4e08b0cc3f
fc7dba016894556bfbf59fdd89109136
fc7c28caf7ec2e4bd689568cccb64735
fc740bf8102fb22899ed938823300cee
fc78a9b4918db3fe1f86c7c29cd2ba39
fc72a0227f5bd6fb3b8a00722bfa9e85
fc757a9b5bd94710d7a6593d8e8bad47
fc72b49b03f631a41d5d0965630a7089
fc78eb078c9cb0ba6af28d607a1ce5d0
fc7e9936b284b1a092ed9803cb622a13
fc7ee7ef4c09d88afc3e7b5e2dff9bfc
fc76754a545a33f25061741a0046a222
fc750fcee47471657c39384db06d1c66
fc7944a2d5cf6867fb9c6de6ec3378b8
fc7614e426faec7bee6003e43abd5335
fc796e78cbb1ca3c40088bc31fd11c31
fc7f49e7f11f20d9b27c2d3c2fb2f118
fc7eb7d03a984b9d0bedea884e6e4c5f
fc7e27c6e3fe75eea24d433f5f887a6f
fc7d4dbef86982947c9c14a92a0a19c4
fc76291ebda3cf2f4ae812665d280156
fc78eb94a04d98795584ff5c8e7e56f0
fc75ec3964fc51c462f7b8f5bdc396a1
fc7d5147dc44e5e32fd25f415311cc27
fc735ff03809f3d6681102e5af1b1be3
fc7e4c2b6fce54253c7d84189989f7a1
fc7f59ee5021f661dd903cde186fad21
fc7e8d5610e9cc22fd7f267cd5fa7b43
fc76a3ef4ee80ef58f61ef95240774d9
fc7c93870dd66a2dee4fcb842100597c
fc7c6e4ae19a250768663351fe35bf91
fc75f2f013858485a0277872e98354d4
fc732956c7f234da185bb63d17d29608
fc746cb019cbbc83a925c3659a23d02b
fc7a7f5487b908da2d680edb02118bdd
fc7debb627e71901567a19a1a894a734
fc76cda5ba1be0b8ec7e39ecb9e60828
fc7c6dee570fb1668260e16d09e732a2
fc7e819d51f7a68e861ce0ad0f187f38
fc7a22244711ccd5041029f513ba9ede
fc74e269d704633d5f604a070e90dc75
fc799aef32e0633b4545fcd464c3a96f
fc7d9be58e85599b8f1578c7d3f3de7c
fc711947d7e89bc9d1e14f43a3953ccf
fc7a1a77361495315b0fd92bbf1dd9da
fc7d47a7687a3c3f112469cd6aa38ed6
fc720f1eb7b8dc4460a3aa2002e4976d
fc70200598a4dcf842fbfc91fb3e51a5
fc7a5652d791c98e1126fabc919cb5eb
fc7f3820d2902e5fcd085d43afe5696a
fc7c7fc19483d009cfb22c912e3722f7
fc7e3414a34ea5feaf896484869d3d20
fc7da3cf5d8fa2c15ea0baf1f821c0c3
fc775ffa2e8bf5175210937ea6dcca1c
fc7911683c2a5be2edb7f451f71466de
fc779cf97b1efb6f4e0c27a739d4e509
fc7054a5eb3a45fee4e908f0f680a6b2
fc703ae8c2ff7d6a16b319d88f61ba04
fc72a9f5edc0ceb3fb90fadcebaf1f9d
fc76b344bf9422be968b9d85aac9b2f7
fc793464f0859b9dd3ffeccb23e06558
fc7f99ee6b38829cb9f2afb6d0885fa5
fc77923c3680982a57bee62f0ec59b31
fc7685f43346170549e2e464a87f1198
fc71921a30a8baf6ddb5b47b8392a2ab
fc707ebe2250442ec54737374d43c1d5
fc79ae386d01a53d9a20371f8bb40577
fc7333f8bb144dee9a44cc7bcbc2d3ec
fc7bc31381f34e28f6080179a5acdc7e
fc7f317cfab0d6615dbd994d544fdc57
fc70d2c853f77d6fdd6c931704041aec
fc7173f083312d3665bc8781da122084
fc7286db4391ec705bf8193f37dd8c99
fc7f589d4411447a42b45118c9bbe00d
fc78c3c235de778fd56a8dc56f5d57db
fc7828074d831135e65f0932d9af1f26
fc746ffbde9c861035babe7b18804ede
fc75943f97483261cb154a004610cfc0
fc77cd92d5ecc4049e56bf7b120674e8
fc7b1dd9f96d94f07760cd13b1453a8d
fc77110e4ef90290682d7b708662cf72
fc70a98d59c92195c4b12e1bf9d8861a
fc757751ca300217999de8100ef16981
fc7f944f6afe455dc912401e7aee7c48
fc745f1b87180f69eae73fc73a3c98d4
fc73641e700c122c64d2e83cae9ed095
fc7751a39d513d7534aaae95d1c7e278
fc7cb56ac0877d57d0f981a17be3ce45
fc77c76d4bbcda58e18c86648661d49c
fc7d82b538088d23568672859b5edf13
fc7e37bfe8063187abc1cf8931f4eede
fc7deaf10a5b51ab52732fa53a06d550
fc7731403fd1d3d3f408db299f8f42c2
fc73b18639293e61ef007d950ecba322
fc7fa0218713091184250b99f2b7739f
fc7b2ed1407482ef07ef67860712eb63
fc79eb378ba07b6a4b65805cf41fb6b9
fc7d611b20bec0ea3002fcdaca54aadd
fc707d367ee177128613e5785a59e0a7
fc7349c5a4c38f51623626a41a7d948c
fc7c06dafd1193fb3081618d5a40c4d6
fc79c4b7f43303e30955a7be936728a8
fc7936308e2bf0d9115585fa52bc70d9
fc7218061a3cb6f03666fec3985fe806
fc758fae801b1bfd755b87d10b600b62
fc7cfa55aa691317d596479353d9af8d
fc7c05c08356c5367e1409a48a5e3787
fc7432f5158bff7e91aa2f46576f86bf
fc7fd3fbff1b8ce4d8f25f0ef5794db5
fc777ef02349eb6ceaf931637b1af332
fc74a296d7b40487bcff97e3aa7ec0ba
fc7ca30e90c4954226d2d6aeb071ea73
fc70bd1933d7572041c339d2710f883e
fc720fff2be050ad1d176a4ed2b493ec
fc7e9b8e744160ef533233bb9fc44181
fc76e4bdd5a4106071b73e30e36a39dc
fc7aa8f0c77da4336fae9960aa8aaad7
fc74a0d6bc55aadc5f4450658e1475cb
fc7146d3bb0da77187d6f61c4afbd4eb
fc7edd9bbc7575d70fb82c3049747d00
fc70bfc3fed0101f3181c839fe649551
fc7e32481fbd49a7e18cccc61516aace
fc72787769e151c2b05834aa41500d4c
fc7cca81677cf39ec4602250771bc4d9
fc750021c294bf543f54f9f38a98648b
fc76e5be350e83ac5374137a182e7be3
fc7f4664d7baf46dd1a268cdd8630a1d
fc7f9735f36b7d8e1622f148d47eb34a
fc760d47dcde362c7a8dc161f9d1b316
fc766f9cb36a4b65a3fb697d6ab2b2be
fc70ce7bbf532323e3d0744476958278
fc7fccfabfee6b24b02ec9b4e4b53f0f
fc72916caf1ed9715a6e13246dd671d7
fc71f297abbc6f4177a918d99a8ae66c
fc784543e62d6bbcc7b860e1c6a54a81
fc745fc1de24643661e3c39db3090485
fc721b569ef60afb5fce5ac1b31797a3
fc764d18592e0c356436e9b6b981ab0b
fc748a93c165c34681093e6a685743eb
fc7abe74fe8a44809ba8712eb0cdcb0a
fc7ab961e95c6ec07ae92ba2b8e1b001
fc776550696a387ba763fe8da2f577d0
fc744c73c7633a04d9b3802a9fd7b8d7
fc775970cd60bf942998b1bb64c3fe1d
fc7ce1a25b671389206e740272bd257a
fc7a444a0ca8f4e567eab6755aff0eeb
fc78e258def86f4b0cc25039fbdc95c8
fc716011cfbef1ab8615435caa72e35f
fc7515ee4f39ba135261d54f3f0a50c1
fc70f076bd5ee123c3c2111a2fc3aed2
fc71819313991f51b6e33e032ba0f52a
fc7de5819f5338df7b8d250aa46e4e0c
fc74691c1b46b95cb02c8b6dc884ad63
fc7499eec5db89fd502d059963f1da15
fc735035c43a65d42f286dc0e4f0a10f
fc7e2829b40d27d436793aad1339c81f
fc7ae5cc2022ab94263d1828ff9825c2
fc714df84428345e083da5478a7f07dc
fc77bc3bf51d60237c569e93627b46be
fc78debb825fe54aa93dd613366d4f1e
fc7915941c06799e8c31c40754807642
fc71fcec19eef4f1a87709f39b7da3d6
fc77a324e4c6ffef1b0867338860fa63
fc731086c4ed4bad1b76f4908384d512
fc797e5d3f2d5c51981559821816882d
fc749460b6941b68f061978ddaa563e6
fc798ac9045a370ffa13ee5bb4a259c6
fc724521ceed9ea2b5ea1f336989dec3
fc799c6a8deb3eac5cc1158864f39f5a
fc76b3134a96dc9045dc08c84938d167
fc7bdcfbb4a9e06fc518583828fe9cf7
fc7bc203d33806446fc9b17b2fd0660f
fc79b8d3473745f13b1ed00ff7e2cfd2
fc749de4a7cbf53e29fe101c79fb4b30
fc7a027b34f10de42cad93cf37c179f2
fc7689e6f7b847a9afa11a3f26e4f84f
fc74fd1923facece80cb41f9ecfe2f15
fc7cc6ab8934941d1b3c097eca5e5d62
fc75f61b288393caaadb7e385b88aa67
fc78c9145981679afa6d7ffcbfd520d5
fc7ff3457d36c99eddc6d7875a52e8b4
fc7c5f220e77e55dbb64a8d5d39cacf6
fc7f3426ab7868128d4bc53cd647715b
fc7e7d839aa04004cf155053fb433cf1
fc7ccc6b7783f4332065517b632d12f5
fc79d309df7ae5483816db16108e54c3
fc79f20292bafc51fcd6a22a07b2d4fb
fc70e99d4ad60894b2b1317b2d0a01fe
fc74752e6bd776c1e75a44f5d450f5ab
fc79f9c5ece3e880416b0ad3c1d18c63
fc794825620695e55e5c392bb1064d84
fc71a6f8689f6c31fd3acd784a641a5b
fc77b640eeaf250af1ab5f77a4bda028
fc7cce1e4739610090102b8c917745c9
fc7ff6c77a9d15d2763f283101adbc60
fc7f80a98f3ba42fe97a468737a6fb7c
fc76c4366be79ccd6afdfa0aa1fed1a5
fc7df763b65cb3b4359e61fa1523cfef
fc7839b994c1005950125d26b86717e3
fc7020a740e4a6bd91963a850e24d9b6
fc7b7245cf6018a5b80d79ae7ca969c2
fc75af1c1790807223edf516bf9fccaa
fc7f7c11cdf31c7bfc5e05f19d93851f
fc75a889f9fb3b95bb17caa6eb272aac
fc7d97cd87b9e885c33e9109275feeaf
fc7c545cd4d74bacb4cdc21f66a5edc7
fc7e01b17ab2e639a310862278fbc248
fc72373120c2b01d82ff04593624fec9
fc7f88f407be47f8743e7763d51bd5fd
fc7427f7da8908757153acbf7ab7284e
fc73b26d59ab0a533467452f1ae827ac
fc7101e1d149ae960d073ec9c82de212
fc733d9ca7c7a8918c19a897803cba66
fc7a1f60aa593f3613d53d49d06674bf
fc7a6e0ba3a4435769d608d941ca0622
fc7b8d50003254175666e468eeb200f9
fc787e7b9275ccc89704cd904c88a8bf
fc72dc0d2c27400acf311a97ea264f91
fc7ba2efb1b6d53f2c5bfc7b7936f189
fc762ce44aa589a52320178c2f66ca03
fc7454668b174a4482ffeacd0937b3f5
fc72d9d10e2755c56f62b4f2bb04381c
fc7081ece0f879e84ca22b0a3b040784
fc7080dc45dcacb7bd55c6bef86dea4a
fc7dfd33305893f8142aa1dda6d61a6a
fc76cecf0c2fedd136b7f39693d3eacc
fc7561f93ee82ea8eded9928c7e6d737
fc7c0f64f1772288249a4d1241f51549
fc7b1ce0f3c70b088da499ee30b291ae
fc700bb08c9072f1f15e98faf122a098
fc7bd369ced60c5c9bb152cf3ca9e9c2
fc7fa5615ab48f12764abd0cbfd915e9
fc738432e4b92e8fdb85f54404ad5c94
fc73b1e94f887b754ee3e8317277dc33
fc79291ba9f7d4f331a58bea85968392
fc7949f7ea5bf50b997a2e98dcf6ad64
fc7b47681ff87075823b8935f641fcc2
fc7e7a8a3e7615f1082100aaa03b00cf
fc75f6293904de549369c2eeeebe1617
fc7063446e9da17b53906d86e791e78f
fc79b5225d164034fd140ecfa964c404
fc794f8e0382b8c53d09d9fc06c2f266
fc7632dc8e597131e0d120574b1811c1
fc72f16b09fb1cc5d6cf313ae0df04f1
fc7cb57dab90e423655493ea0ead97ac
fc7461cf18719cad3d57ae65b22bb77b
fc7dedb37507ec24ec1b2f86b5dfa70e
fc7981950671c6eb33b5e1e9ccdc91d7
fc716ade1455f53da6dc52196dab42fb
fc7b6e01ba198ea22a8334ef32963b91
fc757658f2804d7379a76f3bce401775
fc79490ebff4920455808d9dc9fa4491
fc7dac199cd37af8027eee8a9a77cd0d
fc76f4209590cc3021d4d85848a78774
fc734394e062459c54928344f7b9ee49
fc7cdac6262ea5f1574ba29216358292
fc759728801817370d4d6d718e32f2ee
fc743aede9d11d404ade7d73d0a56fbd
fc76236e3d1e1021758d1608df7d7dda
fc7b3b843c0dd7426b3da9668eec0ad9
fc7e1df8166092a94d245fede4ce1784
fc7041091dab82f20d8622049897bc0d
fc7e916340512882a089bf5704943b32
fc7b732a7d8d7ec0202ebd0ecbdf96b8
fc72eae264766e64ac54c7c067242e58
fc79c049eb9c18e0f3174120c88b9fed
fc7bc6cb0d271718409a6d25a4b9b93d
fc721b4ba98ce58d112071ebcbb92405
fc7427bd6a8368e4df966a9af5354b4d
fc76688ccdc8059984ae14222c1939af
fc7a5cfdcf20c4895bf3b272e13c6287
fc731a50d1e4e1d1e1e0b40ddc0b6fa5
fc7740a764f66da9dc67653a323a784f
fc7365077208b29e7d879b223e0681e5
fc705cd698bac1ee1d0c905f773f4897
fc776488952243dcc1ecc6e95ab8ddb5
fc7f5099f06a8759f0f1d22e0621f37f
fc7688e4506ca1f807e9aa6f925cfc4e
fc744987b379dbc2db95a8ca03596a8a
fc78e19cb31d1e6b7a2ad71debde86e9
fc757f1a33d65374d1eba28b1be26350
fc7ab0eb00a684366db98eb39b605019
fc7de658cf239cadfa3d51db5d58303c
fc7ff99b116f5bce58a8244bbfc5cef4
fc794178bf81d3d94f8df8e3ecf1650b
fc75444df30d443d2303e8aec0010b1b
fc7fcdf847f8d9b19d59f8b5f68b215d
fc7f09ff1181283f1c1dc11e6cd8b361
fc73dd35718d3f0f9b118d115154d1c1
fc70f270ebfe4c18756b793151a91de6
fc7356fd3afb0e57d5f90c57da610b10
fc7b5b5bf56d99bfd31d149fa6eaf66a
fc74ea42fe47b2d1635d836cd03193b1
fc77a9e35ef8d570aba01cc3ef8bac68
fc7238abdc0dd5b2447cb7cb168cd492
fc78fd95aa3d1b8b376a7c7e4e8d8d74
fc7a3d387f28bd1a72f032c991144b58
fc7c667a70c6a01bdd558ae5f77a1ee0
fc7ecef0f365c4734ac656bd5571d959
fc7b522bc762edde229d8ee1bab0422e
fc74f3ee4d851c0695e386d42f41f614
fc7f5808decda7850531793956f1b67d
fc75f21e55c4c74575eb4776aece74da
fc7d2c1dacdd0d19627660de6d165de8
fc79ff9aa012d347acf30545efbb2ffc
fc727fb8a40a15a4183a4d79d5833fb6
fc7d1544f603b323f17390308f39ec18
fc78290809bb1e8665658251f7e9409b
fc75754ef5e8586a17780cc2f537c2f0
fc72484cd3892f00de15069fc9042022
fc789137a25226c9bd5f008df3097d53
fc775ab6df3ec1015a935cb73a227031
fc7b7a11a8419fb55dd9519a88269de5
fc7fee09c2084939f67a6a5706899078
fc765a415f73acd2beb1aa67c3d22765
fc7c1f491819b9c4727e46293a6eff5e
fc7af5a2ccc634706e93b474bc1bf632
fc7af4687ac31f8c0729250a944342d0
fc765d1efd2d66b4cf65abc724f798e4
fc79fb27f6698092b383774415cc751a
fc7b3924ca760d4cf3b1f464276d8d58
fc70843704befb494e6fb51a2eb8344b
fc7fe11cd81027fcd6b5b2917945c60f
fc7e2b41c18a7fb21c92a36642ce63f2
fc7ea1981a08a5155731580214461d5f
fc7906ccbdfdafa78eb76684af7d67d4
fc7b0782ac27e868fd6b2fcbd372558e
fc7123292a48cb95919ccdf4a4c45a78
fc7006b6d745ba88ef3f72f0f98bccb3
fc71308f9e8a36ebec6e82fb8eeb5635
fc7e99a97ec8709d5d64c9954021325a
fc705d1e7159e20bca2796b099c3720c
fc7101a6fc2e93ae9f2162ad37c79182
fc7bd7f0415d648ae83000307f9c83fc
fc7b0c375ae08b41b5e7f5d53d4f32b9
fc7b0ee1e216e879c82c14da0b0dae64
fc7778143fd6fe998b32da7ee43dde25
fc7d3bacf4e4e329dc51542b8f07865b
fc7249bd5456d4a5a09a17f2080fe418
fc7e269d21fa14c3e6abeae66526e9c9
fc7162a6e20cc7163a9e73e9bfbf5ca1
fc7812405ae6f36387c3e97667d83abd
fc7baeca2a8ad5dea71c95f9a6904b99
fc779e7259f34c7dd22ab93ee2a36916
fc7f01413103a07f34e98ce02f60f8ef
fc72bbfe002322911177675703c11907
fc763f2af3fbf20b37cfaeb0f1856800
fc75a6026bd68f69d5e2196b96f06fd5
fc7cd498c96b4054f269301c1fcb9b6c
fc7d9f2e7fd168875a38c3207837d597
fc7dc74c815be1173e3022897ee88d62
fc74aa85a5c35a08b2c2a19f17f09cb7
fc78aef352e73dbd74868107a205c47c
fc710e43029a5e24c21e1f58fa4d66b2
fc7571d05992f85926c39cd56f9e01c3
fc7d52d7e3d847e5288214ce3ee4fca7
fc7eb420678142067484c37af4172ba6
fc7b1d83b378cd5c512cd11a9f4c8f97
fc70cb70da5cd573a53fbd88e41d2ecb
fc7e49fc09c2e9145c6381230d599be3
fc78158e88392683cedbe3e6b6528bf9
fc7f30828dc7bd3f7f02cfc3623abccc
fc75e4be901f6314315112a71c8e3737
fc72e51ff74ce1b15a7f87dfbb0a07de
fc76bde26faf4d4ab6ea3d517d583c7d
fc751999c25d380f62d4a48459379422
fc7d2c7585cae872426a436d4df98703
fc742893973542ee22c498d4fb850a91
fc786b6c3855fced245ec34ac131e7d3
fc74ea8d9a762f24f704b4f7317dc50d
fc7926d2dc7fd7cbfb05093113918366
fc77dc95186828fbd3af5e783595dc9a
fc741ea329c1aa26efb5333b393cd59d
fc7fc309a01d411faa419693da076306
fc7338a5086ea8ed6bbaab40f8498a47
fc7c3996e424bcfc72830a0683051366
fc77a3ab1423d6e3b4b9196b0de7f9e5
fc773b09206b0650958d3d41ffc4032f
fc7c26a652126a320d00a71fc0fde9f6
fc7cf3dab560fcbc5dbd6a3a590dfb52
fc70a2c620426ef89d65e29609a25554
fc7920ae4fb07747bdca1d4190deb828
fc789bcf0c0ad39eaa81c42b6fc34f12
fc7b9db297f1e74359ea82a63bbf047e
fc71af79d047c4da6fc005c710828f8c
fc7f90a1cc8bd8e02244bf4d2e9ebd6d
fc78dc77dbcf54f424596b8417028288
fc75f7a6dafb794792af4152e7d3857e
fc71a7f43b9ea2266e11e698f123c0bb
fc7a31b0664d6b9bf1434a1acf464b47
fc70e0bb191ef3accd73041f940cac6e
fc79e709d45eb8d72ed352c2e77a48b7
fc7525b7d6a498f9def5d67615f96004
fc75e5abf4726cca21b596e03f83facd
fc71762195dabae5407672806b061737
fc76cd01acec8e02b606ab14fc79302b
fc7f02baa9d36457cdf0eb140a73c2d4
fc7179cbf01402287518f4813548160e
fc7b7a535ea51043dc9f6f03dffeaad0
fc76aa2ed9676b8f70c19116d947d424
fc784144229c07e7cbe85ff37361a13a
fc76e9572908df218ed5d9390f96c84d
fc77301aa63288cb9cdb1c1fa4a03380
fc7773675b5f61c1a22875d57f8dcf50
fc75fd374602e5c3fc6b8d73bcff5c81
fc77cdc1522a02bf222d8b1535199d24
fc7c8d318ee977fe692ed11e72185fc2
fc731b4d8b8713e87ce09b67f9cf58fb
fc7d628bbc838453d907475f700b352a
fc73c70a82e4aef3dc82162f14e42f17
fc7ccbf6d05fa59936d390f358c99d53
fc771a7391d8d7b1a804a0d3749058d9
fc77ea68edb6cf273ab092bbe73327c4
fc7b5ac8bfe093e6335fdd149c3aad0e
fc7edeaa34ea86beea7ece650e1471b6
fc7b6679f400c229e5f2847284cedc5b
fc77dcad2ec6c9f972a53d73ae42eccb
fc704d6ab2b5b1c036e0a5a51914a099
fc7767a4f00f486b9f7d849aa5410d1a
fc77d6567e8fb818aad8da5317943ebc
fc747bbd0df5b485262b0070453fd755
fc7570ea0dc2d0f014335b68fe420ae6
fc7db89e5a5ffdfd76e6b13807937668
fc79192d7e9ae8366942409f2fc73e35
fc7c1cda68290a3c35e9a18549cf30cb
fc74d9d549b0a328936ed589bb5639fe
fc752eda7357209b6dabcd6f0a624ae3
fc764419fb9f28b5fa9f76fcec1f4876
fc7733c63e84b72bfd8e50cef1494fb5
fc72df5a1e03a1571d22ee3d4afe7ef2
fc72ab24bd84c8aa3758cefc46e085a2
fc7ed4360535bf32fbf170fedd9e1f67
fc7edd088fd3d7727d0a12c1efed1ab8
fc7920a314a96b21f6337585304540cf
fc7013330bac453fea65664a0892ab64
fc7684c5c6dc81e74e4317fc3a0e1861
fc7d89388802505948885cd2de0c08b7
fc765d0eb3f1e4cb2fb1b95825a2877c
fc7562000db484e77b4f3903832d01bb
fc7a8c1448213f4d029f4dd5312497a3
fc7fef35b275b3c7f70dffb4885c3b68
fc7847f532b19acf1826f02f6a238027
fc7e7ae5b5a521e7bd82d1fa88ab7165
fc783dbf732672d44461f9d1e5b44b5c
fc701d4804b49d8c4057599277148944
fc7465f0a7f2125ba7252d9c2d915b62
fc707b342c69b200bdf45dcf8b7b55b1
fc7abca02ec99a41f13470d256e089ba
fc73732229cb9c1b706389d2608250ab
fc7f84d4c777abbc5cf4f47ac982b410
fc715f0699f87be88c34fb0530ee8c17
fc7461c56be9627a67b3fbcb7f1e7838
fc7d9a37ec581fd0109da5f7f17af129
fc783579459dc1157e26d70c751fef2f
fc775e938440fed0881042c28045e2de
fc74106166646a2c1d907715736363ce
fc7f0a751bfe7e81f6cb4db1199bb7c3
fc75377f50a06b44772c80665a8083cb
fc77837afcc5a911f8fbb5477ec4d0b7
fc7cdd2346549dcf0b5da2a4f63cff1c
fc70350d49817a9ef39408dba95badbe
fc72f45f0d1920de87c08b32996379f8
fc711f62140bad2e576fc477bf91e9d1
fc74b66424d0c5f53bfba13f0d4a44bd
fc7d492b116b82840d4a1155fc7fd134
fc7bd9c96cd82aea8ebcc743672babd2
fc79588748bb71db1b4ec1cca8f80ccc
fc7bc2e6dff59e0d1079bf023367ad1d
fc7560de6f33ef9ef70b968da65abc46
fc73362eadf57212e93bfc9c79984ed1
fc781aa5dc07eefaa30dc8cd726fb7e7
fc7f79a58550003ebb2bdeb1c3b53f3d
fc76185f4a7aac548466692d2eb13457
fc794d2f4f9dd86d1814ab486877f9e7
fc74060f4f47836d31f47d692c773cf3
fc7ed3a0a9fd675aa1067194031ad2c3
fc7e5726fa43cf2fc81884c768788faf
fc7de20893794af98235efddebfa5a4a
fc7b4c1760ff7019028533defc4e36c0
fc70c1025ba156c9b9e07aaab57506f7
fc715383871b1d87cbaa45435dc184a8
fc71041668e0ed9b0b7f1a0caaf9b1b6
fc74eb88a9567e68f2aa00a8b12c9ea1
fc700e5c45abc1d1344eca603b998779
fc7a4a047d3c984ae74d88e3092fb9eb
fc7fdb3be1dd47102e45073d8deb84b9
fc7b040d84353582c0de8c5d8ff09e3c
fc7cfe698b315067fe32eb55ef599c78
fc71ee1928c1d2a506bf61752532be2b
fc7cdf38bdd6cd8740666077dda453ea
fc7778c785ce03735ccb7a3ed20ec715
fc747473519815c31d8e7e81df0d4bd3
fc751a7c404e859f3dbc954f758e4187
fc733506984bcd447d25d6938afb17f5
fc74d010ff0c13a6707a2eca5641bb6f
fc7c9006bac05a07bed419eeed12fd82
fc70c70ba980d8bba2726c92587ae455
fc71afc393fc507542d152ebcf3ffcb8
fc7a6f07a76ef8a256b37581630a32d2
fc7dea99bc4bdbc7e784c392b2138681
fc71f262445f777074248c9ce2c0efca
fc7e5831a857683e6be537d14bc06087
fc7460bd297a3e61c42d095e83824dc9
fc7a3d6224dd48f901c9440a09009506
fc71360f2f0c8a51328027053e915a4d
fc7278ca472ef45fef42df4acb27e032
fc72277c12c391e7f394fd7e3ee87fc5
fc7ee51f79bc37e1fc828bc9aa449e94
fc7f5372a60fcb397a58123f5c507a66
fc7fc07d61f251a6d27cbb68f79ae6ed
fc72f99009147bcee20320f7fe6bf89a
fc7eba348b9909e0f95048ae67f1594d
fc7202c814fd3f2df968441f3ef12f51
fc735e8f390c92fc3e9aec9ecdb2def0
fc76f937760765e2a6f4f99e5176f896
fc768817e1f379f081b7e2bf93940fd4
fc70326af3cc3651c5f460ff9e07798a
fc7be2df7be6d10712da65f76d6680e8
fc71e4f73fee7c2d2e3c54ed6bb40f34
fc7ee012a2c9e37e398de2fe8bcfca89
fc7015984f2ef66395ec169c93949e5d
fc7b3c6bbc8da67dff6668cc38c5637e
fc7dc752e0b63a16d140d1bba8a1aa74
fc77d9ee281b03b9ce75f22137ef9a11
fc79058d1aabeefaefa8143f45cd1154
fc7b44b1a118510493fa98fc700ff782
fc7cfdda16522fff94d42da2e90d279a
fc73afbe78b7ebde899ef264b9943836
fc7ec7ef733a77940afd73d1143a577f
fc79a5a56aeac01c77a6827dee37f622
