fc864b3dcf971124d326dc481f6f6860
fc8f88c9f0c41d425235a21306199e15
fc8e4e71b97822c667a7d4b1ebc6b894
fc84fa7f94f743895b162520ed496b85
fc8708ba74636c6951e514d2ac3a50d6
fc8b1db74d24b47d4cf9641878983b44
fc841329c588deb79cb6f1efcec790aa
fc85511d6306516fdc24f611461d28ae
fc82cac68d3c7c36c3bcea8f039df4f1
fc864911879b5640512ae68f760b53bf
fc87e24b2217c177239f1a982edce82e
fc8345c4a82d0b7683f8e6ae15c44995
fc8771575929616f9eb4d398cb03d7b1
fc86c4f2ce898e8ea2824e248e2f14e9
fc81016d1ad9ba664a05b8e92c5f95fb
fc88c9ed287549b62a32f896c972f4bb
fc8abd7d227a9342f263db3305632277
fc8f5916fa1bd7bbd30ecb324164fd98
fc84797318dc45e5278edf4ad8208e10
fc8c6d463bf3e0bc4c8d5a250aa4a798
fc86d30f5f587ab4c4ec86fc46235394
fc8b1d1d6ab9ccae786080e0cf79b8f7
fc8760183511d0f8a108ea458f9b762d
fc81a7868016962a6b6c4e136b7cfe20
fc8e6823d12043199461ba4da178c330
fc8be7d24a84be7af40ad61fcfc1f4dd
fc8342bb0dd2cf0449d89d7d9d3c7947
fc8fcbacf7c24c1cb0b1712873409cd1
fc8d02f0b8025ad30ff10065768f35f7
fc83bd269459cba6db2f23721eefe297
fc85977d7c294299a6e47b0540f484e8
fc88f3b3dc8cf201b637f77e39fe569f
fc83e7e8f338485e065bfcc0362fdf15
fc81302a4af3441149cfaf88c5ab5dea
fc883b6338037db0a1d5b1f24f8f28de
fc8d70163c6dbaa1aa97e3062aa3c472
fc8ab9a4c26c9427beb8acbe8f7fe4bd
fc8833359326feeca18cdd5a86d79390
fc8255e1d32211fa529fb5f1999d319b
fc8d765d6c385dc50a11228822202d76
fc885c680804794045870c8aba929567
fc8ec27230cd42251ad7450159da0358
fc87a8b3fb2c88aefcd8045a238c431f
fc89d41a59876dda345d51921580c6e1
fc8a1e787d71fcdf314ae5eaf2dfa335
fc868710a5690868ff4a86ba8b14cef8
fc85ec0d24a449dce96b1ce63bb0589c
fc859de265c47b9ef9ea40f7336461f8
fc80bfb5c895e5b57ebf9c7b1241185e
fc8aac9e63cfc026863de433d7beee19
fc81c40017f303046261cf76f97b922f
fc8b024b8a9f3cf8497ad3a8fef7a275
fc899cf99e3f75efacc5a7d89d717dcb
fc8eba06c47de18dc0b0567f14a4b2d4
fc8ccf85b28ccfa98ba5c171a8d6177e
fc89684371fac0f4ffefa70115f51622
fc86d1f7a7c814e096eb515fc62077f2
fc899ddd1a3c69abd4f24383dce9bb8f
fc8784f54328d4ecf712116448d83a2f
fc8d6ece2785e83fa1fd488e0c9922ba
fc866792cf8e70f481daa782c1eb488f
fc8059805aaf24e0928feec814061c8c
fc820590e3cd0b5e46a373966b8371dd
fc800af29a196085e3b788a2d56bcb92
fc85928d38e36a9047234a3790151a9f
fc8a0b7349f8a70bff1b679102ec7c66
fc8bdae7b90b9376f0ebcb2cbb59328d
fc8473113a583a52887bf5e34fd4f754
fc86c5a580e7102f65e0f7fc45a2d63b
fc8c96f058a55ea71b879940263d3139
fc87b21f143fa685c2c1d7bf62e115fa
fc841690985718b9bb27bd0e828c5c9c
fc8981ed24ba84b572cb7617a8077dae
fc86415ae9e0db48acdfffa6b7b099b4
fc89d6b95a4abbf12628c9e33eea932f
fc8fb344ed57d82de61204e06c2f5bb3
fc8afcdb0baa505f4d599f83c2e199ec
fc8421f2e78be5781c475281ff37ca65
fc8d78b93c436f028fd0286f16dd3cd4
fc80fdfe69c3f79e8475fd78e66fe77d
fc8e2bee2262c53af17d0d216b5f6475
fc8bd519d5405e94db83d9ab3c236326
fc8d41cc85472b26511a4d201b408ac0
fc8f87741bb37d21042baaf6502bc5b9
fc83ac62c5f1c5dede5892eae5b27467
fc8943a18d5bcc36c3803a02c87f6114
fc814f09a732971288266ac0c5fa14f5
fc8ae0a46e2362c42b797abb237311d3
fc8a9f66ffd17255792071ae9d0d70f0
fc84f7ee51c58b0dbf8c319c54e6e75d
fc8b568b7b5477024b1db159c9da97e4
fc89220410880270e7a2a0835eb9a175
fc86f8d44fcf022d53bf5c816199c430
fc8730e9fc943e1e6444ffea76941d30
fc8e8616869dd3347ae30488204fb8fd
fc812d5e96f724338ff075586e54005c
fc84ce2bce4b70ec374e1a573ad64366
fc8c47f6edc0cbb54a626f07331f7834
fc85bf591a42a73a0e581cc561e60d88
fc885d38bdda7bca5f8715aa79361bdb
fc8b31fbb0580d80b64d7567360e328e
fc8ee2fe6a3d327f9948414bf2d64b11
fc84a5d84354d01c56b1d919eb02196c
fc8a63537a8ca0ddc2fa18c0780e4b88
fc880f0d190ea2e2b881a3dfb254b0fc
fc82158765cb9f1988e3b6743f44ef74
fc89bb2b9871eb8ada41a9a41e3cbc52
fc8c4333e71719aa526fde6bdb5716b0
fc825e4a424b8bb9eb855f4f372ff79c
fc8a08e8506f28643760df2ca77b7670
fc89c409dc35a6e82e2f9a8265b54f1f
fc814dbfdd61d351e82f495764ecea8c
fc81d96df70bb9ca011aa96d1ef0da6b
fc8fb555e1934fe493d287e1eeb6f914
fc81a6b9baf929ca7987900c290d2a4d
fc876e7ccac02c292b6c2825054ceafa
fc8d2f514a11aaf7def96fcb4d5fdde5
fc8b11eeaca6ed5fbf918a9f8cfaf070
fc8066989e2ec28dd68bd747ed964d91
fc824c9187d3644e2f72b8437049f6bd
fc8c9b646bd87e41740b7f5e4be78cd8
fc832eeae39cb4c55e440c4ea08d24c7
fc81bb9e1fbf5155626db9a2a4aa11cd
fc8f5182151f5536566c35373608fc10
fc8ddfff0c35ea6c809e25488ff70a7e
fc8a62d883a1c3a3fdbda3fe94795f2e
fc8dd1cd3b5376d2cf267b131c68dfdd
fc8c3d265b25e02955e06464121d82b9
fc8a43c35a79188a70c6a1fa7b867e37
fc8b80712e8266d9a34de3c62ef9e5f0
fc84b2f130bfedb1e79ebbfb0aa56f28
fc8cfa64849fa35f2ba1aed7839b0c25
fc866c6dff8ddbb8ad602f01a3b08285
fc80700ba6733bc650e9550761b8e3db
fc871ede94d901c87fbbaab3dbaa7c2a
fc8d166d3a583b0e1eab50c05b2a59fd
fc84c851652471ec00666fecb5979946
fc8454df2d879863d8f3b8e7dc52b84d
fc8ba9d45a46c1c7bfb3e32f502dd95e
fc8f94371009672cbd99a8c3699d096e
fc8cd9dd98f6379f050879149d815b67
fc845350bb0d005a58094cffc473c0c0
fc85b69028c16b84ffc7be4abe2ac2b7
fc88d22ceb9df9b3f6d47075663e5dda
fc8114f3ba1e7fb4c92ebd98d813e9fb
fc8cd689e0fc1051aea2d30926040ba6
fc8324321d6c8acbf66109b49f024c07
fc8dddd83702b03757ae9718e2b91196
fc8b57ec99c877350ff415c55e18dcf3
fc8e35ef0b099d405a6c613a803f07f9
fc852b922dd27f47c2496aea340b844d
fc8b0cab2c8752a9a10fcc2c418e0357
fc8e5b785d392a2bb9f796b8182c38ae
fc81bfb21634773cc760b48fe53a72b4
fc8e292832d5d8abb81e7cba29e05d8d
fc89f2933b8d2a314a82d66a1084ad8c
fc805783ecfee8c0a13aeea2e9e3d766
fc8ac5a329fc15d6af7365855825ae0f
fc85588855e403854a5f1836e5dff576
fc8ed80aa445b53cf7f8348e8682a4d1
fc8f5ba975cb34fccd5a3ca5e7501839
fc8746452167536257600eb3761b4cba
fc8221641f7788cb166f3101110b7ad6
fc8a362b3908c52aca446068aa7f2c25
fc83c538679bbe18ed32cfb336f22561
fc80fff75c5e2a6625272bdf916626be
fc871945756147ac7b615d0171262b21
fc8dcea6371e19d3fa143ea2ba049e9c
fc89f821edeedc4e34a06101424b0598
fc83b8844238bd6bbdb98e8bccfde2ce
fc8de552040450972f036915140a09a9
fc81335c67c081666e208938c794f450
fc89e12dd52f7355528e7b19b58aee3c
fc80e4b39b43e6a35acf5fefad562e8b
fc8fb88a97399a066b76229396998b67
fc88ba5c75726a6a8f5981aa2276749a
fc8574760e94c1555f90424f941fe8f1
fc8c5ae52036ea83e8587c57ba4320e8
fc853a88d107bfc4d6d711c48ca9541b
fc80d27b62a97812a70fd68451c007e1
fc8ce5b8adb179e59b5d32059672a50a
fc84cc3aece4ee48d182577007802ef2
fc826ea6c0225d45558d274287b993ea
fc83f93401f5a3a7da468b49dc64c81c
fc8b876347e1c1c2d5b8a7b9d5cdbefa
fc896e9c47c2a25b518853016c4c6a50
fc8def67d1d2720623133dd6f1970e44
fc8ebbf81bcee4232559e731b56dc2ab
fc815774bc808ce73aa0484ddc9b7bab
fc8392334735043b48e2b421aaab5695
fc8dbac58bf176b8f0b8f7793aa9b7c2
fc8ad59c7295ac47a4e42c2d01e25733
fc868601a1023b3c2403a107e97d0797
fc86035489a52c84753312ea82d7e34b
fc88df65950f9744f59d917a71c7e9f1
fc8f1bb91df126e4cce658ba1930fdae
fc8faf7c0f2046402d6a196aeb696ded
fc8168d348ff142ba628071e7251ca13
fc8e4182032fb43f7db0fa4bda4a20fb
fc8545ae0b60742d22b186e521f1b9c8
fc8043d78dea8d37dfb813c0f11c33e7
fc849b8914fc0191211db17e0ecc1317
fc89669b888ae9c2975974234bd8b97f
fc84deff624c71299ab8236a7a5040e3
fc8e8a58a5648afe2d5c0fe4d8cfa135
fc8d893288c2f2c29852b213d3be9fe8
fc843d0bbe68271f0c3390854dae2489
fc89c670e831a0e36193c672d99d77c3
fc88c57021ccca021586a3d2ebf28062
fc8c185640189ef67915c358ba554110
fc8bd20f6afec34b945f8663f0fb94f5
fc81341b8ad85261cc1d4a2d5638c902
fc8232ca32a9d0360a3babc5c42cb6be
fc848283628c24fdaa5c2b18b831421d
fc827c6e87e2ca053eba13162d8ffc96
fc833f1266bc67b94b768c8982ae58ae
fc8c0d65d4c6095dad91816e8c318a82
fc85c99ae1dc0c0ad98182098a8b6ee4
fc8844ef4758381a4a5ff9c36eef2863
fc8b633580180e5febbfbdee4b6c7d0e
fc88c62283bace71dc83aa2c14e7a0f5
fc8b56230238d8d3438d7aaeb4929f35
fc8671fbb1b7ecc2142a1639a6eebbbf
fc8183f57408c2d263ff7fc3d14afc15
fc8dd6cb8d02b6723731e552077bd202
fc89a00ea108e82a547e95d134b004db
fc88d489057d9bc8c3287c8ce92c7bb4
fc8d7c06ffc821ac8f2f01648faad23b
fc820bf0ae5ab3b3d85e0977ef065abc
fc8ebe6680da8901e9ded552a41171a9
fc8ce6be8378d01d4689bbb4e22359f9
fc8ff56cfaf0d5582538e2cc91596e2a
fc8da598a472025e59fe15edfc4efd90
fc801f8c5b478eb2fa8e41d588c5fc20
fc833b8888a51c69e57c14360f0f2f52
fc8258a6f6bf38d64539d67b0332b0fb
fc8621b30f32fd2fb136b34a0cdb5ce8
fc8b1f1e0fec0e572c089a89c9f57f6d
fc8a5cdb0601156f5e55528ab58fc43c
fc82eafea7f2e2b28c6a7ec79a22e977
fc8c9c02ccac4cb2665f4a1dc2fb488a
fc8ec750efd0d12b022b6962e259a6b8
fc8d785b216618e3efe92375de735b17
fc87e4930cd4dd717e27214dd3dab873
fc86b0872f2f563c3292bea2d80174fe
fc84a48b082bed6f07d9caad93aa88cf
fc838f149eb00d98e0fa7ed574ecdf6f
fc8aadbd4c924bf9279e2114c2b1ed77
fc8c414ea8a67eadd63f5ae48f88fb20
fc81d5b176809ae30e898128c70a4ecc
fc8da59360676232176bdaf07b9f6731
fc8e086e86d41f766bb802e0898ee702
fc864bc4c4ce16878f30eccbef5da488
fc8df2f079e17a52dcb374a944d5ee5c
fc8001e2a73cb9eac8a9cc8d825a45f7
fc8983400fd1ea49e1bda0fe8514127f
fc8ebf2fb434eb516810111387202ede
fc8a776606f13063b5024343ad893bed
fc82ac5f7b7a6232ab925528c62772b1
fc8f6f8aad7d81ebc4c837615184c8e6
fc8a080705495db8c21fbc9e1ca8ceff
fc8dd534782c286eeeb6386aef3a30d9
fc8acb1a35bf2ff7ae1df6d56b0ba394
fc817c0a2aabb42e53c54486102d37f9
fc8e6550ef601b083fdaa580a3630264
fc8789a157ca6b478ee6b579a849bd01
fc80d220ee12128003af1ca4259f3d7e
fc80187c2eaf5c3d786f96735c4c14ba
fc808934f00e61f8183f729646fd5a71
fc862ec337dd21a99d3d69fe124cd5c1
fc88262b49bdf627025b36fd08afdafb
fc8a74efd8f1f8e405cfdfbf40835857
fc86d6d18775a9ee1dd01e32b1acec33
fc8edcf19fbeaebb7390ae7cc335defb
fc8d64113996274b517295a75bdde375
fc883e8caaa4866046e5ec900496a2af
fc80d98f9a6dc929e47b5f1d143e8d3b
fc88bdc9e97267c0366f8a46357beed3
fc83bbbc6f125b552224bfea0281aaf3
fc8236ed4c9ead9c411dcdb3a3aaef0b
fc82a73cd15974eebcf5dc0d0cb4a4b9
fc85a65c451db4c23276f6068c895100
fc8f99e88176f1b42371f5beb60b17dc
fc85dcd3d2a7113286853792e7e1ed44
fc8efc3b03f8cf34737b6fb3e30f0dfb
fc8af7f7b0082085c0892628327d47e1
fc8cb251425aeb9b5842828717fe35ba
fc88c0ee9c5258c48da864132c3c59e8
fc8cfce559c2ba789feabc3a6275062b
fc87b01a3e43420d493df0a0978d844c
fc86d2ef13544cc70a36ca6dff5c6d09
fc8bca790635bce7cfe757f1a53bd046
fc8ccdbf6c52cae2cffd20660352e4d4
fc833400e0593f4d2a6c5a7dfd3afbe3
fc8e9b29cc10edd71fa53c08aa9342b4
fc8613d1cb08b28e23eda1b2c9b986c4
fc8760bea6261499f3f559583ac0c080
fc8a1e62d33a344a22bbe0b31984b670
fc8acfd195ea94ef8d6dab1368452052
fc82fee1a38f52a5dde7d44ff1ba8623
fc87cae81d84724514003fc92d0fc5c0
fc82645e6e06211cb57df2d822077d05
fc854255f536b27ed33527f3f208380b
fc8fc26499b1224b50fa97dd1dce7815
fc81323e9ff1efc791c3c3628d06bdc1
fc8173f6b1955b560e20b7f7f2901229
fc89730b456a3a4a2364a082feb4f074
fc8f000c63bbf02a2521184f13a90742
fc8d0891753668f518034c0a408eef63
fc82957619ddff31c7deb2a6ebd1bfbb
fc84afe2cdc8a65d450772202b28ca5e
fc825023d3c30615dde0b9f020f55c60
fc8c4c089dfc20d4df40c1e0ecbb0527
fc8a839ce7b27943303dfbc76814bfa0
fc8631551059026b23649c6ab0311aaf
fc82a532ee9befcd3cdce6aabc183753
fc8eccc4c9dad61de536e521323a4b2f
fc80c8f699881df2ee31150807887f9e
fc80ec009ab6a73062d5b5cea659084d
fc81dd3956764829b3fb7bfe03f0b8ff
fc838451d17cefa299bf34cae5516263
fc89b95a6fcc1418d69389a2400e8770
fc85fafb7aec099d78e8dd60573e5962
fc83525a05abe78a2569db28c22d273e
fc8a0233f21a2917cd38768e3ecd34e4
fc89426f8ce7f6b0b11782cc139084d4
fc842b260842660b3c23e19e8e3fe359
fc83c7af065a171ac332fa2393b9afbf
fc8690a0b953ca0e7dd0143cec5d7bd3
fc8b771078dedc5313673b94b1f908fb
fc88a45b11fe6c5dab01dfd7b234b6bf
fc8b9896de2f188e78a1d8a313b23576
fc8a424c6e3e8e8ee2d832c741b9d383
fc8d4d9ee31fc281e1881a3852dbd026
fc8d3d2daaa3917c3d1831c65e8045c7
fc800fd811aed517ef7a4101bf343c3d
fc86db9fedc3a8275d0c630aeecded1e
fc84aec8b12ce9a5cabf58c67da5bff9
fc86c12b1bd97e26bd1995dc7c70ee86
fc8c3870f1f9876e75dd7142b687c6cb
fc8a0eae5d9510235e755adcac779dbe
fc85c13c2d9f83601d4daf26b15a9b9e
fc8cbeeff588ba872955f47b69e9dde4
fc8a5bc23b11ca23a34a5d00a199c7ed
fc885213d8b7a5d7d08cf1e4ffb15379
fc8c16c07d419897532e31997b10f85f
fc88dac717179900013e75b8d84d1221
fc87513dbfd54ccafe78761c6253c8ba
fc82d545860b47db50d7c5d6fd60cfed
fc87f05206ce4b0719f5030c09336550
fc832d4034f74c27452771eb9a8a005d
fc83d89a7bf6949280523d721ce6050f
fc8060dd88607aea55b4ebc65409f48a
fc8e58d39eff4461fbbd84323837c460
fc8b9ea44fdb876a2abbd695243e5037
fc8db66e0d52b735961b418633a8042d
fc89b7ba83c6713ebef40809435ed71d
fc885c2f7687f07dd2c792d79ed26c9a
fc838578ea1b2f646976e3620f49b7c7
fc863729593272780bf128f90edd34ec
fc82996f5b1f3c7ba75350eb93731e1e
fc8a6ae5b8723cf0b4c86ead0fa98fe4
fc8f92fb5a42c44e83a7d484cd881798
fc868f044bafb747ca1407c0f7d0121d
fc8c168e0f149723549bbc30051c64c3
fc819482fe77bffe23600fad7f55d221
fc8b2559b1a492208ef9fd4efe65c343
fc88dce1b67dc7cb3b70bbba3218d059
fc8c43e886279c40a03c51c52d5348b7
fc86d09c890c0ef4bccd5af03a080c99
fc83c78059f39b3de1ab5e9475e84e77
fc871628fed51aeecf2d877ab116c5f9
fc85909962bdbf876ba25831045ae3ce
fc82608dfdcf5c28c159debee3112564
fc8e33dde8e020b88df5678cfa921e09
fc81a78b60b3e986d4e1848de6b0cdaa
fc8f845178c087015ecfb4aa55c5cebb
fc8e10777f5200c135f4fc803227661f
fc8b2a4f4488ad4d12b19af4166ef8e2
fc8fa4b9843e5860b9c904ec49fb865d
fc8b1040310fe52e19540ba9e1ab23cb
fc8c5ef09b2f940561542814c249ac1b
fc8cc163968db3393ed8f8fac1f7f2b0
fc8ca03c32eb403d1cfa87c13bb1f02c
fc8b5542ffa0015bbae62ef4925b1fca
fc80b49ca1dbcad21e7724bfb7cd97b7
fc89711aefb8ee1cb979e69ebc3c411d
fc8503dd6ed94f47f2b5cd6525e40abe
fc8bc1a9854ce9408e07792c743c8de8
fc85153da6309ee43bbf713a8c445ba0
fc8362bcc678fbda4c625af95e0edbe4
fc8d294e684375ce01f0ec22314934e3
fc802ae693637b08e9e269681159571d
fc8a0352d57ad7c2ce94c59ddef22bfb
fc8701df9210dcf1fac6f8327253f5ac
fc8ce4b7541dcd5e9a467138891188c5
fc8841fc0982eff0ca00cc4f33066955
fc86639cc6cc3d0b4d7d42e922ff2b8a
fc829ff4881775ceff6d9feeb3a82b55
fc817b00e593aae8fd573614f8e1dad2
fc8e95efe5ff7fbbc20e5e609e1384ac
fc84808c62504ccccc9ffca720a3b151
fc8da9f7b1bc059c954e462677630c1a
fc80263ffef4b865cf709c22527a4509
fc8b1e079b19ad3b17b76d606be856c8
fc86c4002a1e5d24144cc2dac5361638
fc8a51c72df803b0cba7c594fb25fb14
fc80aba2d3d2b1de27d741309cff472e
fc85a52706893bd55d1de941efefdb77
fc821abafa8ea15386d3ab129d313c3c
fc88dee78ce1b5fc409bd2371dbc6998
fc8e1abb847ebef7e44fa0e3c87e6424
fc8e8585e8ef48e5c85a1a4a207ba4bc
fc830efa161496519a5335555264a544
fc8745335c9ed0a9eb49cced6c11e0ed
fc89f98d2d15c71d9dbcf01f7692d1cd
fc8c25dc123e7ccc9e42e372b1fa066b
fc8876259188fdb8474dbd1dcbf96966
fc8be9aa7497d8a884f9264d6ac17941
fc8ecbb3789e1c4982737768d807471b
fc8d4e68a9f9b123a7b9c5e4a62011b0
fc8d5b69f22d65db1e637a3b488cd45e
fc8d14bc303ff6c24c8bd0f9ccc83289
fc85798fef34fcac55706905d8b3fc1a
fc868d566b8405ad8d3b5e7bc4d83d7d
fc831e1933e637f93e2b7e420b03a47b
fc8d5820dac451f0c288c1cab0e63302
fc871db0d59c3c053015acfe2070e1cb
fc87d1c27eede3c5a5c419f5103ef389
fc81ee9c4d9adebd9544bfe4ca4bd70e
fc8c55065fc2e132bd2156e2a3acee67
fc8aa051b4f3695493ecd6801b6a7156
fc8480b50c28dfb111e48c8ec8a4aa43
fc886c20ea670f5f0564fae2c17ac8f7
fc88e3b9d7b1525cc57c95d2ea69e65c
fc82a9ba6edf755a404c95bcd4451367
fc8dc21f3d91bc6b74ef5c9332a94d38
fc8df7201645097fd805d72c3cee78f3
fc8b331002a4f470c914b337adc4a610
fc8fcfbab6ab8e8a82c10a9f86187cd0
fc8d673cb2535e0cb0623d2c38f7ecdb
fc8fd28b3d781aaa5a8b72a0f2b1bc17
fc87b211e8d73d65b7d0bd5fced776ae
fc83c3e2b185e1f45812dc858a807094
fc8802d929905361563f56835038e682
fc8f7066ddf4c4c87a9e4e845f828bf6
fc8ce3c09b5004016344a9fb44d549f5
fc85fec3a0b1cd42554d380e611a9c00
fc8ead293a2f9f0a2b62ac654d4cf746
fc84b7e312d2474078344e1a6f3298be
fc82ba11b5121353775cbdcc82805a12
fc8bdbd2ca9ce5f50eccd46f0ff7a2e3
fc8f2d99ce2ca2c2f523382f7fb2b3ea
fc8672148469f21f9896af3c0c7b1bf4
fc8d9d8c8c94f8773ef4478c4dfa21ab
fc83dd4b1fba37098b077c9876ee5083
fc8852d6611ae73faef9534b7540e184
fc84546e969287e35639f59d449a803f
fc8d1a5d652d685c926cb7735f5f1887
fc8f66ffff50db8f37dbd936ab1dc7b2
fc8b2f8c15498f838c53bb0cfd290ca3
fc8a9876c070f0571b8fbe226a62b69b
fc81a412c6a7c6adb50ccd26f85c2d39
fc8551949619b1d7f78a488ffa460385
fc80f642b2052457637b3535ca68c5a7
fc8b62bc90684eecd9fc1d5067731fdf
fc842de7f9aeb70ea5c2858155788a1b
fc80f3e7d744a15e608707088487c7ab
fc81507df5ac35ba7cf0000aff3c12a2
fc8208e90c70310e4e6d97cbd5cc8a8e
fc8f0178d8c79329aa42372fb7140fb6
fc879af738c67a272c98bb5348680852
fc8def22fccf41dc33dae2b64f98b40a
fc8a41d74c7617b45b8ecc01a974aba9
fc8d9dad1939f22a168c313a91cce818
fc836ed8ab40ba06bb36830eea444555
fc8c0113427a540024d6a6aa96e7c8ce
fc8e045c680739d3c028fa601645f94a
fc8714f8c07f9451a259747118030f01
fc86189b8cfa92a924dbcda77aaca769
fc8ccb0b4e8edb122e200129f1eefecb
fc89bbb8a324ba130ebf8ce00f18a932
fc8a02616d671e139d2344b1ac01faf2
fc831f2158c11cce8fd7b33d3a79fed5
fc810aef3c361783d282c73443ab30ed
fc8ae6efcb6cacc605ed89ea4515b667
fc8b9b9dbb77f67c8a2c56d33a2a0ff5
fc8eff038cd0ed9206ac426198d0d4ce
fc86e2e76e01dd30eef7c376e6c60fd6
fc898c5ab976874aa9410e4fb6c57ef7
fc8aa754d60e89a123e9d47f3f4cb01c
fc8bbbb4131926226b0284b2c16c137e
fc8615580ebc3760367ab8dd5667fbf7
fc8e8e9a6fa6910fdd1635f2df49ea90
fc8774d41c05713c365728c4b0107fa0
fc84fed2a57928ce3c69ffb39515670a
fc8f9fce36e6bd9614c32ef85a06b3df
fc893154b2e9969ba8096f48ad2e4eb2
fc838866e7133ba826a7019756b24579
fc8dd659b035a1ebcb4a2cc29e07336f
fc867a1232d6eeff2430aa1a04fd42d3
fc817b62191e9c86145676e484e01500
fc815a2a268d03caeb4b193ad4a5f22a
fc8347bc38b632ef7e94c131fae49790
fc87b48ab2921e84b314d1a8e80ce8d4
fc817220a91880a94323d4686259cb38
fc81ae5f8a66604a6a945e85fd11235b
fc8b38a32e05ffc85c9a80be25ff2944
fc89ca4fa645094f25e669ea61dac52d
fc8633fed9305dc0c2fb4b55794e0bcb
fc8f05e8fafdcb52455068711143ce80
fc8be16502b754ce01421bab7ac46038
fc8c17ed5b03f77f47410269e41b5650
fc84229682a5bbc13cf9aa7f4cbb97ef
fc8dd9f667309107ce772a11d192762b
fc8607462a7441344e533e16814b0e91
fc834b93fe9514b9f82f55a5f0fb5625
fc849fb920926a909d1b5fe58a7d033d
fc88aaae31e43979bba3cd9f239849a9
fc8eff0ec36bf9276a0a1fbe207712f4
fc8bb93c3ac541ab5177763b9433c266
fc83c069e189665727f8ff6db1747d42
fc8d134c965ab12caec854bc30411b79
fc8f7c99f843a6bd954b34d2c2d24ea7
fc833d895ca75ffb544c8cd2ce0fe32b
fc8b17aaf7b0ee901875a4f64e10b495
fc81198aaf8670a0267d4e7eefa3a79c
fc8a47448b8722a8c1c845df1d82fb61
fc8eb22bee924f324b0fe774c2685cd5
fc82f79958d32743cad13ac7aceda922
fc86cb7b5444180d802ba51cd9fe5d46
fc8fb1c421054a0d5244651e9d2880b5
fc882f822aab287cf269cce3b816098f
fc8e70dc0f678477970c19d23139f144
fc84c2ba3a7c37aa81d38c67564c0dcc
fc86a2f11e174b6120e19df6b795b441
fc8c14a53a2bcc3cc976edd4a0ea263a
fc86ab5b75097a3e1c5d3d69c33006cf
fc8dc9dad60903ffaed9d9ad7d4754cd
fc818b57e6328a81d8470495708f60d4
fc8f300d5369c1980e1277ea0e6fd4f2
fc8a14166c5c9caf0fd7ca7be0344546
fc8a8c1e1842eac98bdc69d5427241df
fc801be22c7bd5c31e5ac79c90016ba2
fc85460fb1ba06bf14f53c94d4045838
fc8672ddabdbc108d234eaf31d09d78c
fc872d8ab95a7f215a0e2b70a7d83c99
fc8fc988a337b5330c2eae3f0f5b775f
fc82f918b8109ca3dcfbd96aac1aa773
fc8767917f1be88d15397bbaee8f7cfc
fc8c735d6de973251355bd6bd98eff63
fc8a03c7a500337b6a38893e4742226a
fc8c25e8514047bf0d4d9cbf257bf045
fc8f396b4588bf2580dcb9aab9773778
fc87280a42ad37b56a53dcdf9ddc5937
fc8e16df6980d5f6fa50337d4e336999
fc86f27eaf28801ae2493cf317920713
fc8300066d6742eddff834f1a034aa88
fc871c8691c1c3af1848c6d67509d189
fc8d5081db29054b6d2ae362135f009f
fc8b29d0938dbc63108f2a3b24dd60db
fc8f3729d16b56371c13df3acdbb5973
fc85ad6783f1b286b5c0a74672ae33ef
fc8f0600c0dc4b4318dc11458a57c913
fc80c1ce49bbad50314f5bb47c1808cd
fc8e9919c35427e27b6fd4781223517a
fc84dee922c6ba4de3c4eb2a382e4bb8
fc892c63be4c965331054fc20045e4b6
fc89b56cd70662c3231c0a34a0aed328
fc819aef0c94e68f7297867956c7e9fd
fc8f12e785cdc6ffa31fdfb17d17190b
fc87e0f64afb72d651cc4766aaefcbd4
fc8833d2afd636bca4c0ddab78f76c0a
fc847e44270aad81a7c28a166b6e2100
fc82697b4da1bd795aaba4b9e9e98fa6
fc82eb71b7f71440266e3d671ae7df9b
fc898aab6a93dd4c90d5d04087e49626
fc868a99d847e8be277f5e43076e452a
fc86d3a64670c8d2187614bb3638f524
fc87b93c52540872bdcae23f2809d0af
fc8845f8742c0871d84bdc4c4ef3fbad
fc80462fb924f7d58774c6d10b88b5b0
fc876e0a92447c49af60d5f496d998eb
fc83250f554506953bf5bc0a33959f4d
fc8f94bc3f7b0b39bb1f0c2213038fa7
fc8e9ae61f88272998e62d10d8dd6117
fc8bc8204da6cc6e10cbdf700b538f27
fc8d6319bffc261f6bbb9f83f0915976
fc87a61e9f0a4dc21aa10596e46faca8
fc866102654bc0964462856a87784f26
fc8aecc0da77bb29d6807c09e4b44b7e
fc829edf4b78aeb907bd541584751b02
fc8e7c7f3fee02a0c53e330a59408141
fc8c984f6b0056fcf3938d107befe92b
fc8971d955896d8e868abdd874b2f867
fc8a0f50a72ea227f14aa0664a302978
fc80994ffac0af1b7e633d0d07690cb8
fc84a01214691d47d0dfa258d5e1912f
fc8ed6cce78eb5ea4599d9aa88b4f1d1
fc888545a224b2bdf4487213e2860dd4
fc81a3a46e223061f6d0006abeef605d
fc88214dd4902cb7d9ddcae460fe741c
fc8dc044697c0afbbc40c048d6ab42c3
fc8f86600ac5b2e62ced9df599faefd1
fc82a3e7ca79de622d5e679b9e44a91e
fc8a2f4926a3c185cc21e3835fb55472
fc806dbd1a3a64727602d84eacbe99b4
fc808299cc08d2c7a64a3d43d88844ab
fc81af47774ab1dce0153c6e1b926d41
fc8bbf030d586c421e1afeb95b7e0ab6
fc87cc0802baf4222960259c35455156
fc8cf8623579feac35919c8cd7e2361e
fc84aca7deb74552af40dabe42d97e09
fc8f64d488acc46a5c904de9ac14061d
fc8e352cb41b50b98af95917b274c2c7
fc82d86595ee600315f525ea81b57ec9
fc87a0dd3defa1f03502cb1929234121
fc8a6958ec784757702269653578af9b
fc832d936d1c5ae3a58d05634515dbae
fc8b2d9ea9abc4933e1c6916a5eae01d
fc8876bf347ec52d3701d33e2d905f4b
fc88d91972dd3403163882e37514c8ca
fc8d4ed81ec8628574e91f365d1eff0f
fc8a2b3cfa6171ee7fb6ee99d584a6a7
fc80d31e70c7ab0466f35a0c1e4ee7ed
fc85d2ba77ccd832a5ee6983c2031f61
fc8f1b552e7da367cf2738b37fbcb2da
fc8c8657aca6eef199d46410b66b801f
fc83b42e6dd6552968773a947a606c23
fc8c51a03c362b5e982520dd9a60fb57
fc83c06bd47d98ace12c5d5fed7b42ad
fc863aea9474db349f3ab01ab9a5aa26
fc8327600dc6e7d540ea8daf4273fa33
fc8a539073a52391ae3035d9f2d6bdcf
fc8d860931c80519e27306ea983966d9
fc8df59d2b6d1c203be99fc319839443
fc86f0c19f8a77add5ca1bde9ab74e4e
fc8645e0e5dd83dfe16390e86c46ebfb
fc8258a7b3b5593b4a0a324096759f19
fc830fe6347da881c8fb960a682653cd
fc8b4831c4085402a3cc416df0427a14
fc8b6fda9bf9970877a3963e264b792e
fc844a650ca3db902c82d892df60e2f3
fc8f1d1f29142af63a284e00ae7815e6
fc8a754d20e13269e77f31547b60f917
fc8ae648b1b9b7f7f3c57a5b3f5029b0
fc816f587cd297a6748a4e3c25322880
fc8bfa67e6c8e625c611da57eff4b142
fc8fb533ff946b325ee8b17a6a802939
fc8ecdbd8e888a8d28bda5e4f9e0f69a
fc816a5a3c26bc2643703abf22b01c81
fc86783c6a812f09bb281cddee2d87fe
fc8fd147a2b5be81bfc13b14c7b670eb
fc8da40192baa6a92a1d16222e2eb11e
fc8e46b211a6ddc04b59bc47c2ad6ebe
fc83c21e8993e21028ff368919911a42
fc87c3a10a0a2aa3c596a0f9121681bd
fc884c7671bf2298f6a72d553203cf50
fc8d0358a5f728879dbe9209b3c45f28
fc8a1fc76175d485b891071434b9f8f9
fc87be9261f63f05229b51316bf055a4
fc82c1540868c7d01825c27322172d6f
fc8c1df41ae6f68e78702af2eae5cc4d
fc83844b0d1a0e17c1a09be8be0b99be
fc808a18e331e8f15b58ade9e5a3b67e
fc865d3af8c356d2407b7a19277410d9
fc8884b75991f7d0309abb1cbf6be266
fc87e08fa887f19459c5b9e7a6a374a9
fc8c2597004d632743a150749c40367d
fc8511c1e75acaa8cb26a9a991892b29
fc8e491e40b2db9731cfa4c808c51aa8
fc84edeb7b868eb5e697bc7617ea8dc5
fc8f6be061a200d82067c1df8b6011fd
fc8a709a414ed0e4b9b249f87d43edf6
fc8cffb83c4059699b67798768c59def
fc8d1b561b540d4114669aee7007a2f4
fc80f6b510d1db15fa4531d3d045833a
fc8a74464b49e5b76a9d0b146990c3dc
fc85883f0f86d472008be19516715596
fc8715f5574bd0b247ca31c9b9b236d7
fc81257b73b1601898b3a906483e6256
fc8d27ba9592925229705469aba9fe47
fc8c6b7e020c6f74c55aaeeae24c46d2
fc88dd4bf9aed0c79cde5634dd5bb9d1
fc8d8efaec24de16546969f02ab8aea6
fc8a5ccacfc7f667999401d295f22664
fc8533ae8c056433438dffbac8cbf43d
fc821488665ec5b2582fe7ff51d4f650
fc874b024e7e52a24579b13d0f9ff48f
fc853e9d2c2ba1b5d45d50353c0f2c28
fc89d867ea4135b93a1945381e24db40
fc80fb31a6d610044170b77ba1ea27c2
fc820a4ea6890833b11ed70b8099df85
fc89fbd66b71e9cff72b8a103ae787d8
fc80f4c794ca08088afdc9d743704064
fc8ea7537efa727f3b2a2e68610e5c9b
fc823031a184afd292f22a3016bdf91e
fc83b0a1c2ada9deb4ec78a97ab5ac94
fc8ee1d0ee0203e3a4288d4f53abff3d
fc8c6830d7f7668b436ed6c0a0e1828d
fc884cdc0c24b1013bbb4fc2e1b5f5ed
fc8f7ea4c381b334021fabbaa7c60dd5
fc8923065e73dff256084d8f97d6ee16
fc81df2ba689b90093db7133e239d345
fc8269f4b583a34cd6be75f651a2bf92
fc85309d49ce201f2f3a0dcaaab1bc64
fc8004925cd26ebf4cbc51c27586d533
fc889c6c0ff3d5606f1c0be8ceb1c506
fc8c113009dad42148bdd2cb25162af7
fc829a775c0a54164a6f62a3b764da7d
fc8e49d9ba4124be3f1fd2542ac1e769
fc81a471dd2647a23ac0210420750225
fc8dd58296041d640d48cfccc0faf86b
fc846d7d687a193aac2df2bd7906432b
fc870515e0e58139a17ffcf651a07810
fc841a4adf8ab09a85c1e1fa227f5cf8
fc84ac4bfe8d49ca956606a64fcf0dc9
fc8907e8305d6a4acec8a0bba20ca30f
fc8dcf3fe2b7519f15838262519901f2
fc84860640eef24b2ac0fb26f68c90e6
fc844dc86dd7e5f12e4831e14858072d
fc8c915b8b07e9202864132821883741
fc8ee7b365e44c58c2f9d7e9021963ea
fc8618e8da579793091066488614dc8c
fc8b07e8bcad9addfc0348c705c180d2
fc8807edb55c7bf6e89fd6a7fa14d156
fc80395f1960c831cfc2a550aa7b7db9
fc85a17fecaa7fe01ad2f89f7eb3b858
fc84ff45fc77e703ff369870191720c9
fc8defb58a72f360b5bdfccf103ddd75
fc8d61d125d48e39fd78e34a5cfd64d9
fc843418d3337df29394374b2826b9d5
fc8afca87fe432bde17a836a74d51531
fc8b042c99bb7567dea122ba803b151f
fc8947ab5645569b49326f86b39c56b4
fc8229ab242a3cdeeb2689426862db92
fc8c17123f9aaa823553c9ee0cd26efc
fc850b91212e90a1c48726a03d64a470
fc8e15d605fa4ff43bde0b63a6d2010a
fc8456e8d61df54ad89d8899cc70079f
fc87e374999780f10648d9e57d82b22f
fc88eee869a4d116f04c46dd2b734662
fc859ca7ca726ae134e606f3c763474e
fc8366f87c88310ae8688df9688b6dea
fc80a4985925d759522a7147851648a3
fc81ba5f2ba70c31aeae4eb626dc956d
fc800115fbc077e54304d568375dee51
fc8e858df8c62bbe9deb7cc9d1f090aa
fc84d4f5c5052044deabef02db119eb5
fc8ec43ec2c6e7a7237233855490aeda
fc888563ff4cd71d994d46f40ba5c2ce
fc89ce5908bf7665dc367e1cfa30ac19
fc86749a7cc5440d8b2f1d8a45b0335b
fc84c4c96e8b580edf8e0812fe06da26
fc85a2b1b732738214cba02302d085b0
fc8ccee6665d43ddbaa809dd3d70be94
fc89a074604358ab82a3f203e93adb51
fc801d7d9e7a21e7d883969a7a604cb3
fc81866f409d3720ff3a531f3bd415d3
fc8cfb5fc814645cab72e05acae22a19
fc8462368108a18f80f7697c7fa10ef6
fc8e0f13f93610caae07aad92667a5ea
fc81d0ab096dfe1f9135609ef69e3aa1
fc8e65dce8a9aea680838af5ac3840a0
fc88aff670e8a3c27ec74df1258db7b9
fc886f008a1828f52698499b8dc62fcd
fc8a424a3a9aedb65982d9a323b04657
fc87ccbb2f1d5b93eab66b3ddf60cc9c
fc81e5d1970320ddc957c4a5d994d8ab
fc84def9d50d2587af34ed3a14fcf94c
fc8325b7569e43c7a264c083c7d6e5b6
fc8d6e5db4c1f710d3c72a2e8fe7b0b0
fc89d6b86baf25c4f7f11f8fec13347c
fc8cc773fc2d02f052bcfe7541c1c0a1
fc802e4a5632cfc14872101ebcbe9f58
fc8d47f9dfbc627c46bbd618ac1c9c06
fc8b16a335ac08d67db29a70c9843d7f
fc8ce809e513a879a3821e937c4d8e6d
fc846988484a8dc61a3f3d3a09fa1d0a
fc8a261e288a5daeea807fe353aa4027
fc8e6b4dffb6289c697c3bc49ae51182
fc8bb64805d1fbb4cb115671efef2873
fc8fb7b0546a8c6a319866069e1f2f77
fc8296e9676d76c641342f8ab5286b39
fc8bc561a5d8c6f08c05393efda028e1
fc848613d9eddaf936671cdadd85af8e
fc8691193644863150b0c092fa876428
fc88608092d6fe8e9636727b58aa2b72
fc886ffdc4de53c0b7448055893dfa40
fc850c57b4ed7417ddb1cfd99998ee53
fc8489923f201fecc6ac987ad7af3636
fc80b0e017a6fa86f6a465e0f46422cc
fc84c140400b2a314dd933b0b756054e
fc8b9181eec1dee5cfd4ab689c1da91e
fc865afbf475f68299f4eb1230677acf
fc8e0520addee99e2fb90d2fd32cd863
fc877eb93c98ed96b0895962db70e77e
fc8246e969f74d5ed7c8591db0a685f7
fc84af05f13022125d8d05de557d4fea
fc809f8b3a2783dd24334e29672336fe
fc814ce4cb6064b8764efb4f3ce13520
fc84ef932c2d76736edf9b8652f05a5e
fc89d4eafc9e528e4f05928d5ee23edc
fc86971d0cf0fccc9837c92db85c9f34
fc8bce7e5be0d5d34912080d016ba878
fc8fca080754cf81d95e4f2dde6731fd
fc89466bbb8646ae34bf6d79c11d8c81
fc8aec40ae2ac7ea48c5e2bd66c3538e
fc8609a4db531d80d43615a33f22bc64
fc8e2ea302dd9079b5e6cba5ca1d2516
fc8183eb47ac9e4a58ccd7ca3fb0ab7a
fc811c31e35ca3eec8597fd4f7b76e66
fc8c9efe3fa78be84522584da0fea8b5
fc864fab9e4b39323f410e76ebaad1cc
fc814415c4e43cd3839a805082b7607c
fc8806bee3c1f5a729be50987e3d2e88
fc8017d5bf4730ad21db56b81e7433d1
fc86038da5a68b6e3de50fde96665010
fc86a563808da0eab9850e692eefb0cc
fc896e74e4aa28f87191a686d3b733d8
fc8f7f4fa81b90549312eaf6bc4f5c40
fc8a4a955889a2c65d91bc2a5aa79823
fc8048cae9166c8eb6e20931c778a282
fc88e559f4981e645b18bcb66d346d1a
fc8eaf1de40a45dec03d015e8d7a0bd3
fc897590dc2000143becb94b898150fd
fc883d3aec45e022922c50bb7b1a0698
fc81bde1342021d6d36a8fc38205d321
fc85c9b2cfbc4336fa476ece13de1f18
fc8c95c0005383de4e7c260a6e776702
fc87889fddcbe261a570ad6a55148478
fc8af8c4762c27877780f128a2b0b4ad
fc80e968907fcdb035866f5000a9dd92
fc8cb0cf8017d2bc83db9d0f157b5679
fc82755977a65e7c899d096e932a30b7
fc88d14145d6646b378e33bf1871bbd9
fc877726bd3bd548a1c9c39a18628638
fc83a749e81c797934ff22e9e9824f28
fc8795b6401044091ec902b226664661
fc83bd44d7c685e10e04c4e804b634ad
fc8d2b11d87c36e6aa82b492cbdf3a37
fc844ea2b94b272c215b90dc14d19500
fc8b4917042e5cd350042cec1ca14679
fc828a7e0b993168034fb665c04e7f4e
fc81d192e1cbb46865b7e8696ed172e2
fc81ff5c6c3a4832d6d2a2f3f7351f17
fc8c36615df836f2658db3d84f494488
fc89964fdfa4555e9dd0ddbffc0c6e72
fc8f9c9f28bb890b59660b9260326172
fc85ba46c6c0decf3e030bde0d7742a2
fc8c711c70291bd2f5cb620abea80667
fc83db8e7d558b00ae99c937d1c62b34
fc8a60c20c5dfa517d2b35101f524568
fc807d0d78fcac209166e34cd8428c82
fc833a3087d7e811fde5db2dd9f4fc5e
fc85a7422a548781282d210129fb83ba
fc84e82b87289eed73900434b7fcf53b
fc80cd4105300bc4784abec00558a07a
fc8e16b936c37a7b7e4727f09199bb49
fc8f710d0d742472f844f8fdde4ed1b4
fc87d0c8ceee5f79bf872f947af41537
fc88562bf868b5cedfeafb093fe75c45
fc898556ebc9d656498e04e4e7d80660
fc898ffb1e9f95cd0e94b9b69dfea4ab
fc80312f41f66fe848930e287c6b19da
fc87ba2c1a333dbb4dae43a7e7ada40e
fc8ee809edcba77ca92eaf5a001c2404
fc842a8e2eb4cd98e7e5a38337467b41
fc8ecd807e81da1e47c12f5fbad5efbc
fc836308c8e0a02367d37cc67d769e5a
fc8334f50bedebe748be45fada39e431
fc8b78a2bd0a8e50016d17893e67dddc
fc84dc37a533a8a88180d706673cf7f9
fc800f7ac113184e2315c8222f3a5168
fc80cde46bde1288314ec1650eac820e
fc8cbd67b98e5d8ce207aa9c557dc648
fc87513fd522d89c12dc5739f1daef94
fc882b8989580388a9455b644b0fdabe
fc80f37e4fe55913d4fbe786f7f7d1b8
fc8e382ba93c3942f212a518e8e4b926
fc836e82806ee35585bbb1ea4568c37b
fc8b152f32497e35456337d6e86daa87
fc8fbe6754cb290b149e21f468e30c46
fc85f848af8a6ab77717c0a66c086bc0
fc8ed821a3e1ec1be23d8e387d0e3a15
fc851ac6a7294a0d8570bbc8bd34d6a3
fc81bbd368bc51faa20264d4d568da38
fc8c19c99d34d965be55ce5c5c9e1970
fc8baf5b66a25a1ad6d09dfc164fb4db
fc8c8a7fd8dbc978dfeb5892802cc115
fc839b79a9e749524fc7fdd730bc0654
fc8330969e8d9da546f784d37f9871b1
fc8cf24c732f9a2273bb3739159d8f41
fc899dd0067a64812fb5253d83e45ac3
fc8399aec6e8f04b2f6d48b4187510b9
fc803b3a5a2aed074865075351b8e055
fc8c61dcf0a52236d9a77a74628f8469
fc885aa89dd62a269694c1c257273c3d
fc85c5bad2a8a300fe577687bfa3ed6b
fc8d70aa78f6831d8fae13915394fbd2
fc819fb51e60a450e12af2bf77dae0da
fc895334c44c4c520b7d91d4ce7b96a3
fc8180868a5b5e70a9aa7cdb5a7c3313
fc821a674e9cb5982090c7ef81336bc7
fc8c5ddb63db68b27e5987ebe68222dc
fc8494b904a4ff473a1274e971e17653
fc8695e6eec882da6e8e9976e195c64e
fc8156ecf49321df9dde1f9851887df7
fc8bf0d0945bc13a1ac00725e4611f33
fc87ab324967c4c35f78ccce6aebe796
fc8f56af435158d8e579765b81fb06b3
fc89eb0b74ba864c9de5a933860d2d5a
fc8af4301ed9a2052ca3bf633f0d9ea3
fc886e530ca7ac56501e9fbc168e530f
fc8e01f64658c4c5f338c57457d91e2c
fc8fd5a60cb4a436df8b981349d1efe9
fc86c98b44b2712c3b03ce1af1788321
fc8518b57f4210ba86ad53dc1371d17e
fc87efd0c6ed00769d8d5596daed2f37
fc8ca10afb372145ec2d36fbbdff85b9
fc8fe59e2f019edd264a71b96c2d371e
fc8068282fd9a8c6e549697e1da4c86e
fc89f93a735b35bfce86c8582856338f
fc8fc69c7a79b5a208afb7bd5e5de5dd
fc82d3f74c90a349cac2dc13b24312a6
fc83a61b611e62d5f30ac711bf377709
fc8dc241b7f4122a5e8dcb7bd117c2a6
fc818fbdd5a970e09d3a9ab2ced2615f
fc87f95bc3dd056df0547b6325f16439
fc8e210050b4ea26a6ccba783e490428
fc874f4174b6f2a068bf9e210b3ed6bb
fc8288975ab2eebdd1ffcc8515d5c2e7
fc8beeb42cebfe93940a5f6d19b0210f
fc8325a7f75f5091e9d48f32fbdb83d9
fc8edb227b696b261c4ed8e220c33485
fc8355bc03d364eb6f93cefb772c2ead
fc8a04bff85733bf2d60608b10b19a9a
fc80c6f1c1452161cf98c0457b367fca
fc8250ae30daaab78811381f6b6fc01d
fc8d2a41b241cb887f1215e25fddc14c
fc8b5037574060fd437e654d1a946642
fc87da28430e172a99dc2fb6a38e20fd
fc89570d411212c294e63224d6bbb7af
fc88f53f407dc3ab05b9a68dfedf801f
fc819cedb714fe29fa6ebfbedd7e6ab8
fc889d08f9298d41701c671f03a2c398
fc88fe9f6e75059d64c91571954b030b
fc862bb1d24b3efba6be4fc01cbcbaea
fc80755de00e194d7aacffeb322eb4c2
fc82fedf9072d04de7e398e6c299832c
fc800def73ab2b5d167d38fb8514cc79
fc80b0debd7e634d795650c7ff8938db
fc81961ebcbb2828690a89b72646160a
fc839d997ab5ec26fadf5cfa91e68cf0
fc80208cd83c7cfc7e435a082fa4ed36
fc8d8dd657303a296347a3e9d55eba88
fc897a31ce75e8213dec38d7b9a9a8b0
fc8b778e27714da5330ad742c3c1c04c
fc8dec295e9139864eae14a5024057ef
fc8118c5f6d56493fc879a3410e22ecc
fc87638ad6b27b89d384234934e94d4c
fc84da74e33cf8c321a10b078d720e2b
fc818fa6aca8ded26304f629fbe10266
fc86a34a03ceca242f297084c6f607b5
fc89ba916f14db9dc476981b25673c3f
fc84b85b892fff8c37b0cf0cb1663fb1
fc89480b069e09fb3e372c8bb630adfe
fc8fb7536218e27e60cab9b76a3cf956
fc878e9484a7963627fb847f55ee8b60
fc828a15806db94341583388cbf846e6
fc80bdd5f25fab05c4a0fcab0eba50d5
fc89b87c6592c6576f5fbf1cf53bd62e
fc8111ae68fb3c8900a0fe44f4c3950d
fc8e38050b14c33c25472b3951d66186
fc8666d641059337da43c2ea1f7fd3e7
fc8c8a91cd15bffee26bfaf8d5b766f8
fc85895c64682d19df93a5d72aef7937
fc8b5dae3f4795c2259940ae8065d547
fc873193be1fa0d7fc737ab5b354ec58
fc83b22af17bd55796270538758fc615
fc8ef9cca97cc342eaa1c3cecb521f0f
fc8f45dbc08388ccd914813b0eebc59b
fc86a51925ed78a53b001c7eb696bf94
fc8a012343044d4cf559ad64356ab21d
fc8bd657563e9d76bba09b67bd4418cb
fc850b9f40cdde2782b73e63682f65e7
fc874a6aefa1e8d4f47a95c5132a8d93
fc8e6a5696422341b74d05103fe55dd1
fc8f76bb454838434900ca7c7cb06ed6
fc8d824d863d217ad02bea3d46c4106c
fc88828986dab6113515adce4bb005c6
fc850bf85bb876903b678275d81ca1d6
fc8c922f7fa5a5d2a172f92d802d2204
fc8b85eaf3bc16d66d2f114b66a15978
fc8a5eafa9a67e25c8650b37efd1d416
fc81f359ad6930a4509301633304c4f9
fc885c6848b48dea9e4b559f287bb60a
fc8a488ece8b175b68dfaeb95bd73aba
fc8fd5fd357699b2e17ab1010ef55e70
fc8698f2a9afc9a4e38b639638f701fd
fc85b6960e97091672d2db3232d28430
fc8a82793cae2579c236d53bc0d23479
fc89b1796249ef105cafe53570340919
fc8537ff1458c8a7de0c0a4899b74577
fc8f707765d549248ece38779c608c62
fc8711212593308c6e1a8d52d478924e
fc853f5bc0c583dcba85f3ab666915f5
fc8f710ff594af87046c78f365ad8f53
fc8c7c80fc53206cd8c7a729b52ede4b
fc871a0c0d501df861a81604568421b6
fc8ad2d9d8955da10fdb83de2bbd5346
fc84bda9ade85e25ba4acd2a88de48b0
fc81b31b135e1257f848fbbc42507d23
fc803345a67ffc6ecee158bdd2410e40
fc83daa4406f934e2bb845b0d11042df
fc8dbe9fd31abc49478ce4868ee7d0d5
fc8ec152e4233ee4977eab4b245b291e
fc88de65416c7bfdce26ad94efa6daca
fc8e2e2a1f21ad8073deaf8d92f8e2d7
fc8feb353e20f1a5d5851b83f35d9336
fc854a9083c0b1edd9f53842f3c15562
fc8031798757e02b0d19efbe5d906798
fc8ce2e833942e68ae12f357b2cd4e97
fc8671832fd6654c5029c629cdec4d8a
fc8ffbc7389b46d274e965e8db0b278c
fc865ac002c8fef0503a28fabf874fee
fc8f66d6dc26c03224c84f48d73f2408
fc8f4f529fd1ccb15f758dc1ae52a653
fc81a65c6314b95a5c2dd98bcb7ce619
fc823a577a91daa9209fac0dca0a85d8
fc83007e4a32397802863a4376510338
fc890dbc13acf7b4f26c452d7c795c6b
fc8cbdbd1eea049176d89c3fd9b96ee6
fc8be72cf94c095b25e6ffb775d08852
fc8ce0d5f13e531a7e540aba908eb9b9
fc846c4f991c467bfee23b8f4d5f2e7f
fc8d30f10e7692d5b71586817759b890
fc81e44153f67fca611f24eaf5633853
fc80c9f6d2aab6a93bb972ebbad9a4ce
fc83a3a17a1d7345bdff5bde360ef224
fc88a972397f49ba68ece1ae14986fd5
fc881721336a396369846de6dbb274a4
fc89736a260c956e9c8140784e95b4bb
fc8a38c99af836580e3323d2e2d217de
fc87b9d650d35feba58a0961a6c19410
fc87e873c665c44964e1044229578542
fc879c4131d41ca498a2a060178557eb
fc85683be6cc51e5d25b27f892384efb
fc8d68f53949469dd2624c63d245e547
fc8ceabe7133bd8195dc146168db4328
fc8b29a5d060124089e5b8608b578cd4
fc8efcbbcd1df9594ace1bb4a9bb2907
fc8d21ee527b3e0715822645d0c30d93
fc84e31c3f4c1c1274f25ae3e541d48f
fc8289f7a043697d8e9c32820ebec0c9
fc85a348d2c28d9cc5ae327e82240bf1
fc8bf9dc719b8b1334878cfef03610de
fc8eb1fb1fd5f04865d2b582c37f7765
fc8ca4905b77f8752d1c482282a125ef
fc854a8fa88a8c6eb0d9e7ef9135e8bf
fc8fe381b3df2c8f4dd69906ac0ccbd9
fc8f63afe168eecf2573ded3f5f9a646
fc8d242a89f4f5ef14efe977f457ed0d
fc8ca7ddde952a785d00c89782bb8a0f
fc841e619f4bff88c6f7bc1a1bb4567e
fc8026e815088f543d7f8adc404c8b7a
fc89f655bed6c97c6617f5270cfb352e
fc8e21764e60c0f35264ce8370bb4d91
fc81fb8c9f52d5974b93c12a25e79221
fc8ebcd5fafafdae28a377bdab9bc757
fc863dd55b159939a31f82a613cfc824
fc89a2b1e4f9232cae33f65da0f236be
fc805de9ba590e29c4d2a438ffbc616e
fc8d678f7c71d0a2269401c27f292feb
fc82cc4f49a35255e19149fe8a46914a
fc813500ee8cbe8ad4ee044ddf7e58e2
fc8a4107a939364dee73aa791b8607dc
fc805dea91846a0b8134d7c08a09dca0
fc80af759d2ab1dc30d4cab602d45714
fc88c70e5e0c4cfb8dcc59e6af384fcd
fc859b02f712f9fc6832c1dbda21ba36
fc860dade444752150025ac57825e46f
fc8f0290ae087853db7b3533e277141d
fc85c110ef93de067230d4d8012cf2e5
fc86f079e4d68f8c85695b7a1eb6b9c9
fc83114835d053f15175bc48d5da384c
fc8e59e9dc7ac3df08415dde8f2b05d8
fc8561ebd9fc9de92af01d3184f403a1
fc89bd88104156c71bfc5a1c637c7240
fc8a4895490edaa1083fcc58a91a4792
fc88376c6273d974670b0248762964de
fc8d82d7459e06a471f32176bb4d61b8
fc8438a19ac275d978ea025d353b21c7
fc8765ff8af6701223f81a5c3d5b4d78
fc854449ef9d9b048161e1d793da22e8
fc8439cdbb9a89c2a8b199b2380768ef
fc84cca62985c5261c72b57ce88845a1
fc8bfdfa36e86872af974051fa630813
fc8963e6219106a9ce9d5f843b675771
fc8c6d7690a8a7ff68d3a99008bfd94c
fc8f39bd1a3da60334c58786a43f0e01
fc8424501454d67097c91103179bef67
fc89c99727e774dacb6035e958b6ee9a
fc8bb1e0ad24ed1701c6bd5925a34c65
fc86582fef5a079e20770029fbb12024
fc8da9f862ad08566db3afaef4ebf406
fc8d1eaecfad0566f60950c2ecfb6621
fc86b25f4f393935e551f45131eb1f66
fc88cf674a9c3670c548eba5fd8c9840
fc87290edb7e549f9a41e795b40f24ea
fc80718784916f4220b6f808d44de794
fc894b0e391ebdb33a9b06feae2115b3
fc81bbc609bbcc7b114610326c3662d5
fc8a0b0d9cfc49e95f3222b7dda1290f
fc8272196d72dc9e30fda777be2297fd
fc82732315abe267a66f467891ab612f
fc83605ff1243717987eed82503337cc
fc8809ac1164c8bbfa447a5ffc265efe
fc874f10ccacf30238ac354bf78cec8b
fc8d5b0499cc746b4927cf885fc3fa79
fc8d6ca136bb0ef6cfda72385e0e71df
fc86b3b3a63018e7baad0723d11b48da
fc8ac6b723147680c4e9800d0cf70716
fc87cbe0ed158d0071b2c2f9bee4deb8
fc8f4ec444d6bc60d0d7aab5e08c2249
fc8f73bcd9f2eb5ccc316cc8ae4fb664
fc8db9466b378afd2fabb5473d1bb1f2
fc85a159f2bdde2cee62f4bae65e9404
fc8d21662c2cd2ceb7f01357db178b02
fc899c92a4ff33aa3faf9532527c8b65
fc80994156d0abcc5772938ed24fc450
fc8941f8c054693c65c264d93344c66b
fc80fbd506a9072b1466f19b70412ded
fc85d4d91123689101703694cf175921
fc83e09adf2735fe490a2b1a04a25b4f
fc82944b8d49b879b21fc37aaff70833
fc8a7a486882178b8c71e5394a10836e
fc80c459af3c69ffb291564a685d2860
fc8c08ccc6e1ebd67cce607c0e3fdbcd
fc8e8b6505938e116f5ce23bd264bf97
fc8aa66815e7a443a0add116a4366604
fc82f090a3f44393079457a89c4d42e4
fc81f8645898cf7557ff2d012f06aec4
fc803f25078acc8b5185668b7430fa49
fc82bba1ad1540c0a2497a740c682592
fc8b06faa17459ba75191f48f3149ae3
fc854ba0c1f554a3fa6bc78cb088e5a3
fc83df7b0f113438dfee4868c2457fec
fc896f1c0c08cf299e3660ee7a5d6d85
fc84637449aa26c371a4a41ff2eacb4e
fc8cad17c9d1197d23cd21dcae5d4ba4
fc8f4b7b9e6a4da62423534a2b933c7a
fc868a84c0ca569c5c527320727d30cf
fc8d2ceff8b81b70228d0356120d4aa9
fc8abc0b9e9a6cff5780faef48c66a09
fc8d4fb7b74bae011b9829b37cf88031
fc8f41743db38f1780da62a1ff21a048
fc82d9143d32689804478fc1d61094b6
fc86feb384429cd4314e5169184e11a1
fc80a1047f5bed83c9fccffa3fe215cb
fc88531ee1d503625c589884e53e1d75
fc829889f5e0e44ac9dd2035911af396
fc8017e0a48f1c48aabf0deb777ccdca
fc8542f585a341af25fe931b3be6d31b
fc8c9674344a6f80d30ed00ca5b23a87
fc8626363ed115e3024cc15541ea164c
fc81a003b75b359f7551653e9d9dbda4
fc803bf8aa0afcdc7c2313a22f81c430
fc80cf15fa69e0c8180eeacd4ea4a9c9
fc85f876b662556a4550f17a7fe720b1
fc81a3f429c2b0eca63a15d03f73c240
fc8985412150e56153e962133df5fa97
fc8e8dd472e4ef6776a8783d64bdd28f
fc8d7b44c091ab19ee93829f857b0949
fc80ae947560ef569006425655de17bf
fc8c8dfde1795f87c7d8d06000cb6a5d
fc804f68e3640caf45375c76e2b51ce1
fc871914723b2e8fb18ea4c3b8bfca16
fc86ede796c6c54cc460f4f8ffcd97ba
fc8ace277b870c7c58514c3c38fcc8af
fc8442d002c15fe4e036a0cdeb2a30a9
fc82dff68f57d35a7e9ccfa41319ee6a
fc88d133d316dacba95f5bbd8e229c61
fc84264ea2412ddb2baeff72188f5c63
fc85c8cdcfc0a2a24828f2ed38f1c65c
fc8debdbb1de6a95399fd0301b2c2715
fc8f0c8fb9ab339526f2560ad0d8a828
fc820fbad49d95321600ea4d12c3a2fb
fc8f2937509bc16a31109f929b01e431
fc8987ebbe193563a21a8b061cd05450
fc824d67a930c511f79a766a1435e8d6
fc88c36b948807f2dd5a4e76bb236244
fc89fd42decbcf77453157c6a28eff84
fc8534978ee37cfcd2ed87c77d6ecd48
fc875ccfda68812112d27b0066f414cd
fc87af46acf09d143c6e34b2e37be4b5
fc81fafba83764dc9f4d4a9a58475eb5
fc8e5cbe2257789f6782d40192839924
fc827c2d8c73efb8f43694c117e2d422
fc8602fc06dd6c459204f4eabb590914
fc8709f98539d8adde1bf3bbd51d6802
fc8e6eb46ffb46f4509d5fe46e05d968
fc80772f588a2f57a2576e42fdd2a71d
fc8649319067b0e189b488d60fea971e
fc8b83964e8b8796825260410971b913
fc86ced75304d76195cb2ac1f850af00
fc80f1f405b23a718372b510334eaf7a
fc8a50a46bd87ce29b598983d54bf5be
fc8fe687135e6c2da337efe7cefbf808
fc8748b506535b4ab9e98d586af411d4
fc8eeca8a75539d0467df01c08519802
fc849d01f283d4d7ef6acf4411f5a7bb
fc814a6c2b4fa2564fdea18bfd2ddc3c
fc85c023dcceb87039958e455d21a704
fc8a68dea514d7168fe00414e4a58e42
fc8eeb27a078dd4f76445d0cadb3071d
fc8b654ed3cf8530f42b2e6f48234a13
fc821c7066761ac8c6feeaa9346b6df0
fc8a8651c3ee6db694d09bc039231dc3
fc82de8800f5134b2d7cde3efa064f6a
fc8df908c16a59dc7504580180468636
fc8d762f90ea806d6f1479fe48060afb
fc8c79ed880b7c53a53e4567cb9c4d42
fc8d82fc369ccf9dc985b5332b07f88e
fc81eb48dc6c50dfb867a047af085007
fc84cb4dedf0b23608363a5aeea726d2
fc8ebc94e34173f710166dd725a20fa4
fc8fd6ad2806550fef76947d91fee1ef
fc8ada40dca672446b7716019e78a918
fc87c92c6eed8cf8f27aca56cff076b2
fc847a009db608dd8a69883c80ca0edc
fc8731bfe4386f69bb6224e316149b06
fc81b7a49e1aff556eb3c8f542411e4a
fc81adee6b083f733d12a11ffd4d968d
fc8fd30ccab7bfaf68c998cf5e2d39ab
fc84476ee4187fee6f761019dd552ced
fc8ead83016a58c176d1b75e7f23a8ed
fc892126850d33b11d7dd4d713faf092
fc8ff636ea25fb76b12bc76daa958fa9
fc898085d657e5d5cab9a900dc6f44f0
fc83f707077208d6ba5981ec9d0345a3
fc8546023c8ca98707d64ac5146d75d0
fc86d62524db739a81f6bab234eb2cce
fc821ff68a7c881fcdc322c5de474a1a
fc83df567872b7e991f99b97a717119d
fc89bc3594beb48bdce1f3aed9f99418
fc8940bc058b6ddf1138bc7b26505f2f
fc864a7490ba64a637e247b66674f74b
fc8995ae49cb5b783e6f5cf45fbcfdc6
fc8f9be80e3689f655386c3298a97e2c
fc88e3b09241a8e0d0e4807a26a7d693
fc80a345105c79ac237c56277353c135
fc849f069ffe5191dfcb3e938ecb6c28
fc86ff522f6dc424e2de92933847cfe9
fc8b7f24dcc231c633c4246aed647754
fc8a02f380a7574129c8dcbc1ab7e0f7
fc8540b9496b744794529b2ba0940615
fc8fe7612a17292ff66e4b89150f4fea
fc83ba2bd90a44557b39b91c3de95542
fc838982b4442172480c998959c54d0e
fc8c7f61275dbf18c2d9c8e28d263228
fc8b2422ed48094f2ffcf2b2054ea809
fc8a1c090b07d8d6a0d76a6893014c22
fc84445f5e202b14bd061df14838d6aa
fc854d65f48258289d9beb98851b9f44
fc8c0dbd3cad6eb27821a1c8c59b21cc
fc80f8070dedb64c6174f5d4bb21767e
fc8df360e5276aa210d8b62a11adb963
fc82efeab27303ae0eec2c6f6590ba33
fc8a34778f4c25c9398fb6b814996ee4
fc8c70dee80d7051637dddbed9ee321d
fc8074047fb483d6345c0216a3b4358c
fc83e65c60acf5e33eba5f1d5778e7ff
fc8e27153171d89ef85126a730918c81
fc8dfaf972319a7ecb50fcbb54c0f651
fc8cc7a0b73196c96f8035dcf95b46eb
fc876a8fd6ab2834e9b9507955cde133
fc844970059e7efa30ee6b9be626329f
fc83735bb3cf1838794d9304e1ce37c8
fc8cdeb9ebb83ca6b0953b5c47cf3f45
fc8a3363c8f7af493a1f1c6aa3b74602
fc8eca745b0dc36c587668ca7e182d46
fc842415c2835341db466c630392e824
fc87a5bd8d4cbd4d45f54254fcbe58db
fc8d51bcca4adc6456696c5a4d7a8a19
fc84c10146ce8dd0ef9a0dee1045435e
fc8630dbd9a8a857ac124eb5168c7e33
fc82041816668d18dbd56659f0aa1889
fc8d3ec5512abacc6272b6854a7a82ba
fc8c3f05780c512591595ae75bbb7b1c
fc8f802d5ed69f73611b3e046a40d381
fc8d0286a7f4ee792866be677fa79c92
fc8206f875247f205d8867e0d488917d
fc8bfc19502b8ae0efb501015cd31cee
fc82fee75bf3bdf6f0ae6f7a2ae3fe9a
fc8a061f432f2046614408995ee74300
fc8dfe5ecb866edf96c3c2f33aee0be5
fc81211175139c6d12a567d300772b49
fc87404f6d662c5ced8d191cdee2d783
fc8292d3b1b400e021242ff7e6f51068
fc8a05c53af7329a20da8b1555caece0
fc899ab5ffdce22d0af408368ea3176c
fc8cbf9261326ea9d0068b81dc7ac120
fc87949f2e9d7f673757a997fece2835
fc8af06404ab64ac5547c0eff2228de8
fc8533dbcc2e1a9d247b3715704a3c09
fc839d8cc5935b302582cf1b333c7d51
fc80a9fca565e1383d514ace7ddbd6b9
fc8d9c3860c009db7e6f102724011ebc
fc8625e5636b9a30f7db8b53da088ab1
fc87867975f20ce799d12aabb5bb14c5
fc84ade2a77846502ae6a92a8fe1cf92
fc8a50266abab3249fe4135f044568f9
fc8d1cb1922c020bc9cc6b344777546b
fc880f7c00e464220abd463d1bd7611d
fc8ed8bc80338b094e0aede47580e531
fc8f493396fc8965b72805b54a007292
fc80268520eb70f96bbca8a231f4a223
fc8946442c7b6a8c1c357c0a0b17d017
fc810b781d921c9b76e4cc04b6d0af9d
fc829e3ca4a44043135a8f5b2316f22d
fc8b1b5730e8f6b86f43147779beec46
fc8ec7db069ca56f5308b8b1425b58a4
fc86749d5f7aeb61d3f5c0245bcb1ec0
fc8e0a1d0239ce93bd652f9bfca5b57c
fc8a8de471c02b2450f35d2779bef7ec
fc8200dd34dc8c17b2fa0a735838c676
fc8bee6c2bb869a662af65b6adbfbaa3
fc8ea0a81f37953fa1c3ef1200d371de
fc81fff1ffc98dd92223850fc3bf8559
fc8759db764826addd0c5412e4577978
fc8f8f4545e9c1d5473775b96004e8e6
fc8057f6be6ecdb841dabc4829452614
fc81c4e67014ab0315daddd18f9053fb
fc85a6ad22cb023b3ee76ca5825f2de1
fc86468a453703a213ccc9fc2476f05a
fc802edd6d5447b6cb01b4f900495cf2
fc849c1a66d59742885902f81bd2dfd2
fc8a13473fa130aeb10b78acc1e431eb
fc8e745af672b5fa87e3e98960d7b712
fc82638762239e79f4e1c02c918dfba7
fc83c8ecaf757b7f3500fc8a3adc5f1d
fc8f87e5cf1ffff92ebe5ca6f9220189
fc87f951ba9a6556a6a191957eddb73d
fc82398e19fefda12c5b4b674b89b663
fc884fe19351f53756e0426b205ceb2f
fc8cb8e6e198dfb4231d88414853d470
fc862dd591d95ecc89dc5fd96f490aa2
fc8fa22fc78478875d276e1f5927eb11
fc8c75a6c583384f158f4ce762545de1
fc890efd995dbcd2cc169dfd72af3101
fc8092575b8997a134353765509bc45d
fc8dec8232f6069ac24382ecdd3bdc6d
fc89576b172e91c8698c219938966c91
fc824c20d29d241a58b1bd8c1965810b
fc8fc2241154cf89830fdbbaa516d17f
fc89188ad7c582b40f868f4d4d4e3837
fc8be5e5557a32e6cbc5b7f4c90f709b
fc8a34e94861009682a60366b3515155
fc8a138c32b07aed7181f1467ae08fb2
fc85c189765828545b0adf131347e7c9
fc8b5bb1b095214a78ddc8a9db93d3c5
fc88a0ae19da7715dc46aa781a62f9f6
fc807ff227affbea7b073c931f5e67b6
fc8bcf8c828633a545c9729a0c3997f4
fc87686565bcaa30b51937fbda3095d6
fc822f118d68d4f724da37f541678491
fc8b4b7517332faae510e6a984cf4179
fc896135bf881c09405b69f9a9032bb5
fc818a2d1eebe09b27c9e20da64a3185
fc8973b6cf5f90b3c5ea005c7b0c9bef
fc8123e5e9a37e9056514fdde892e686
fc8eb2eef6900cfe0f8e29a36dcc68a9
fc86c56345b62b7525ff1f247a6adfc2
fc8cc3944e2ded7569aecfc06eece1e7
