fc98a521b0544fd91da86d0fdcd8244f
fc9d1f39ea7abcf381cfb4fdc879a757
fc9afee7055767fe98ec63ad0e7a4386
fc9c0a9d385c89ea1cbeb5540e444eb2
fc99edd945a014b67e2f1a5c05b8712c
fc9128fa69ace4e9f0624596ad86c1fd
fc992d9eaec529c9daaf4e5a8e7b7f65
fc9cbfb9d6f4212ffdd56d93a36476e3
fc9cbe65d6ae5947c5ac52d3595fba2e
fc98a8e54a1d7614d181c71e54b6a199
fc94c4b0c5b36ea0ed77e7cc8b21b38e
fc9553353306b2c6b9a9a9cb15a95a26
fc94911788b58a57dd6382b6e38bebdd
fc95b6622142df675eaa9c7d9bad2ef3
fc9d6f40c27211f845e041ed45114690
fc9b585c5bc676bb015562cc638cd035
fc9cf03b7ea9348b7a72f8b089917223
fc9f8d08693885b19754f8268a1cf6f1
fc9c61d7071a6bae16da2650fba41d1c
fc99f55da4edc3b2af2ba5b163085c6c
fc9f243d391e98d6d1d3c108d4b7ba02
fc90573d88cbe613b02f4f1dd5441c9f
fc9d1cbbb5680c815c9340d1f08d555b
fc9e7e65662ce9eaf311fea8f0824a53
fc9004baaf174ea2479a566a9a190a78
fc93be5c10049fe98dcefb41cd17ebc9
fc9e3f17c2659d542e6fa5f807f536a1
fc93e1af04d264fa7da821acf856e355
fc97eeb53347a3bcba4b365ee1548535
fc9e82c65098bc5914347654fc3ef5ae
fc90fb773bf874807c9c4b9ecc2da6cd
fc9983bfdef77c4f7ff370e0323e0985
fc9eaedb0ddd72c3bc77f8b1a5e23482
fc908d8fddf17ec6307eb75894566fe1
fc97f8d94fd9990daa787041ed112f1a
fc987f65ba7e225dd3789679842af4b6
fc913a91cc7be42e33edbf5981051f21
fc905f341a9f6bc2e4b6feb416691308
fc9446eeb7cfa04ee1fc2f9678579c5d
fc963e14ee96f35b4ba758c9b017a381
fc95faddb900584e9dae9056809a1a88
fc915e8610dd5b5e737f7f85199780d6
fc9e21e8da7dcc5f729ff56d107fbdb4
fc949d28f0a47be9221b207293c92890
fc9a9d94e16b5810d4312a9769599919
fc9797d930d9f5145bdf0d337ddab84c
fc9dec09cdf5f450c3df7eed3c134e43
fc97ff3f1b60c1f475c8a87a9218f837
fc976371ac0320e5eba721cc7ddb5a24
fc93145466e319aec7d147f6e76042c2
fc9c7277bc2d84d739a4c1fd0e6c0578
fc964b65fa31267b6407463986acecb9
fc925e43f5b250afa0e369971bc51f3d
fc9bde344d55765c5aaef4851d378d05
fc950d8cc0e50939f8201a10492beafe
fc9d0bfc35b19e588d1cd8e5f53ca0a3
fc9937e9d3c360500512bf3c7c255164
fc9f170a278c90e8e5c52e1de8e807df
fc92158623b7976a3d1e6b629d51797d
fc9c9694f40ad6c5d388241d973560b8
fc934f304312e1c319d4fbe46849ab62
fc9b124f0c43aba1dcbc12af49534920
fc90fbd94b7fa70e8012f4c243b9225b
fc9aed9b2e21e21d94444a9dc1af3374
fc9f26e9cb08a23b3f4ddf6190670e8c
fc9673010f66fc802b9e25b32da9a978
fc940b57a698be9d4a845a58ad39f87c
fc93add78fea034bb91972d0c8769824
fc99b707e637fcd004cab3417d45a33c
fc9d58038b727f52d6a76d7dd39abbc6
fc97b3dd5a2aec25c0fff2341ccd4b7a
fc9c634bcdace5fd4233a563c7fb4e27
fc9a13bbc1a9411cd3b8c8d2278b5af9
fc9e67f9157b3e546db159ab530ab9d6
fc96d63ad7818b940a41d3b8ea4e3cef
fc9489af177302a41a7c3b80947df95d
fc95f2918c8046798ccbda0749334ede
fc9e21094f76234ee16e74fe1bb17606
fc98adce1b4ef614a86acce1c2be7f48
fc92c101842070133c2e0484adf2da67
fc9accfd6521180a4eb3f8fb399396ff
fc96a5e459eb280b9e87eba4556de7fb
fc9e21989c27ab8683574137a38e97e1
fc9460bddb2a40eb53c87e84ed32b656
fc9a14ace533ffb8ad0efd68291f3a74
fc926691f450f64e083eebb7976307d4
fc96f5703cdc5eedabf8d3adc81890b6
fc92998fb6cc1d57df3705b7d7209fd7
fc961e01f2ec32122b6ce27bcc8cf3f7
fc9f129881682b20b6f8825dff6b5894
fc9ba9f742c788f671afdf39e670e617
fc9412df61a6b36521f01e732ef46b96
fc9f0b12cb0001c22549c7edd1711b8b
fc96f681092159a742924474df931b00
fc953ee882f3046d675a636930890784
fc98857511a408039c72e7e4c1049748
fc9070b0620aa8b53b235b8564b663b2
fc9324ab36c3f4e5da3dbdd7342c112c
fc9f39ce674357d7cbe331af19f83cf7
fc94e9c1e36db7ce993941b8f3277c30
fc92c0db42db51ca38c61471120bd8a7
fc9abca6bca3190b87aa9f9fd69c6c6d
fc9d65a2a74ec1b52dac3bbcf58f6632
fc9c8cb4d4c83c2b842f5f1f5704ea0a
fc96b4a5b07ac6f7df163022f3461ac0
fc91808ddb8145d8359f6fced6f0124f
fc945ccc8e2791fe8f452cd54e638448
fc9c8e9bd6d108bf03809dc5b9f48f4b
fc933501c1ff8cb7be69fb597716c05f
fc90f09c7e6285b7e633c6cec1571a19
fc9348df08434d1ba95df445eadfc30a
fc9be6c808bb2d232596172633863ee9
fc940ac8d0fe0f90100c7146dc49e737
fc99a8888500d73f619b8768ae7f3ebc
fc96008a309ec09bb83d30d6278de6fe
fc90f3d9fe71a2a9b27418d95ee702bc
fc91f56a59ffa9d5002d76f1c1394ddb
fc9bf1064295d4756aabaf6c13f9a0b6
fc94f9043f9c1e3d9ad5156c85af565d
fc982d996723c84e3167c5cf5c36f80e
fc9f91d8d243d73be20893886e2a7e84
fc9d3da0247f52fd8cdf6fbe916aa970
fc9dd974f1d70335cf5195853be30d72
fc9c9816c6ef80f75201c153d4a836b5
fc972368ac56a2ea1c71b7d9c1fcdf62
fc95969db61c019c295b25ab3942e307
fc94363ddd6e9d28751b4452bd157ea3
fc9e62d8e4f122d3d47437a1839b9136
fc9cc3910dac95642313982448baa7e0
fc9023ba910c6949f3aa80ef31e0d79f
fc91b677c8c6f23ba2f723a7234691bb
fc9c02d115b5023c7c90c4797ce766ba
fc9cf13772cae3f0f51cee5d997090aa
fc927a2bc5a7deafba85fb92c666b18b
fc90afc5eba97ae60a084c88f2fd96b6
fc900533d0f6e17ab07972b1247d5b75
fc94e5ea8037b841e562b017972ef9a8
fc9ddafa639ff030a1fe7422a8064db1
fc915c4439daf70e0a509522de02754a
fc9f3e2c34ac468186efad29c54bcecc
fc9c9a4a34fcb0b70b093f523cf3daea
fc9448b6406df207882015ebc1780981
fc9dc02fadad5bbf5ec0d3435bb1f120
fc94b5544a8013d82197c2f596f89acf
fc959fd77a3a53834da00b230c56fef1
fc9999a2eb2d533d2a1b1d400a9880ef
fc99d96f26b3ccf866fb3aa808aa57a2
fc9bb9963b6f00fce5f1b2530d7a4bb9
fc97244da0cc8f3bc1b5d967a5b64426
fc90d85a1fe48e55e25dfbf6531323a8
fc985e7add0cb36ea033a7bd01942d48
fc9b84ac62984e4d51ada02eca593eab
fc93322d9a52bcc632345372cd184566
fc94d6db619c5fa9c7d5e85089300817
fc90e900a5b6677846551a01bc7df3e2
fc98c5c5746c05a9f81ae80005ca7825
fc9b4ea70ffc78d3ec2301bc26b30b86
fc950ebc95af3b1e24f49be564f5ee1d
fc9c6186832cef1973a1de80b357970d
fc92baaa62809b2db0a2d5b530adb3ba
fc9cb8b2dee6066e9efd99b457e585ab
fc98b9aca2849a271b4042fa0ef917f2
fc985a0e2d4885f989fd0ede5ee8b3bf
fc962032f56635b52ec14734df53339b
fc98e02a7306bebf4d2203bf63bb1f09
fc9d7bf8defd1624185abc5e2f9550ff
fc9357962382951ef619621eb420389d
fc9e5ff3291cef9ddb2d562a78888815
fc9b04d3d9934072fcdb5ace46648f2d
fc92b7d379c853b716e6f4f3a51091d7
fc9c99ebe62147599a9a90d7ac520fde
fc90675a4ab3be845558d10e4d901b84
fc9f1fa74d9d914decebc638eb2453c1
fc9447dbe12f759ea6651e9f63a0ee39
fc9d00dea55b99aa7650ac95400206ac
fc97dc7ce2b6b48353dc00c23f1366ff
fc9c893441d68cbd83b8d2de588b0089
fc911b5ed8a3764ab2e66868b86f5670
fc9545ddd8f87033ffaa390f15a51443
fc9746235414b2ae7efc5334ed57455a
fc9bffbe7a6fd051afbd07354ecbf02e
fc9bbbd750f3b21cf589e5b6c5f70c8d
fc913219d0cc5e8390603131d4f3b006
fc91d83d8cbad04078c213600206da2c
fc956152b9fea93264aba83a2e6f0182
fc9452ef0337c6591ee696f0e9ccfe1d
fc9a387982bd31af2ab4a65668f8f176
fc9df12f9060f054fa8b663e06a1f94d
fc9b0f7b386c022db15a3491caee0846
fc933148d30ee780976892bdf2fcc94d
fc9c2a4ac786376c9821bd3335b04121
fc92d256fc191bf8157a9c608c1ea5d1
fc9398c8782611b62f574a44d1b7eb55
fc9c7efd0a842bd2c49a2ad236dc820f
fc9e6da50852e5fde66fb4fee811fe7a
fc9192d34f1ea8557bf134f10590d14e
fc949d38a87477b5676d37f2bdea0c00
fc9f5fac1ac854b4875531454395b041
fc987d9ea70a94129c06c51f498420d4
fc9bd66e50db8abaf8b52220de6f1f8d
fc9f8f63d332413dc38aaa31d7971241
fc92383afe5cb1d25b9c7fca6b0f5d4b
fc9b6787203a7de06ebc94b1dcc7b997
fc91d121ab258fef99c8c6e001c01acd
fc9da8584c4cc19812de65731d20d01c
fc923bac0fa93ab073334595aa7f4551
fc964b40e2f14f55072becba25a3d8ee
fc977a56f67f54790399f37801f0bddf
fc9a741be9943c159e1861ce94f50b5a
fc937504cecd0ce882c009008f41c512
fc9087fdd8f08ce66ec91a0f3026c6e4
fc940dcb22ed58663c0980c70402c731
fc9b4221fffb72adf3ff144a74c0edf7
fc94e23754d853878ffac1eb8b38f6c7
fc9991e711207982666c2309d55796ec
fc961f172c971c7faa92472633293202
fc91dda290922fdb2314ef94e57306cc
fc977f26de00469a8974dc21a971125f
fc9d8a3fb108c90a0e6cd19501d9d704
fc957d39f40969bd299c8d09f0e23257
fc9108e34749980f55ac4986905354bb
fc93cc293d5e58c5a7e5973a29e35f36
fc9a1f01954f32dc52ba43b685e2ba68
fc93375592a9ffac6c4046453f72f727
fc9eba257410b9df60c2ca3704d29418
fc995d69889bb0d9863cadfa50bedd93
fc96324aab9855bd2b0a3506064736d1
fc99051ded6dfbcaf1713c4745c7b1c2
fc94e3debc8ff4a89b0c6f4a5a56ae3e
fc973d5abab21277e9a31963c5c3507e
fc942668397de0af01b01925638192bc
fc9041d5182661b104d300040c9388e3
fc9d4f3d5088f0cd9d1beca595f61247
fc926a5e7a9515ecb44ec655db5fbcac
fc979c0f2a2c55b6f06d95319515ef36
fc973c35c3825755ec1b6968a6b5a9f1
fc9e8439e0deaf7825dae0396874f657
fc970ba98d8a2fde5f1d54a3c061dac7
fc9a03eb27b6b6f8f752f4fe17346918
fc9673b2b4387e8b5f842fc804623ab7
fc9a0c938d2e7364bfc6e2237d908c43
fc92de088fcdf785ac1af69b5633bff5
fc9f3ae2120f35b60f87d9163cb0081d
fc9260654d179edd3ee5f9b705d7f82a
fc9502473e2afdde39d416bb5db573bd
fc940f81c6f6d4b0ac5f23a09398e9d0
fc9b2ee280ea6c8a546731e9e22e2faa
fc92703923b389db853bb469fe32651a
fc98b4b4f0ceb25783d26c62c39d700d
fc92e973b24d3f14976c0f0d6672a1b3
fc9304ee5e59a0d8058779357589133f
fc9689a8cd045ad9757f70f29a4fd024
fc96107916d966f981b09bfe3b5a8975
fc97f3ac44386795514b2409088324b3
fc984afe47f7210e60b972be7f059502
fc915159b60972231903a7aecd554127
fc9aba031f1cb425c7b4521179fdd528
fc986213c463b6806d359411a289856b
fc9ca5647ddb1a5bf7b6883fd51d43b8
fc9471cef1b470e12694d34ad9a69863
fc9dd74db511c2036eb6cd08bcceaedc
fc901456ff7439461eb2e7b9cfac56b2
fc92e1282e42671770997cd023660c9c
fc95db3ab50fd111d5cf54d33eeaff13
fc94499bfda2f6744d04db4a91623cf4
fc9c2a1abefe49c3e91b225dd48aac9d
fc94f977ce7fb510fa3ccbfa25b3f167
fc9e5862aa21a499a57e4bffe6e8d400
fc90fcf565618ce50a52221453053173
fc9f955f19b1c2c08e0b8867add68c83
fc971e89eb4f1848a57738940eb33014
fc99793a40ae802d4bc0ce8d9cee892d
fc95e925608c8f90e4f1e34eb0e258da
fc90fd0720236ce917cb3373f0a0b977
fc9bd777ad226e15cf44916695fee7ce
fc92a3c61e58f297f4d204033b307eca
fc98688def17d54d01ef009f66149702
fc905c42e917cfd2575c9e907c03deda
fc973629e489d0b2522f21e7c13896e5
fc92da2f24d632faaf2997b32b6acb5b
fc9a0f70128f59eb899a251e8cd7d635
fc94f5fff6139287d13c97e7fb19b7c4
fc9906142aa375636e7d7ba67ab2ef7b
fc9afdec3366228977f39ac3cfdc1bfe
fc9e4352079cc1c44970dc2e5f9eaf56
fc9e3776ee59f10293a0ae3d97348dc5
fc96447bef56c6d61224fa709c2a2adc
fc9c02f768ef61245cb96b7a7aea44a9
fc9abf2479ec63ed48bc6c5e5f043bf4
fc9469e9c0424cf61f16779197bb7765
fc9a23876da99b79b2dc26255dc92fc0
fc99e796bac03ddd35a9c35f8085c5c3
fc9eefac1d78efb95797bd1f2703e3fe
fc9f30be03dbe2b1c6b6461fb70df418
fc96b0ca0b9d7f30c2c334778c89695c
fc90355270936d3cc36453fd8dc8388a
fc9b7e3543aa15cae01ccc665396be8a
fc968e73a5d5b6d0b0080a5f25c500d9
fc984141ce57729d395206029ea6553e
fc99589b9d7da724dc2dcef48e0195db
fc915d9cc901046cad423431cd94ec8b
fc97e580be501cb4f014c2e90927112f
fc927bb70fa5a4218bf7df9e0d326075
fc91b3481c27d86070ee00341a575fa7
fc9f726a9d37c996a77f2f672fd244bb
fc96d06b6cbf0c99df1ea598defcd8dd
fc98c3620dd780dc97bcb0fa2fd7d65c
fc9000cfcc364c1e8a2b94b5dc0ef7b2
fc9909625376e6e9525e3d9dd4d67c55
fc983785481cbd892fe0a25404be958f
fc9d9bb73809f5d9b6a589072c27b1b2
fc991754facebbfe0bc1327db9c0566b
fc97f9a5d43c4ba080583b3bbb8c4034
fc9e7fd89dd2fe2860c83b4a2fcd0762
fc9cb535a5d8f2661a7ffc28f74e1f41
fc9ba048d4f957d6f81a763f79f33642
fc979087c6c8fc205aa0d973d604fac8
fc9763883865751b3db825acc37e1932
fc9d7c044b964d6a428c4fa3996885d1
fc9d566c8b8006e22a9cdc75bed4b537
fc93d65d3fb5eba95934b2bcbfc396e4
fc9b09489f1947fb3c81b8d95ad61cf4
fc91f71bd9849df00be889434e8c66bb
fc9bbaa5372df3d57a314f4fc77796bb
fc9cba7f669140809674b43f8156d49b
fc9f21142cd66e24e7a8647e2bf5c1e9
fc98a97ed10a14560a45c2bdfe4bef9a
fc9d12ed4387576715568d4e732cca61
fc913a6e214f7cda94d86c6240d9abf0
fc98e6421a887ff93a5bc0a57863d40c
fc980cfa0be6f1f4cd1fc67c1be455e4
fc980a370077b4af17f3f73b3bc40423
fc9acd3e66bc3ae432057964fda1af08
fc978fc9d439c38c5f1a9b810d66183a
fc90be756785c7ca29ee244ca4d351a3
fc93ced7d1ec1c9ddb58410a8be83626
fc99e53b0597f324b8a6e6cfa38448bb
fc9596c1d40b1561d8d41a571bb968d4
fc97552eb994ba905305ca70b9f8c8d1
fc9ad42b7659ee9129f7faf7cfd1e00e
fc98ad484d839844e751f3b14ab12eda
fc9c78790db574b120f598d223a16d2a
fc99a1d7361098bae7d643176fc0942e
fc999db60585146a217f589f15a35402
fc96f7bd50cc9eb2a49c677573843b69
fc9f25a56457745af619a9f97c408591
fc94739b3cb46116b8408f77918ffb31
fc9ef43fd92defa751be31e86a57ef9f
fc9636c6aff123fd62220cb1bfe35928
fc94457526bc160db558062c69942ec4
fc9823c5536d83831ad6a8b5ee7fff65
fc9ac8e6a9445744f9f6b2026c5e0757
fc9e9474b0e651e773b24aa664a97306
fc9a283a1c47b743f2011b2106a225f9
fc9a8291fe6d36629fc54850a6bc2b59
fc93127e523277227ae20b21b09a153c
fc9f6036e49b5d4ce3f6bfc356ffad24
fc90475b354329de8e19b33121d15352
fc9a1a86a0cf6217161837edcd0fd06d
fc97fc316e0c8a1061b49263cbfc3623
fc9bbdd37f8e293d41f7890779c3d1d8
fc99218ac62ea8f582e50ca3293c89c4
fc90e62539d06411efd655a9210a6f56
fc9f6a73ea7bd3423fc2fc915c33d320
fc90b7f9bdb31d604d09e0bdc7175d4c
fc90e6216d713b01b69b571916d4fe0b
fc9674e68636a80a7c1581d171b6cf47
fc9093b77217cb501cc0039be6e270ef
fc9fea50b089bbfd243b607723ab2786
fc99b375686df104d5bdf74d4aebbd33
fc982082f5fe273155d6be8342501bc4
fc917be4dfde1cab0f2ea7e9997658f2
fc9005f8e052ad5c0d22fea14b168fc0
fc962535105b8c6c9d8fdbcea4f88443
fc947e8a4ea550c75dd2954b58c6ad44
fc915925c88ce95e1516f83d822a971c
fc9b8bbc1f0c6157e99eb3590adba250
fc99c7b8512fcc6a007e0d96d9e664c0
fc9361b8af21d6922d32b7e6671e5fab
fc923866b764881f3a47aa8b70f18b03
fc9154043170415a8ea033a4d957825f
fc9309706dbfda7eff589bf72b27b2cb
fc9e3787c92a8bfa7abd6c1d33041084
fc92c093dbd366e84ccc11359f138bb2
fc940d3e6c0ffb76e12f471926ced6d6
fc9aa994cd12412a9a796ebdc7b4c8c8
fc92a4a9cbaf5e08e555d8c4c67deef1
fc99702328babed6fcb5294bddf453f0
fc9b9c80a226b5db526928a9cf9b4ce0
fc9cc0fd32874c5a912cadaf8a47a0ab
fc92ae75306763a13e7c663f8261cc58
fc9b5e253b8273148f6e10bce775a8b4
fc9c924be4517a769788ff940c619817
fc987900d4895ef4e65c5ea739517772
fc9a1f54bc622ecf792164e71fc31770
fc909996bcd41a59448ffe3625f80285
fc96a2b55a5c45990cce5caac5733b10
fc95aaa02f93c6d2922595cc6caca947
fc96045827d0ea2a62642e75c88be0f6
fc9d9b2be346a4f3c293db2151fdbed5
fc9fa695eb11caa17ee7860f48ffdd03
fc943c24f015705b055b4f49daa7bd21
fc98583e428253f43a9ea322ca1d2428
fc9eccbc3c8b24e660c57a043e8a1450
fc9f7b5fd5cde9104d1e5896d0dedaf2
fc95b1de19373885dbdfe213d667696f
fc9d06975149d51a17b33d019c527253
fc910ea32a0f2933384ed4586940bd13
fc9a6c32dcb3e205268b4db3d4da8cb9
fc972f96acb557ac4c34029f1f2bbf46
fc9c98a224cddf242d6802ad8bff7151
fc9cb71c9674d061010de34869c70b60
fc911bd24dfab44c0f4426411f8dbcfc
fc92b3d9c6c7c26cef4b89e6bd091379
fc98172cc8b8e1d51815cb1a8338e77a
fc930b59a4bde0460401dacc969affde
fc9afac2a3f7c0e617c6e0b1cd8ce733
fc99c2ecf3d21ec5701c9440371167f5
fc979db876f5ef6ad83c45ac759d3e50
fc90f647796e0fa6f6b6e41c2a579fda
fc91770d85e6983fff3f9862ef06784b
fc9b9e0dfa8adf9ffb2ac05fcccfb00e
fc9775ef18f67807c31bf86fef2689bb
fc9a47ab55a5f4be8252b4cd4e242afc
fc938b0c7a794f795e520e675daf3d27
fc92f954cd534de52fd3486815004596
fc9dadd9069131eab616d1a988458f1b
fc9ace4f9cdac226c62cdd8a0df9b201
fc9343b2ac423057b1f2877baedf5070
fc971b9ad7be1ed0a4e4f0be22c017be
fc93b05987f773496ca0affd13d10155
fc993678aa0568029fb4f36a07c4070c
fc94a9d554dc42c0f9a194619a17ab42
fc96d7112e7e0222fa4433a1f1ce9bfe
fc9cc66be301428f7fe04e31c921ff93
fc92d77bacee99f510c95c47f2a4e414
fc9d9cd036bacb9019d353941c1911a9
fc94adc289873550ea8d02e1b275ed24
fc9a7e110a621559a9d1f8f6bcef8825
fc9207473257397f2ae82250d75889dc
fc9e15cad771aceee53423d7c6ce84d2
fc9abfa0c40dbbd5e86f78dd3533b027
fc98247cdc152b0528118a6a18790da4
fc961cbdb3cfebdc0108183d364e4534
fc98a2e8dd8cc024a1be39450b825e3f
fc97a9a2e0d1755335b68aacb101dbdf
fc947c15d5549ca699d019b0f323eda2
fc966c9697f604bbf4ab1866103cf8e9
fc9565c3a581a5be500a24ab926a16fb
fc902239442a5ddf45a31a447f09e9b8
fc9f9e70db03e1cf262d114bf166f5e2
fc959efa673c5a44d39fb9d47240e927
fc914e639998837f7d5a9ee79e9da34d
fc99fbd73f4dc18545d3ace8925abad2
fc9e70da0434480b733a0f0e3058fa82
fc95dc2eec40228be453fe3dcfc28ab0
fc99efa1a82776ec852373a18c92c612
fc9d4e3a66d23ffbaf7ee65a8c96bef7
fc90621d03afa3fd056d96ce7333bbe7
fc992a277c0fa8e301664fd107b86c96
fc9bb078962b96c0758a0dcad6f4ec19
fc9bf3b146fb9ee5bc5404075acd1918
fc9c5093d92b837e2cb61bad0948bb43
fc96ae2dd4196d3b38ff79ad014b45ab
fc960bd636fffc9c136445149ac6ff04
fc9ad632bc18f99195965c220405b348
fc99b4c3a6e3dcaf195da02c86f0c409
fc9abfd77c79feae3a6d6347a0cfd4af
fc9620c0b67d0963589629369698a03d
fc943aa08aae52d581697081800d7bd1
fc9e763ccccc7768251225733095af74
fc99cb838a24b667eeb328cde8f787e8
fc974163ce67dcd686dfd5e2c73df8ef
fc913a45379c8ff5d630551c953d9103
fc9950fd930dfd2d284513276ffc8efd
fc9cc3bd8695f25a961a2f03196ea009
fc9ae6c3b28888128e97d5c20cfe6f7c
fc9a60226616caf178edc9d1eebea064
fc92c0fb3b271a900c87dd5690a7e216
fc9a202ca64f9b7159478fb5ec00d84c
fc9e7b558c5ae2e17d65d115371260a0
fc98caf222f7e91c64a2928e97b21f64
fc9d34c1fb0950b98d5c537adb23b92a
fc9ec7496530ae32301f06898d9ce56f
fc967189ad0c1da5b43d637469cc1601
fc979661c1073de6de1265dfb9f4292d
fc90efba3f7a2fafc1f624b010a48e68
fc92b63be3ac0a9579e662ec9c5e6d29
fc98286b1199ea6e2439bfd21afb0039
fc9ae1fe339b1f558c39e86c297b552c
fc972488f2bdf40e4fb36600a25f233b
fc95a779548e7d287a7b356d59172ce7
fc99a092f5a094526a70391c263d7c6d
fc9923c0a19b8ac98608448f4c5e8a8e
fc9aa7b91c2be15615f4bed2036427dc
fc9b2ba4d95023ca10ec723571977718
fc9c0e0addc0af7a8e7ee86ac502fd49
fc91dfd291543a24a6050e8be172db2f
fc99582863459a3ab14992455a1e76fb
fc9adef8787dd2f3623225ca75913b69
fc98570b8d2b44b28c10b4bf74e5ae44
fc954bc022a77021fae7b509f43354c7
fc9b6b2c4d4e9cccee55383dc6d865ff
fc9ef757e240cb2e03f2bac2cdbf76a9
fc9376028be1be669a856d54edc86e09
fc9c4bba2ba0e24bf34c74e6d0b659f2
fc9f3d6a230178554586453fc42944a4
fc992f7b1cadc91000d37eeaf5154810
fc95e991833e70a81cdc1adc16e48c6e
fc91af701b13756d8c4649fbf9765d39
fc987e0da8627815047c332a2f2e48e3
fc93f103d525130f3b8851692cc0ed26
fc9af4a88baa4ea43f168d903daa45f0
fc92efa579ab768493f7ef047e65fa5d
fc97bc8b91613a7b1c86b9387439be66
fc954ca477b14ff1faf0593abbe98243
fc93ae609a21bc3f8d4259701cdeb310
fc9b9b312a2b86750f324b112bfade34
fc9967c208a0f1e4ade8d45c88840b1f
fc9bca9265dee2c714d791fb6f6396a2
fc915770b9450de05aa99e901df0c49b
fc9a5b0cfc0ee6f1cc6909795c5a633d
fc976a6d73a23767dc18e098b5af1447
fc906f8521571dbecf6395d6b02077ad
fc997ae51f91fe89c30b01299ad4e8f0
fc9a12d25deafd88210d781e1de6a96c
fc9ad47037eea34cc488536907351369
fc95e7f088261094d6beaf21cbd9c602
fc9c7cb793b3873d5fc587ffc170c7b4
fc9d2ef65c95802beebc0de5087fcf81
fc9803a5a18c8c8b4f8005e5273895e9
fc93da4e80b373ff7b64999c609a0d75
fc99aeaa8538d630d3effc1820ee75dc
fc9d202aad7762f9be0bd790822994f6
fc9fe213e54881433c3df3d07d838fbe
fc9335a40eeb5081862df9d8b60ac97e
fc9568ebb5e37288e5722b599b62a0ca
fc98f83dae07fdb3fd3f36568fb2a209
fc98a3999743c5214b0c91d51e9af23c
fc9139a116149fb5833f2726d37a8f3e
fc9da5381597caa104e52abbdc7f110f
fc9e631700035ab30ae64c1970b3c571
fc9ab80f38a2e015554120a5516a0f56
fc9cd130e42912373914ddcfa64c2c44
fc9edb7e7eb6b0bf1f96961a5a9cd4ee
fc96726cec1ef0456533de041b912830
fc9d5e74e5a217fc7b91fe9447624174
fc939b9233f6d1fe82e44eaaa480d4eb
fc9fff28b737cce917df4c75674b7ee8
fc9008f9ca468da3266c177d5b6c413d
fc969ace7951db0bb671663095a1633a
fc9e2453cd72360b29c4b5470734a7eb
fc918a22c5447ad92790b23ab895c556
fc942dabf08733f6a195c026cb14342c
fc95945ae2bd105027aa34925446c883
fc986294d13426c4966ff23c3cc3bc3b
fc95676ad2edfb4cedce90331d4a054a
fc92c1de5c73c9fb807c5d87bf8483f4
fc9cbbba08ee44ec11c4d078a478dab7
fc9b27ec3b6c13a5be99cc3d9e5c7d98
fc93e55355e2ac56ee1338645ef581d8
fc90d0ce9dba48e21248e37df1813b30
fc9a3fd8132fdbf730fef44595df79de
fc9005c9c664d9a01be305b90e3312ce
fc99bdafaca9cbbf1bc6c68d8172e8e0
fc950769b150a64035a7efcc0e816c13
fc9095d1b5f454c53921618e8c78bcde
fc94429300246cd20a3f3e74df4acbe9
fc9dd6c04d88b072d56b58405520c6de
fc92672c2f9bb245f2a65be92b343b54
fc9ff224db82e4bb57666f0947ce5ad7
fc97e04eb9e1aaff2a937b39bf2293b2
fc9bd1c487ab496bbe4ae0ee5edcf931
fc90fb21011b519e5d1833676e67534f
fc944024bbbd03c38dc1233260e295b4
fc97769f77fdd497e410291e7cd9355d
fc97609ad309340f22abda61342ffb50
fc963680f4d79b9844e958b31975cb84
fc984a3231cb99c8790e7fa788e387c8
fc9d2fd65184a99dd80049fed0c35c9d
fc9f5acbae6b596ebf8ac08193f265f2
fc9a6e09eb31aa20870780f0005318b8
fc95a61e18455192c3a04c74bb35f4e7
fc962942ac89e1fd6bfc79ce94f88c7c
fc9d69a64ed52d91ba3ec4cbe5de163b
fc94d11875d2084842898a0686c1778c
fc93a70c465d1a16954b2a23630e4ad9
fc9bd161c2d98aecb10f3710fea9ac69
fc9397ee1ba39c6a08fac84410a8f635
fc945904f9f5d179823253e9808b3cf8
fc95fc34bb4b7fd06e7966f8d6db026f
fc969b94a603b784ad39010647b40f85
fc91c5efea8374e97da2ad3a901173da
fc91e3040074deef0e4364c4adf40e10
fc9d7b17893d58d31d5fb2552cf6568c
fc939a30019dd388e6c68de7f2a25ab0
fc9ffd507a525ae76b0ed8c73ff961ea
fc9916aee1b7432a891132a272a8ee8a
fc9b212c5eddacf14167109175c49c98
fc98a694b9b23ac921ce59f8fd01fc4e
fc92c50edcfa5b0ba112c1602e2d6673
fc98c4ec47bba565f8dc939518b1a2f7
fc9936300e92a479830939d56b857551
fc9a5f6b81a1633ef20dc374722c17e4
fc9b332e1de85f758318474db83fc252
fc99b65f24c00ea5eae432fa1085c7ac
fc919619c994b0feab5f573c097b5d04
fc9727d9b3cd8efc7c83cc68b2b3ad02
fc9f2f9c3806868301298a1d2feda07e
fc9409e802a4916b6d53044165a67275
fc9c1f7ac03027d69a81fbec7ce863ab
fc9e030250f0d1950703cb2206f02f39
fc984e6c003d28d11d55619fcdc8d9cc
fc9505616de9985ddb8d2a6b07edbaa1
fc90f083153091d397eb0470aa33b6dc
fc9d012a10f8d7c8c2c2e2cb8c734a4e
fc9a3c3ffaa705742cb8103adf4958d3
fc90ea7147cf6b50f2ec82c464f8699a
fc9a113e3fc90603778eeeea85eb20e3
fc99c47b0e4ff70a85156c2a96669bb3
fc940b4f9dffdb53e9d0d04cddc372e9
fc9ae3ac7373cfad678145d638154ad3
fc9f9f94c6dec506ac136155d2509717
fc937253d4c38e60170bf4240296452a
fc9e4bc7f63bd99384bf27c9b1ec132f
fc95862d63dcd957928c8f79d68a15d7
fc97487c6dbdee6437e16c7bcc3d055c
fc904e8c1450958a15e901057dfb6220
fc907f9a764077eb12c28d2e943a27f9
fc9c7cfae02db4795772981c88f38010
fc96f83b8029aef376ad9f6289efef36
fc9488c2fbaf671f329ebc78317a94cc
fc910ff1442e57ab6e07b0a0d557dc85
fc98a06b415bef2bb096e1ab5f8962e4
fc9ed27d4c9df0e5e640cd4dcf4e3474
fc96b78841d4d2bfb0e9086eee5051d4
fc92de045e6ff237bda35d65141c878d
fc931457e0a47b6659e242dff0101676
fc9db9ca7ebf299318a3c89f2aa61457
fc92cb25c0420bd0d83931ecc5aab9b3
fc96260d7d118022316eb59707d50d14
fc9d8b67e5b79fe10ab509323b729124
fc9f113631e1c57873fd38d69ccb0248
fc9d6362f401153c3e43c2bc51a6282d
fc943af046b682f630753e1b8ddd2113
fc91793461c5c0171704866d3c05d384
fc9505fad0eb3e6b7d9f203073e8d4f1
fc97f240fe1a239c91ed11f6f31e85fc
fc9e0b3624e29ff5ad8ccafafeac097c
fc94fcebcf170f3245b59b9f4c06c8f2
fc938a45f14ba060c4ec1430c415f93b
fc998eb2548983b96fcaaf505bef6502
fc9d7075a6b9ecc0977844d699c13261
fc9e70055f0df1063e8f3a2562e3e0d1
fc969daccd79e2a5e432ce635a5e6429
fc949a023e57b75620f30e4765c2726e
fc92efd4afc37665c91a318186ca3587
fc9ad74df9b11d7ee7db32adaef0944a
fc90bc13c63942e8c89b282efcba7bac
fc989732296956359dce65cf065ae717
fc9f05621eb50b6ae73a58bbd99e8b87
fc93f23e7beb7f8ff4443c01f6b893c6
fc98c9ee83133808395337c83af1870c
fc913a7762e95b84bf57f3b8b0d32e89
fc91907ee8851c4d897ff145a7c240c2
fc93db2f84e15e7164c0343169285c45
fc9ed238f51dda11fc977b71b9157ba8
fc92f456169508831f56bf5023d56e66
fc95f3502990f9b408b07ac0889a8c54
fc94ae0a0e083a968514460e384b78c3
fc9e0587fbecb46cf32757433c1ccb4d
fc95f8cdf08232c5bdbb460e08ed4be7
fc903ed7afc1a09b1564f047919289a2
fc91c0c92d9620678cf203de33deb8af
fc96ffa10f8203d4490b60e8dd5f15a8
fc91ddb67754625d78fdaaa0857470a5
fc9b8dcf481231a92a25dafe6b53622f
fc9636f9d5f76b60fcc8021baf85dbd5
fc9877330b681898675dc3bbeb525040
fc99835d9d44087e67a6f8d98125c4c0
fc95736a0d62ff57425ec15e89128b46
fc97f021ba5b81aa3bd8db98f7dfe64a
fc9c233f579024016428de94db2c521a
fc9ee4ac3e9049034fa0115e6e1e0ce7
fc9823aa00e1847a12c9dc05c870f120
fc97d0c9d187c46ec4d3d8349172e12d
fc9298a8dbfa2ad0d91946b22f36472a
fc99e2ce99f75d9c84db1219ff56737e
fc9d732fda4dc2dd9ff593b540eaf07c
fc9fca46165816804581b9bf1dfd9f48
fc91724277e837652010aa22bb201108
fc9d382b9b02cd54d18fb56ecdb303ce
fc9ad511f54a8a8290441474cbc9a685
fc9a33711cd6d7c199c76c656a7b506f
fc92c41092432f02be0e9b17c5c0968a
fc9094c27a5b82dc252ddcb5bf45a9b2
fc99250909229ac93d1abe142b5607db
fc9508922c680df0043c04b3e32b0e64
fc9ac8196a29801732a74569a10e2e12
fc9fd173a9be3b5b55c69f33d912d16c
fc92cb96d77d0573b3749ba8fbbd6a0d
fc918b3b8cbf30818e624546a6d77dd3
fc99c5555acb5a693603b02b0b73a0d5
fc9fa4da7f16044da01c4a37b57e9fec
fc97a9be806c4409f7d6a375c82380d3
fc96e658268279a15cf939fa5413df0a
fc956e4067543b2a57e7ce151977fd58
fc9fc9dad772b44196ccf5f7506e2cd2
fc9894400fa92b6db47cf9f29282fd36
fc9aea7e462474a7c3d882d7025de957
fc96943bd2cc9b4012c35182e90b214e
fc9a15ac96041f6d3f0f8a6482c9ecfe
fc9c07a634edf8c91d5b65d651534593
fc9ae2cf8006c2702c75fdba491e4b09
fc93ae5ee63b1b7bb8597e25e3e41c11
fc9aeb37541d0e366cdecf9561865704
fc9380be994cff6c464b2de8f893dddc
fc9ead2a9e14f31bf9f5decef66ed3e5
fc9a4c2b0bc6b10fc8af47a9bc50afbd
fc9390fff8b56a6fa5e378481fd77bbe
fc9594d2bb0016622c20d40981bc2945
fc94538f8cdc162e1896eea005963426
fc9b93d17fe62b170ee83ed99388a621
fc97e314325b85dd548e85ba88ddb48a
fc9720acf5ed35401b6d03c9de9884ed
fc9828a7b67f379c62b053217634cdc4
fc9eb7113de686deaee09f6fb86ae0fe
fc96179ac5362678b844a0ab97ba752b
fc90ff08ade1f8c2eefebad7d1425e1b
fc99ff4ded3412fe0076fca029409b79
fc92e56a17114607acec440137a0664d
fc90dcbb0e4cc63f40c64b2b1435f81d
fc9b439f000c74c2b14c1c52e83390fa
fc92bc6e07d95e95615ef781f86284a6
fc9c6699480ac56f551f8b499f754063
fc9db90dad2137ee0c91127efc5c647e
fc99deea1aca390938d55ebe6129bb35
fc92c32a2076eff68c8769a0b1421eb6
fc9be067aa139f379a1bf649129526b8
fc9dab2709385eeae265a2825aeceba2
fc9d9c7bd14d817a47197322cd2e4b8f
fc902689fdcb6c15c773b9eb20e56cba
fc94f5f34dae491aea40030f2977dc01
fc902d5e819528d1754b7e8a5691a031
fc97602e992b975ea68bc3f06d7a6241
fc9d1425b9e133c95ef5247c8a30cf1f
fc97695a5b629213e6a19ecc56746a06
fc98eb721760eefa8092fc73b32e6185
fc97835b398b71e8383dfb45bdad00ee
fc98a4d3834ff66c1a68811b1173d9cb
fc96261b6081039b996fe737c50e57ef
fc9df920eff867c9e8fc64255eeb7dc1
fc960ae22b75082f4085bd3f6af996da
fc902c9de1e58e73a7d0c0e99b2d493c
fc9dbaa5a9286a567671010a68f11e79
fc93385391a9b6169c2e4f21bcaa1581
fc9e2ec2446dbb18c47e8549a86aba71
fc97fdbe1e55fe0d58be33a802f61117
fc90a0099cf8c8db9c42658d984ad3bc
fc98f1a4b42f591679f88b61ef4606fd
fc900b3487b6da72ff9e82d7334d1cdd
fc93648b11e0e086bdd864b5bc49e387
fc9488c2048937be6aeef15d514b3cc5
fc9ba8e24f0c00f57286cb69db8033d1
fc939b8d285ebc2db26b0e100f0fc31b
fc9cd50c0718d83bd47edd02a5847a89
fc922d7b51ffca7b7d28f1801cedadb5
fc931c4e2d1ff592d606dbb96451e891
fc9a14de6fdbffdb21462f1fac3aa6b0
fc96e2081cdffa216a2f60d3e1f61bda
fc9495d4c0db1d8198a3e0c1fe3855f1
fc9964fce0e95cdefc25b29223149daf
fc91e09b3649fea3868c1ad4859d4c5c
fc91c5efb7d02ceeacc9bed62f2307b8
fc91b0b21bfb72e8d02aa30da6611c1c
fc991e6fc4b5f3d81b8a90d9159794ae
fc9bc42799bacc6c646ab75cb7c8c74b
fc97a416b397f45b932055d8c3a5d3cc
fc96592a52817060fe218da8fdd6bb34
fc9d0ec529e954e9b7d9f315eaa6a67a
fc97f13858dc4f5e688778cdd7ffb2fe
fc9d159ab9945f7ddbf481da46655f1e
fc9b1e60fbba591c97bbf9281e81ea7f
fc911c819b5e3322c3d6230b8b2deca9
fc98bada9f6a46f43aab379e82bc8ba7
fc92e5fb460da4a9f9ea10bc75e899dd
fc9e6aea1f41ef1c06599650e250a7fa
fc9d291e963f41fd7fdbd94a0b24637c
fc95878462d539c9c25f625350d34f7a
fc93192ef62bfadda8468c7e98a14835
fc905636b5a81eb55560b7a743066a51
fc9b6fe02bc802f7b642ffd42a4ff9f5
fc93ccd236779993e35703e0d8496c4c
fc9ecac00d56c68203117618f8accde6
fc9e5b6c7a9a76c1d1b5aed238372ffc
fc91cc3811dc9f2f3ae004b011ebc6d4
fc9bcadc37c46f42ff86a2afafecc09c
fc90407b062b797dda1515bb812d5745
fc9cc9fe03752d8cb14178cd4aca25b5
fc929cbc6d2d6f9692a39dce0714a695
fc9f42164dd329cb1318d68694486bc2
fc96b44c198bf8502b09ade4c9dfe709
fc916cc44643df8e538d93eb7e87cc87
fc9711c677cef1aa4ee3a0936acf743a
fc98ce855a31094072970bb4412c5cbf
fc9830da4685b6f8036a8c607962f714
fc952ed0397181ed35fd782aa385127c
fc9e0d3fb67308efb72a5afbe1d443ac
fc9bfbe3760837f071ce41c57543338d
fc94a4b94e2a89dd59e00b1c47c48ad5
fc9a1ada4cbdf8113b05d335b71cf0b5
fc9cbcd296b5c697dcb7bc85189b5b4b
fc90caf055da07deb2678c3453ceec93
fc9bc25753f2633df115635e28e5cee7
fc9d73c284edbd861b83f15c748b83b0
fc970a65a866e46661cac78257cf6d0b
fc9c5df21b9026b2dfd70af6f27cff84
fc9bfefcec6da46f02712b05563aa42d
fc9e9a2364cd2488949ed3686b147c23
fc90670a171327a726f30450fa4cf5c8
fc933d9987b5299caf82943145878025
fc9b59fffb8c2f90d3cedc8cb3d52c40
fc957d0f97833b968604484136b04b33
fc92fd5f90005ca1a7247f81eca330c5
fc91cff3a6641e0549bf9187688d1079
fc97e568eb5b33e7aa6e770b2c22ab74
fc962abdb56c0c956d73318f5b16a7c8
fc9fd2c20e2aa2533001268c347b3c30
fc9b9558e277b70511f13f82ea85d953
fc91d77cfeb354b2d617b51fc34e4a0f
fc9ee48c80998f161a47063ceaae5686
fc930f33643b12c1a0eab7197843de69
fc938470647824ea1a2a27aac2da1ff6
fc985d87ef14604b11a3625cd0e79c35
fc999548bd74f4574c965478d0032840
fc921c9d8f840c29e39586cb2462b236
fc94e2ca0808dd3c24a9af124bd843cb
fc9274a18913d4a726cac06c6746ed06
fc9d8066b80fd47a141d67af1df7aab7
fc9e1236874649234187fde784f4f8d7
fc9adcbb6b802c3bb4514691a1291c19
fc92a156f03677dad995c6dd32921334
fc97a1b0bb97739341d89267b4dc6f97
fc9cbc1988385827b1c489404a77c855
fc9d82d04c8f2b58311eddf40232c69d
fc963558eed9fd392ebcd9134f404566
fc9b8767a9f1440a6a6a5886306f8385
fc9b427aec0eaf609cf83c0777e9b219
fc91d59a02cfbb2cfbbba287edcdbd8a
fc90592905bb0fc5e4a3c0cc8f6fa9b1
fc95ed1ef0de5310cd7f85667c23d3db
fc960b44f5301348b71d4a7e970d325f
fc9317fa72e893dcd38ae032e9b45ef7
fc9c4966a23090a111305f53690b40b3
fc9414f8f27c7a9201f89faf6f236e05
fc9c7ef60b9716139a568e983444be11
fc95b7cb9c5b6e8af2bb78421f174a8b
fc9cfa4312057a270914324bdd47cde2
fc9a1edc19374d7bdef1c9d6dba9fb92
fc9bc2cb7f4f990cfdb14926baf9b524
fc9e93b78820b985ff6207ba8b485d3a
fc9694bc7cdefd70a6aa54bd5abd656d
fc95d4c26539c8c91b5719ca72ba5833
fc912351a9759fdc0fe0971d91b9d094
fc9f7bcfaf36eb87694b2eba2dc36f71
fc92d6d7b8c3bf6e326ef34035e3432e
fc900b34d2aa198798b676e452c0b213
fc9d6a7039bfc15b261970452fd2bb30
fc93ed3c4b994af011528dfdab4d7004
fc9889d8af25804beed300ad4bd827c2
fc9c61505dc2ae9f0b9ced2fc8d749ef
fc9468c277b6b7b677eddd24eaf69af2
fc9a96d03c247d2dfd5945075a1e8b91
fc948e72aba5d75398061780647b77be
fc961a13c0328eed1ff5df70457db4fb
fc96e07c04f786c188b0a1ce6d3818a4
fc9c66a8c5cd877313dd09a3822d0a14
fc96c6abf91934d1c41ead4bb54f9fc2
fc9f279aaa3ced00dd6d5762fdb158be
fc989040157c98c5e86d7eb0b4c419e0
fc99b5e31c0d78a9e989de5813699228
fc97220ded16886e90f681ed1c6c175f
fc90017aa30bfb27e8aff01820c26fab
fc91de23736cbabc20206f98d2bfc9f4
fc9fb98a44361726668d16ae8636d41d
fc9186b80ccb62173ecab0b58fce0b54
fc9b6b73a1a0fc6d89099145b0e104d0
fc9cfaa9de5b706d5b856cdba48a2732
fc9a17e61289aecf1709081c35289b24
fc902cc60cc6ee3aa7b1d2183d2f150e
fc9de355c8758604aa51541daf9667ce
fc93f6595b5b36c4d5328fc4a4857a55
fc95af5b769e3b43884fe0f6fb01802b
fc9bd9b5eaa1f0cb1869af76b5db4163
fc97e1e76c98469afc7cb6fd43ff146b
fc92e9a0cb3377964be979bdbcc81cca
fc9efa17abe0b42e29de8a37e2cb57cc
fc93c08b4ed1850d69a2cd71f4360409
fc916a6f833d738264e8fd7bed827165
fc9a7a534bbea66e03408f5b3d6427e8
fc94bd3dfde2a7b7208ac906102fff1b
fc959d733a37c8b6901a4cf393ea79b5
fc9c590e8ca64b48a18795c08840d437
fc919fcee859c9ae65b59497153a891b
fc99021d9e261acc2d5982e45029c461
fc9c7c5345e817b1b717c38255a1a3c6
fc95db16412de373c7470a8c197cbd54
fc95b2e94fc57d42865dbfed962d6ad6
fc914e3803611c1ab2dce9265ab761a9
fc971baa336fb5c793014cc720112ca0
fc9f96445931e94f9859aea393d45e6a
fc949486fb510c395cec4b7c432409d3
fc93f0d825a25a5f68c33d3ce3cb9fd4
fc94e3f7cc2c9ae948cfbaaa818962ba
fc938f82d6f4ac7b6184c1f4988f0476
fc937abbfc38625dd8a9a685614b9408
fc960e125788ff43403cf9c3f6e27834
fc9543f87d6598ad38ac78dc661e1775
fc92e5028986a7b8a5a7aa9ff0319e97
fc9b3fb48e3953ac069e32ae29f8e921
fc9d9f41ea491395fe431c5e239166e7
fc9c4d68ce6694436294bf630eeeffc8
fc9ad1bc182b080ffb96822c0f86610f
fc97a3f78fec2ae30d70085f0483890b
fc90c92cede771e531d399ff7c355ced
fc9042022adbbd8ab8ea290116a58a9d
fc9d8e9e99eedce751894378fa2bc1bc
fc9e9af84e316fb5a8b1592798d80223
fc9db7305695b509dd08055de45e4d44
fc9a6035068a8148af32f8ff8d64860d
fc9f0757041a5775d0ef7ba2a1acb9c2
fc9679a7a810c13b0bb5bc015224ba79
fc99ee8cc438ac3a851cacf41214faa5
fc9340d12508b9c350eb755dbaaa79df
fc916c20f16f3d0d08d591def434cdae
fc9935cbf01ce874d01addffd8a31fa2
fc970a6d7e8a7048c2621cee0f03fed1
fc9eb3c0dc4ecf574870eeffe355fdbf
fc9cdf7a7aceab2b508fac5ceb52fee0
fc9083e3791107bfb9bed518b708b0cc
fc9f598fca8e221a6961edcb750d1d8d
fc9c76db50ae19eb199110861bb62ba1
fc9f3619cc2482845c96e0dece93efd1
fc90a5b41d19cd73ec68243cbea84cc2
fc9247bc6ea069fcc29e5f530aebdbb2
fc98ae3bac0b295e7e0229f22692faa9
fc923adf99ec7e89dfe3c5fae0254482
fc9c50b2c54d234f5dd2e05c28845d6d
fc9e4462bd089abe6e2225d9aedd5ac4
fc999a403f44c0a83a0f26ab9ce1b02d
fc9af353627b080a99168fc186e6ba4d
fc9765cdeb122c721428296b9cf2d2f2
fc9133699b8e2ab4e47d47928cdf827a
fc9af2de19ce45ad7f9747321db360b2
fc99488591e3eeeb377e203c437b8eac
fc9245b52347b82d8ec9a1ab2be5e043
fc915f1683b34fcac3491fe566a82546
fc9b7376849f1f9f5fc8b714cc6b86b2
fc9f75f4dbdab2de9e6107ab6922b4cd
fc90f4fd39397c3c58744ac97ed756c5
fc96bd1554834cd8c8c80a343de2ca42
fc9199611b235a292fe97b5f4032fc4d
fc977130874822b5dd449f925193492e
fc97355d636e3a4a6b2c1ad33c8e9106
fc9ab0c9189136f8a9df3c0fc9f69552
fc9b063df7b588921d8637b4611e7373
fc96640e1046a81d6448b9d2a650f84f
fc912ff95faca8ed0d1afadb560a5d03
fc92a4dc98827640213aebc61c86d9d9
fc98cb94ae4efcf54a0acfd741eb18ad
fc946ab905f76502a7b98ca25b99eb85
fc92570bfef7490c8d691d9bdc97c75e
fc9813d7dd43bedf54af95bcd56467b9
fc9843a1ec6b6d650f0ef7b098fde2fe
fc930e6944c81afb21a2e4bde9d925e1
fc99afa9428dcc98f517c89549a3267e
fc93fe01ed8b9110b1cc048634e9f60e
fc98c37784751cd1b4485aea12905447
fc9fa8f7cab4a731990f9cd18ee18e57
fc9bd87393df90938691116feab72ed5
fc9c64dbbc10e2003ec299e81b1f1cfd
fc9276ad02230ce5ac98e4824c5894a7
fc936bc13dc6c46666f825475ea59010
fc9713e387e84c9e83d69851c53c7eaa
fc9b55a0f51aadc8a0683a7f537c3ddf
fc922f803f87bde39f5c1db7a4a2e9eb
fc959ba430766924bf3b6591e3350308
fc99b06864493127c8709dba8cc32692
fc96fb5d2a67e8ccc6cfcef62ba0cac6
fc9690672d740388c0b511eb1554cdb4
fc9756e17fa92b8e35cabc20554f7732
fc9cfad758da135f6a43dcceebeb34e0
fc94903dd712bf4bc1c9d52031e79aad
fc90cc4f90c0dfa2077a9a0fc6ca8a1b
fc96a895c77070d8f934c7b62fc30cf1
fc99ee2ef62fea6734f20afe8b3fd164
fc9e9a9b9db62d37415335c33f5b64b9
fc9281fbbc5c312a094cdd8a7764db37
fc9c8d9a9303383304704670b00531a9
fc94d302fea56977c155a5e514a62eee
fc904cee13d805b79f56e46ab12fe888
fc9c7e4df93e0d84942013ba761993fd
fc9c635bfe35f26012e757c9cf682096
fc9c78f257f8c7717b0a40cc030e0066
fc90d5d4730febe05e071c1926fcfa7e
fc962b4eb08d19a6f6f2fb678375713e
fc9ffb276a9883e0f148a0b43fbb3a35
fc9a19407f85c3e46860ddff24b6b81e
fc9680df967562001e32e9f2f2bac1b9
fc94a46b3faf8f61ed419b9f038398c8
fc958334ad0cfa8cfe13ada6663ac71c
fc91db8504fa9ec71d9f548b9df9fc09
fc904abf089926f611a349ebf0993e10
fc9232ac6e8380d9989a345780419057
fc9cea219a9c5ad2d8c7479257dc95b9
fc99ca275e0129a9a67018655c487c00
fc9e73f5750b49cc582f58a71d917bb8
fc9d9826403db276b2a640cabc1ca39b
fc98779504b09965b31c2767669d0418
fc9e139b0dfdb22ff930cdc0a2212c1e
fc931a52c0fe908f83b5d093dd22c7ad
fc951fbd4aaca80a027fe4aec9bd4d3b
fc9a4a41b6931ce38caa890b427952ac
fc9bebf05191e68a5a9c00e601791a13
fc980bc1e4705378c88c3795692fd494
fc96f11718d0fafcf245b8662ca97649
fc9538164df781c1e18bc55f30c08dfd
fc96c12b89a14d6badc79ebe43de3efb
fc94265de8028777a1d31d49d8d42679
fc9f21afaa619f03dd4b8be86d8b37bf
fc9e3523a7d4f87efc121d98336b1232
fc967e9d288e08f26908cb38deca911b
fc938a1ff73216238719b7a1fa045641
fc99dbaefcb5a1bf02fd0564c7dfd3a8
fc97f16153f6f373b364b3a15d98ff0a
fc981d15d6f61420a2c73a9a2d250151
fc9e2fb0061ab7ae6beb3d5fe6cf8f9e
fc941aac3591610da72c9e51b99f25e5
fc9013051edf5ed98793b00da0f2aca2
fc95659babeba6cf6c3996883e5bf358
fc986670ffb667a7ba7fa8cdd8ce36a8
fc958778f3930038d2246a0bb8539761
fc952e91ff0d32e7f64647813ce71dde
fc9996ae5496eebb672b343050e59f59
fc90807cee65173c509adac2041e5ca4
fc9a0864dcd1c4651eee25adfd383fa0
fc92beb04abcee373caa54e35c8925ed
fc902acca16151083c05376f0495e7c4
fc9d69d17917e8f47f41d695fecd0f1f
fc9ba743cbe79bc0beedde9e617e0143
fc972c988a521e7dc6db099a1d28284f
fc96431406b8b02f20b7f3369d0c2be8
fc9409b5ea9ea0b2a3a7040dcc552415
fc950b07111fb727a7a97918e385f3b6
fc9d46956001a342dd33fd41a442ca6f
fc90e732099404b67f92938cbcbe3b3b
fc96076e96960d764a1659af72bde91c
fc9c7d93cef84e3ac16dc4edaa589939
fc9c5ae767887a9cc72a6b4e1625d5b9
fc958df5e90fe68449fd7d21d11c3d57
fc9544e8cc6dbb89e229aceea3c80295
fc92d1cf91965d51d5d1227e514df5e8
fc954c1389fbca168b9c16f581fb7a54
fc9fddcbedd055a5dd64a2948d5e13cb
fc9dcc39bbbdf18a2e60de9d85c514b0
fc937105cff3ee0248058b6469c3d3a4
fc99c0cd8c8f634ac67bc25e9c84d69f
fc956aa3498072bde0882b011208d863
fc9d717f612babbb5730b0d36eaa86bd
fc913b512e2523bb2f6f6990692fbd49
fc9629a20de43fe64139352770b44e8a
fc9428c629922f589637b1f5b0f2370d
fc947ce8189ea408ed2d1e574046fd47
fc99b923115497b800619627ef0a453b
fc9201d125990a7ee50c0623cdd15fe6
fc927384b7598f3ff52269a5e198fd0e
fc9116faa9e1181c0187bff6232112ce
fc9994c52f373c546449a4534077c335
fc9dcc30e13aea9c1c2fedcfbbc28a03
fc909f3ea1baf9ee914234aa8b8ba192
fc994c3e555214d4aa42b058ba8b7fc4
fc94f016719ecb8301f0a36fec537074
fc90c518318af90dd501fe1a55b6d01d
fc9d82ae8e114e80be74fc947eaa01a2
fc9d7d124f122d174f28460aa528c102
fc903e31fb3633e6f5ad810f840cdd7e
fc9307a087000d4112fe11c5eb1d6aba
fc94ba3b13aa1a013d2cba20fc95bf76
fc991a1572448260093c5b7c33fb3835
fc9dd962f375f5d387386aa566e38597
fc9235144867e4af06d028aa717f94f3
fc95dcd624bb36ce705050d03d506d5a
fc927f28dff0990b9b8e51acbb0dcb8a
fc93fd1d54665d2d8799a5ada072f81b
fc988087b57d9e9c2473688eff48c4a6
fc9d635f199b3a450b7eddd8b6149a4c
fc9c57f2081b6c5471b41d4b55aecd33
fc9092da31fc19bfc1ea5896de6a8c97
fc982ee983cdf0fd570559d35d314fad
fc98c4cdbfc20b02c7e396ffd8500c69
fc913de7e3247489ec0314c551c7db31
fc9d50e27601f40ccfd41d6114a21311
fc9583c0f69ac440bd3290ece6fcbe07
fc9a78dc5d2ff7198e4405e10e60b0e5
fc9ae4a730ad27ce9f22aaba185cd8d4
fc929e205991e26a4ed2e0b23ed6a595
fc9be74e9d0cb839fc467c05f5f4bab7
fc94523e8d4a7397986b2a36f7496c10
fc9f41cb854a3390979e089de0bcb1c6
fc99dbf652e199935097731b984b60f2
fc907c958022e6222d3b7f3239dccad7
fc956fc2a022d576db6e1de3d9d5f15a
fc9946186852ed7b433cc2a7860d6718
fc96d02e6724857b29130d72945a967d
fc952e706f730f363954303cc0a6bbf6
fc95f82894cc471ab47ab8b4dc30d78f
fc9d2bb3aeee3dfa33e8f04174400dc2
fc9a1a33ea714901dfe597331273ef4d
fc9cd47c328f1fb0d7617c64fbf5897c
fc920be84c5579084ce24a4b63ca31b3
fc94d5b32dcc87070222c4d416a3d8c8
fc91ba45345771ee2471bce454032634
fc99e358d9f88ad0acd0cfddf1c4260e
fc99b3c231b3ee014a6505c1c6727fd7
fc9f38c23de76590604a37b13175d013
fc949de440e3c91bfab48694bbeac8ed
fc93a27dc23c87859f70133c0ec002ba
fc9646ada08114ceca9d03dd40fe3a5d
fc93af45f3d20041213cfa4e82cc4eed
fc9d33632058463da9c91397ad6d3512
fc9a2b21fa71a4ef90537618d285066b
fc96e189949b36d3ea8484b7edd7d2b7
fc9e3db0167e39bd06d908780685fa49
fc98a05e476497db5c5d3f79f5dd7dcf
fc932654f3eb9ea066e828910b74e9b4
fc99f53599572bde063de97dd3aab0b0
fc9640e3c7976f4b2bf6435311599880
fc9e76a9ac7756a2a30fab5318480496
fc9d4c2197de51ec66d6ebaac6505abc
fc92f616a3ab4c49b5e917b8cb2a8f7d
fc9b2a6a4ab7dc81b191b788c72c01c5
fc99f89a96005e5d3d8f8d300556858a
fc9fcc5e47c0ef53b162a0d523b5f97d
fc979812acf2bd022106a3e86085a0dc
fc9612a35781f7fec85bf58cced85043
fc9939b28d479258697c2c71274d1d60
fc9bc9f89697538d2545c7656618e5c9
fc9d0cee5e17c53a833a7677edc79bc7
fc9eea0234a376619bc6342cbc9b5651
fc9e778123d9561bda19809f2ad8fe0e
fc97a30a1459b5fedfbb8b4b696a008d
fc9a801554242affa1b4bdd705a6c198
fc924ab665aca696cc032f9a39c7060b
fc93247c38fefd3cf5cd1cc5f5e22bfd
fc98672afb0fea384a25414eb0d36bc2
fc9128e98725c65b6f07e8d723dfc371
fc91d53adf170b8d22538994f96898d4
fc959278b159d9212200012b92bb9919
fc9ef9bfb7e6a22c21d66d2572376261
fc99bda1f0c5084741fad2fe2635bf72
fc9e9729734c8290b867d8c1f0829c08
fc994f2e433923c7886e07d361fcd09f
fc9585ebe249e6ec3182eb98bb99b6d1
fc9d76a5da243df0b8e5a201fc3c1338
fc999614f1bbe660c699b7053f97ae5b
fc90a022d56b2f7cb62a28af4775d218
fc97023151dec742a46c05e3b65db8d9
fc97e52b883ce8cb4627a657c75c2e0f
fc96d4acfd26fe99d50b02658904720a
fc9642d7eb7a2d6d45fd75c2a871a7ce
fc97a966bb70b703504000965196cfe5
fc993ee7f91bc83fc0a2cb69c59f8303
fc99dacd09db268b8da53ea1ad05168b
fc9f8ce90e10977553561c26c4909b83
fc9280ab67a11034ea378dc6abaa128a
fc9fb66c220f857e146303f726c3d42e
fc9b0e49131002d5bc04751a295fa953
fc9c28136a6f251978720361889cbe2e
fc9d4169455c23f2a29f95828102abd3
fc98d7bb9315e053561b9b30eb7dccb3
fc91a524fccabfa0565bc51cf11f2d85
fc990c83f9b705f6b9279bf48ed8a693
fc901dfa330dd96ba61ad356acd5b8c6
fc9279e9cb1089cfc05ac9ed8f483151
fc94735d4c1466d40acc95c031863b29
fc9f3a847ef793b458c4151308f09207
fc9d7b5294fe519b64eef809a26be19b
fc9738d560624ccba083777b65fcbe48
fc9d77a4130da39957213ed997746743
fc93ec11a70d542045d93d0e15b8c3a8
fc91f856eab5db2c67e91b5af3ee30ba
fc92106c0a97e7e9e22073aaa5600d6b
fc9f8e131dd2181191bf9ec36f50904b
fc9573aaffe4f706815e0fdf9b851a46
fc919e2bc44737a2fa19ec1cb30e674b
fc9d453eaa85fda0f633f762fd66a739
fc99b5946099e900a4748dc2d1217270
fc9a2e31ff262d06a925139a28f0ccd3
fc99fe68ea6752424221ce810b23e8a8
fc95f6bad38a1c94c56c976b4aa03277
fc9a552353a36a841c1178c283d0b3fe
fc9f1a76d47d63482cea23921d817b21
fc95f9455e5188a530263f38d331da76
fc98239639cc1d0bddafcab2396a09de
fc9ea197081dab761ef17a101c32a4d6
fc9e0a49b61ab07960d0b5b05669af55
fc9e5ce9f53c42d493e803738273ae80
fc91b5075e282bc7415b030381cd5e08
fc9dfa3d22b2ec8479e28dcdbe91150e
fc977e578ae4019e76ba3a181d2170ff
fc94a720b7bcd9d02622ce2018ad48b4
fc94d2c8710b1a640e7a2d0d993c503a
fc9c64310761b43f98fc2a9a4630891a
fc9e5f83e6edec2633482080170519d0
fc9fa0693b08825a57026c2fa660dfbc
fc968f0d5b1a0578650f22cb6f7aad97
fc95114b1bc4f483239e63b4e5048d5f
fc914752c64ade32b10633025144f4ac
fc9c048011f0c79f14b07cddc545ecb9
fc9c80d1a93c740bf3c156f75e43a160
fc95556cbe878082f545b37f876a4dc6
fc955ef9849d2cbd1f2cd63c628cb1ea
fc9361aabceef692aafe274a5ac8d881
fc90e9545546d30e0fd65374c0876916
fc974ec744cace0dc5241528b8b6dd77
fc9deff037b79a159e2f899515c5f34f
fc98e3f53546183c65f011b777b68650
fc9bb9696bdb251d3b63c5274c23fb68
fc9f52b1c21aabe5dc12b305bcac98a1
fc94b37417488141fc37b2f7afbcfe93
fc9bed40f3e8ed428ddb03299f62bf81
fc9765833cb2495cd9904e063aa85c6c
fc94bd41ccf5e64f37d6cdb39cdc8246
fc9d68ef6fd4c35204bce6abaa38522f
fc993d35418c0f4bdb1f66d028ad0b5e
fc97fd88f47c49edba8d3a6e68525e0c
fc9bde24f77044214fdf8e40d9d5bee6
fc9cc1a4e02a13246cd463540c0901d7
fc9f3a86bca27343cd6dc2f48ac280fc
fc9768dd28626934ed27b38f2e67163f
fc90d75c275d05cee964a9742e9f796c
fc9a1568360efa9e10cb16ed54fe8ae6
fc98a2709183758883b464057df66b86
fc941f2ed69d01dbfac146101676846b
fc9a6fecb8aa8b80bca406998f211b9b
fc905a6b9324e8a306a71ded1ffa3744
fc99d3738962286a6368d704d88af6a9
fc9810ba0bba863178c3c6ba9edb26f1
fc95f48a5d54b22fff4b923c042e30f9
fc96ed7c3136f9fbb4ed05a8bb906a76
fc9a0f0e4563665fe8a142c8304f1a63
fc988456d74f5da1f226a7f2dc271ab0
fc9b2794c218f15804feb47933d2e981
fc9020e251e6a69f63d6a77e889cfcb2
fc938c2222dfb66938d5ac0312f6c430
fc9ff2a3585b0eef2e533e82dd1aaaeb
fc9a07b13eeed94475d2e2abf85ac981
fc933c31fdde80fe9706888ccf7ca30d
fc98518ab2394f4e7b7e0f1d3e4914d2
fc9de7db28cbc55fc46abfa2fb35e5ce
fc94ad8ae39d4a3177c51d4ea369a7bb
fc900bf9058bfd8226d8b70cf3594afe
fc96c32b188c56465f32bc3976ecc0c2
fc97fc40101912eb6c7eb95713c702c8
fc9b8cd8947922991edf8e1cfe76353c
fc9e53745be15cb15616a8fbbdf684f3
fc9c41b44c60a1d7667dab15869f491d
fc9048b56c8e2ab8ee5167e5c199bc5c
fc9b6db679731c0106836e57e52f2d7f
fc9bd8b6980f35f1ce59ccbca98b7a2e
fc962538df837aab9af55507fe65ddd3
fc99f237436e65c874fc635575faf5b0
fc907f4ee59271dd9a3b92124b8755f5
fc9f41697b6b3076ace60c0f0b1ff959
fc97063be2abb416823fcb677e6338b0
fc97b24603d176dbd7ed9ac4ada07f8f
fc93d846963078220557a95076e3c30f
fc92275a95077f28a267cbf45981d757
fc90ddc128269cd7c769c5ba666f99dd
fc9c057a088498236d1c7ab0f32fe710
fc9095a49d1d88ae8da894b4c06bc562
fc94ca3a9f51c3b98cf2754b852dab0a
fc97b575e6332a1a859020a16eda0ea0
fc99b7652f6fe601ecb408a2060803ff
fc9828a70c5479255adaf7eed0477fb9
fc95a0edff40534576cabe77677a8f54
fc9d4555d80641014ec3b9b8964d7f24
fc9ff799db6af3e0e8f3002563253a06
fc9a39741760933e09bf568367002c50
fc98f61a6f9d299d6512d09d77ea3957
fc94e9fc5301ff1bc49c744a6591a2af
fc9facb86dd316f3dbaffae52f4700d6
fc94ebbec5bd9d413872bc853ae73fa4
fc9b5eb5a9294689869833942688259f
fc93650a60138b13622e3133ea542139
fc9eb725bb57daa84e616e250395a8c6
fc91212c36b721f499348ca58b18887f
fc9549fb2e638826127abf87b345e71e
fc9007527cc3810d87e49b58449dd9d7
fc995c8b670a0a13186ea1f18d1af422
fc957ed73f2fb1fc96588c578709bc69
fc970037fb260b609c6abd158a87e8cd
fc99ae7c19e42266d148b882a5cf94f7
fc99ceb74678e9bae1fcdaa650ee5b6a
fc918ebd30a673d5ae776eeb4b38a721
fc9f084f97581161ad1113f2b4287a47
fc9ccd0542eab07bf1a5e2d96103240c
fc9ffcb7663038fc8287a0ca215d7f2c
fc98a11a2d28f83d137f0f16e6634f1c
fc9a6967e4c4e29d16ca605ec1d96c4a
fc9276980359e1f0c8e0d43c0900cf09
fc99fb4a808480ccf5eb6f9e10582121
fc909aff327056d19b1ba1942f9d7d00
fc948cb894bb3a9047e81762546ec2a7
fc9f3b66ff8e65f5afcb1794d81e77c7
fc90506b30525419350fb8577ad9f0de
fc913d04844074b6e168b83a2a4da724
fc91c7ef2abdb7a24415978e7a713588
fc951cbbe9bdf2bbeed412b4ccde1d6e
fc9644206fbeecb8b3fe53d9aac8bdc7
fc9bb0c080f79202e55fa5e94734181a
fc9f269be323a15654bc7440d171f41f
fc94a1be4bfbee15d86bf6e2cb719239
fc9ab29613f73ffd137b5cba0dc25cc7
fc9243bca54cef2c9e349b5129715e1a
fc9b3f5633558fa397ca61a0bb13ba19
fc9c490e7bd0a7e06e2f45a8a4659c47
fc98536b96279e7cc50f2ce580ceab52
fc9c5010980902089547be22d5522d97
fc995e3c7c49cd6f29bb8d40f8430ecf
fc97a5e9faf499bd0b2b273133eff234
fc9ae4838f87d8e6ded83c7766a362c7
fc964d8a6ce1790f71f3427b58f0ec16
fc913c8faab442ae7c06720c84a19ccb
fc921c3c44a2f87b72bf2d8035c9d06a
fc92dcec9e534e3b8ef548510317f3fb
fc9b68a7a57d1ac6a7ca8b1d8b83a2ba
fc96f02cb6c13f80585e8c22f5bef3b1
fc928a0f04b5e7aa14576cfab5d54ece
fc98267d87eb7c8c68cdb7ee5fd40061
fc9bc12598cafe9bc56be27cb51e3487
fc91bf044cfc0a6ed991788023cbffff
fc9291dc855f63163362383f27b91372
fc96f35c8316b9db888b630e22b35f5f
fc9fb028ff4c74b9042eab49fccd02bb
fc90c37d7f9861e9e7e3c726a88ce10c
fc926a3ef85e264973628b6c75b15ca5
fc9e23922302865cf40572f2b6dd1ac5
fc9bb445b3186d2d83281ee63f905fe0
fc9f993c1c9a40b16b3fbbf051342e84
fc903a1b77f26b68d02ce4a4e5bd4870
fc9b00620b7daef5e4c3176dacf0ba98
fc90410bb02eeb537f9e8717fe242a40
fc94994402dfd31287f2fb6a5187d93e
fc901ce4ff1752c895bf0747fd47ada2
fc92f816f713d4f7268f47df21a6471e
fc9bcd77c45c404ea3be88b794a0be16
fc95b574b13690fe9d6b31d157b10c20
fc94975e8a38c2be95f51bbd27464b61
fc9cd9b6f7e9812b1b84a486d43f19ad
fc9b0aba547602d3c3873d8ac0dd8c7a
fc930cf8d1f72fd67960310a79853d92
fc90b652c149cca241be541a9cf44aff
fc9d1d5186edc3ee8d14a71f89a613bc
fc9b0caf18a959e02ab27448bc5772f3
fc9f94c235e887b814ceaf58a42cfa51
fc98df3b48bfce8240534124a418245a
fc9e6fbe1f35b2a2d25658cb02e7dfc0
fc92eb8b31a78dea3bd0a7ab2762452e
fc96cd8e68053db93fb40197eb6983e6
fc9af1aee4890d68ec2d42db8082062f
fc91a745b1d47257fa54450263dc5174
fc9254a7d8b36b586136410056c53916
